{
  "version": "1.0",
  "truncation": null,
  "padding": null,
  "added_tokens": [
    {
      "id": 0,
      "content": "<pad>",
      "single_word": false,
      "lstrip": false,
      "rstrip": false,
      "normalized": false,
      "special": true
    },
    {
      "id": 1,
      "content": "<unk>",
      "single_word": false,
      "lstrip": false,
      "rstrip": false,
      "normalized": false,
      "special": true
    },
    {
      "id": 2,
      "content": "<bos>",
      "single_word": false,
      "lstrip": false,
      "rstrip": false,
      "normalized": false,
      "special": true
    },
    {
      "id": 3,
      "content": "<eos>",
      "single_word": false,
      "lstrip": false,
      "rstrip": false,
      "normalized": false,
      "special": true
    },
    {
      "id": 4,
      "content": "<sep>",
      "single_word": false,
      "lstrip": false,
      "rstrip": false,
      "normalized": false,
      "special": true
    },
    {
      "id": 5,
      "content": "### Language:",
      "single_word": false,
      "lstrip": false,
      "rstrip": false,
      "normalized": false,
      "special": true
    },
    {
      "id": 6,
      "content": "### Code:",
      "single_word": false,
      "lstrip": false,
      "rstrip": false,
      "normalized": false,
      "special": true
    },
    {
      "id": 7,
      "content": "### End",
      "single_word": false,
      "lstrip": false,
      "rstrip": false,
      "normalized": false,
      "special": true
    },
    {
      "id": 8,
      "content": "### Prompt:",
      "single_word": false,
      "lstrip": false,
      "rstrip": false,
      "normalized": false,
      "special": true
    },
    {
      "id": 9,
      "content": "### Response:",
      "single_word": false,
      "lstrip": false,
      "rstrip": false,
      "normalized": false,
      "special": true
    },
    {
      "id": 10,
      "content": "### Instruction:",
      "single_word": false,
      "lstrip": false,
      "rstrip": false,
      "normalized": false,
      "special": true
    },
    {
      "id": 11,
      "content": "### Output:",
      "single_word": false,
      "lstrip": false,
      "rstrip": false,
      "normalized": false,
      "special": true
    },
    {
      "id": 12,
      "content": "<tool_call>",
      "single_word": false,
      "lstrip": false,
      "rstrip": false,
      "normalized": false,
      "special": true
    },
    {
      "id": 13,
      "content": "</tool_call>",
      "single_word": false,
      "lstrip": false,
      "rstrip": false,
      "normalized": false,
      "special": true
    },
    {
      "id": 14,
      "content": "<function_results>",
      "single_word": false,
      "lstrip": false,
      "rstrip": false,
      "normalized": false,
      "special": true
    },
    {
      "id": 15,
      "content": "</function_results>",
      "single_word": false,
      "lstrip": false,
      "rstrip": false,
      "normalized": false,
      "special": true
    }
  ],
  "normalizer": null,
  "pre_tokenizer": {
    "type": "ByteLevel",
    "add_prefix_space": false,
    "trim_offsets": true,
    "use_regex": true
  },
  "post_processor": {
    "type": "ByteLevel",
    "add_prefix_space": true,
    "trim_offsets": false,
    "use_regex": true
  },
  "decoder": {
    "type": "ByteLevel",
    "add_prefix_space": true,
    "trim_offsets": true,
    "use_regex": true
  },
  "model": {
    "type": "BPE",
    "dropout": null,
    "unk_token": "<unk>",
    "continuing_subword_prefix": null,
    "end_of_word_suffix": null,
    "fuse_unk": false,
    "byte_fallback": false,
    "ignore_merges": false,
    "vocab": {
      "<pad>": 0,
      "<unk>": 1,
      "<bos>": 2,
      "<eos>": 3,
      "<sep>": 4,
      "### Language:": 5,
      "### Code:": 6,
      "### End": 7,
      "### Prompt:": 8,
      "### Response:": 9,
      "### Instruction:": 10,
      "### Output:": 11,
      "<tool_call>": 12,
      "</tool_call>": 13,
      "<function_results>": 14,
      "</function_results>": 15,
      "!": 16,
      "\"": 17,
      "#": 18,
      "$": 19,
      "%": 20,
      "&": 21,
      "'": 22,
      "(": 23,
      ")": 24,
      "*": 25,
      "+": 26,
      ",": 27,
      "-": 28,
      ".": 29,
      "/": 30,
      "0": 31,
      "1": 32,
      "2": 33,
      "3": 34,
      "4": 35,
      "5": 36,
      "6": 37,
      "7": 38,
      "8": 39,
      "9": 40,
      ":": 41,
      ";": 42,
      "<": 43,
      "=": 44,
      ">": 45,
      "?": 46,
      "@": 47,
      "A": 48,
      "B": 49,
      "C": 50,
      "D": 51,
      "E": 52,
      "F": 53,
      "G": 54,
      "H": 55,
      "I": 56,
      "J": 57,
      "K": 58,
      "L": 59,
      "M": 60,
      "N": 61,
      "O": 62,
      "P": 63,
      "Q": 64,
      "R": 65,
      "S": 66,
      "T": 67,
      "U": 68,
      "V": 69,
      "W": 70,
      "X": 71,
      "Y": 72,
      "Z": 73,
      "[": 74,
      "\\": 75,
      "]": 76,
      "^": 77,
      "_": 78,
      "`": 79,
      "a": 80,
      "b": 81,
      "c": 82,
      "d": 83,
      "e": 84,
      "f": 85,
      "g": 86,
      "h": 87,
      "i": 88,
      "j": 89,
      "k": 90,
      "l": 91,
      "m": 92,
      "n": 93,
      "o": 94,
      "p": 95,
      "q": 96,
      "r": 97,
      "s": 98,
      "t": 99,
      "u": 100,
      "v": 101,
      "w": 102,
      "x": 103,
      "y": 104,
      "z": 105,
      "{": 106,
      "|": 107,
      "}": 108,
      "~": 109,
      "¡": 110,
      "¢": 111,
      "£": 112,
      "¤": 113,
      "¥": 114,
      "¦": 115,
      "§": 116,
      "¨": 117,
      "©": 118,
      "ª": 119,
      "«": 120,
      "¬": 121,
      "®": 122,
      "¯": 123,
      "°": 124,
      "±": 125,
      "²": 126,
      "³": 127,
      "´": 128,
      "µ": 129,
      "¶": 130,
      "·": 131,
      "¸": 132,
      "¹": 133,
      "º": 134,
      "»": 135,
      "¼": 136,
      "½": 137,
      "¾": 138,
      "¿": 139,
      "Â": 140,
      "Ã": 141,
      "Ä": 142,
      "Å": 143,
      "Æ": 144,
      "É": 145,
      "Ê": 146,
      "Í": 147,
      "Î": 148,
      "Ï": 149,
      "Ð": 150,
      "Ñ": 151,
      "Ò": 152,
      "Ø": 153,
      "Ù": 154,
      "à": 155,
      "á": 156,
      "â": 157,
      "ã": 158,
      "ä": 159,
      "å": 160,
      "æ": 161,
      "ç": 162,
      "è": 163,
      "é": 164,
      "ê": 165,
      "ë": 166,
      "ì": 167,
      "í": 168,
      "î": 169,
      "ï": 170,
      "ð": 171,
      "ă": 172,
      "Ą": 173,
      "ą": 174,
      "ĉ": 175,
      "Ċ": 176,
      "č": 177,
      "ē": 178,
      "ě": 179,
      "Ġ": 180,
      "ġ": 181,
      "Ģ": 182,
      "ģ": 183,
      "Ĥ": 184,
      "ĥ": 185,
      "Ħ": 186,
      "ħ": 187,
      "Ĩ": 188,
      "ĩ": 189,
      "Ī": 190,
      "ī": 191,
      "Ĭ": 192,
      "ĭ": 193,
      "Į": 194,
      "į": 195,
      "İ": 196,
      "ı": 197,
      "Ĳ": 198,
      "ĳ": 199,
      "Ĵ": 200,
      "ĵ": 201,
      "Ķ": 202,
      "ķ": 203,
      "ĸ": 204,
      "Ĺ": 205,
      "ĺ": 206,
      "Ļ": 207,
      "ļ": 208,
      "Ľ": 209,
      "ľ": 210,
      "Ŀ": 211,
      "ŀ": 212,
      "Ł": 213,
      "ł": 214,
      "Ń": 215,
      "Ġt": 216,
      "he": 217,
      "Ġa": 218,
      "Ġs": 219,
      "nd": 220,
      "Ġw": 221,
      "Ġthe": 222,
      "ed": 223,
      "Ġb": 224,
      "Ġto": 225,
      "Ġand": 226,
      "Ġh": 227,
      "in": 228,
      "Ġf": 229,
      "ĠT": 230,
      "Ġwa": 231,
      "re": 232,
      "it": 233,
      "ou": 234,
      "Ġl": 235,
      "Ġc": 236,
      "Ġd": 237,
      "Ġp": 238,
      "ay": 239,
      "er": 240,
      "Ġm": 241,
      "Ġwas": 242,
      "om": 243,
      "ĠThe": 244,
      "is": 245,
      "Ġhe": 246,
      "on": 247,
      "ar": 248,
      "Ġn": 249,
      "im": 250,
      "Ġsa": 251,
      "ll": 252,
      "id": 253,
      "at": 254,
      "Ġha": 255,
      "ing": 256,
      "Ġg": 257,
      "ĠS": 258,
      "en": 259,
      "ot": 260,
      "an": 261,
      "le": 262,
      "or": 263,
      "end": 264,
      "of": 265,
      "ir": 266,
      "am": 267,
      "et": 268,
      "Ġth": 269,
      "Ġit": 270,
      "ĠH": 271,
      "ig": 272,
      "Ġin": 273,
      "ĠThey": 274,
      "il": 275,
      "Ġ\"": 276,
      "Ġpl": 277,
      "ĠHe": 278,
      "ow": 279,
      "ver": 280,
      "ri": 281,
      "ut": 282,
      "es": 283,
      "Ġu": 284,
      "ith": 285,
      "Ġsaid": 286,
      "Ġplay": 287,
      "Ġwith": 288,
      "pp": 289,
      "Ġday": 290,
      "Ġy": 291,
      "On": 292,
      "Ġr": 293,
      "oo": 294,
      "ĠĠ": 295,
      "ked": 296,
      "ex": 297,
      "ĠI": 298,
      "Ġbe": 299,
      "Ġher": 300,
      "ld": 301,
      "ĠShe": 302,
      "Ġst": 303,
      "ce": 304,
      "Ġhis": 305,
      "ĠTim": 306,
      "nt": 307,
      "ck": 308,
      "Ġbig": 309,
      "Ġyou": 310,
      "very": 311,
      "ke": 312,
      "un": 313,
      "Ġon": 314,
      "ve": 315,
      "Ġhapp": 316,
      "all": 317,
      "ĠL": 318,
      "riend": 319,
      "Ġfriend": 320,
      "ext": 321,
      "Ġof": 322,
      "ily": 323,
      "Ġthey": 324,
      "Ġwe": 325,
      "oft": 326,
      "Ġnot": 327,
      "st": 328,
      "Ġhad": 329,
      "Ġli": 330,
      "Ġup": 331,
      "her": 332,
      "Ġwant": 333,
      "Ġe": 334,
      "ad": 335,
      "ent": 336,
      "itt": 337,
      "se": 338,
      "<|": 339,
      "|>": 340,
      "endoft": 341,
      "endoftext": 342,
      "ĠB": 343,
      "Ġdo": 344,
      "Ġhappy": 345,
      "Ġthat": 346,
      "ĠM": 347,
      "Ġvery": 348,
      "Ġfor": 349,
      "Ġsaw": 350,
      "ould": 351,
      "'s": 352,
      "One": 353,
      "Ġsh": 354,
      "Ġmom": 355,
      "ittle": 356,
      "Ġlittle": 357,
      "ch": 358,
      "Ġshe": 359,
      "ime": 360,
      "Ġnam": 361,
      ".\"": 362,
      "Ġtime": 363,
      "ound": 364,
      "Ġk": 365,
      "Ġso": 366,
      "al": 367,
      "Ġthere": 368,
      "Ġnamed": 369,
      "Ġsm": 370,
      "Ġbo": 371,
      "Ġwere": 372,
      "ĠLily": 373,
      "out": 374,
      "Ġwanted": 375,
      "Ġbut": 376,
      "The": 377,
      "ht": 378,
      "Ġfriends": 379,
      "el": 380,
      "Ġne": 381,
      "ved": 382,
      "!\"": 383,
      "ĠTom": 384,
      "Ġan": 385,
      "ird": 386,
      "Ġbird": 387,
      "Ġis": 388,
      "ĠIt": 389,
      "ome": 390,
      "Ġtoo": 391,
      "ug": 392,
      "ide": 393,
      "Ġwh": 394,
      "Ġwent": 395,
      "Ġhel": 396,
      "ue": 397,
      "ter": 398,
      "Ġall": 399,
      "Once": 400,
      "ĠA": 401,
      "Ġre": 402,
      "Ġhelp": 403,
      "Ġloo": 404,
      "Ġlo": 405,
      "ake": 406,
      "ur": 407,
      "Ġupon": 408,
      "ry": 409,
      "ind": 410,
      "Ġfun": 411,
      "ore": 412,
      "ame": 413,
      "Ġas": 414,
      "get": 415,
      "ill": 416,
      "ra": 417,
      "Ġtoy": 418,
      "Ġat": 419,
      "Ġj": 420,
      "Ġo": 421,
      "Ġdid": 422,
      "ic": 423,
      "gether": 424,
      "ec": 425,
      "ack": 426,
      "um": 427,
      "Ġtogether": 428,
      "ly": 429,
      "Ġcat": 430,
      "Ġtre": 431,
      "Ġse": 432,
      "ted": 433,
      "ood": 434,
      "Ġcan": 435,
      "Ġdog": 436,
      "Ġcould": 437,
      "Ġtheir": 438,
      "ard": 439,
      "ark": 440,
      "Ġgir": 441,
      "Ġro": 442,
      "Ġplayed": 443,
      "Ġhim": 444,
      "ain": 445,
      "Ġball": 446,
      "Ġare": 447,
      "?\"": 448,
      "Ġgirl": 449,
      "ul": 450,
      "way": 451,
      "Ġfr": 452,
      "Ġgo": 453,
      "Ġle": 454,
      "my": 455,
      "hed": 456,
      "Ġout": 457,
      "ĠĠĠĠ": 458,
      "hen": 459,
      "Ġthem": 460,
      "Ġkn": 461,
      "ax": 462,
      "'t": 463,
      "Ġsad": 464,
      "Ġboy": 465,
      "Ġhave": 466,
      "Ġtree": 467,
      "other": 468,
      "Ġman": 469,
      "Ġcl": 470,
      "oug": 471,
      "Ġsp": 472,
      "Ġloved": 473,
      "Ġlooked": 474,
      "Ġfound": 475,
      "Ġstar": 476,
      "Ġsc": 477,
      "ĠSue": 478,
      "ag": 479,
      "if": 480,
      "hing": 481,
      "one": 482,
      "Ġback": 483,
      "are": 484,
      "own": 485,
      "ĠMax": 486,
      "Ġme": 487,
      "side": 488,
      "ight": 489,
      "op": 490,
      "Ġbec": 491,
      "ong": 492,
      "Ġpark": 493,
      "Ġcar": 494,
      "elt": 495,
      "ĠOne": 496,
      "Ġwould": 497,
      "ĠW": 498,
      "Ġliked": 499,
      "Ġla": 500,
      "Ġfa": 501,
      "round": 502,
      "You": 503,
      "Ġlike": 504,
      "Ġfelt": 505,
      "ell": 506,
      "Ġnew": 507,
      "Ġsee": 508,
      "omet": 509,
      "ĠBut": 510,
      "Ġasked": 511,
      "Ġno": 512,
      "Ġal": 513,
      "ice": 514,
      "ĠĠĠ": 515,
      "ĠSam": 516,
      "est": 517,
      "ared": 518,
      "as": 519,
      "Ġstarted": 520,
      "Ġcame": 521,
      "ĠBen": 522,
      "ĠĊ": 523,
      "Ġother": 524,
      "ouse": 525,
      "iled": 526,
      "ought": 527,
      "Ġmake": 528,
      "Ġag": 529,
      "Ġsomet": 530,
      "Ġsmall": 531,
      "Ġgood": 532,
      "ob": 533,
      "ings": 534,
      "Ġbr": 535,
      "ade": 536,
      "Ġsmiled": 537,
      "Ġsay": 538,
      "ried": 539,
      "Ġco": 540,
      "Ġwor": 541,
      "Ġex": 542,
      "Ġfind": 543,
      "ful": 544,
      "Ġpr": 545,
      "pot": 546,
      "uc": 547,
      "Ġfrom": 548,
      "ty": 549,
      "ia": 550,
      "ist": 551,
      "Ġaway": 552,
      "us": 553,
      "ach": 554,
      "Ġput": 555,
      "Ġwhat": 556,
      "Ġsomething": 557,
      "Ġmade": 558,
      "Ġthought": 559,
      "ened": 560,
      "Ġhome": 561,
      "Ġplaying": 562,
      "ĠF": 563,
      "ook": 564,
      "Ġran": 565,
      "ile": 566,
      "dd": 567,
      "Ġevery": 568,
      "Ġwal": 569,
      "arn": 570,
      "ĠJ": 571,
      "ĠSpot": 572,
      "ab": 573,
      "ure": 574,
      "Ġagain": 575,
      "Ġsome": 576,
      "ust": 577,
      "Ġfl": 578,
      "Ġlaug": 579,
      "ak": 580,
      "Ġdown": 581,
      "ep": 582,
      "Ġtook": 583,
      "Ġscared": 584,
      "Ġwill": 585,
      "ĠYou": 586,
      "ny": 587,
      "Ġlearn": 588,
      "Ġtoys": 589,
      "Ġch": 590,
      "Ġhouse": 591,
      "ick": 592,
      "Ġbox": 593,
      "ret": 594,
      "Ġmy": 595,
      "Ġlook": 596,
      "Ġyour": 597,
      "Ġaround": 598,
      "Ġthings": 599,
      "ion": 600,
      "ss": 601,
      "Ġbl": 602,
      "Ġthen": 603,
      "oud": 604,
      "Ġwhen": 605,
      "ie": 606,
      "uck": 607,
      "ish": 608,
      "Ġlived": 609,
      "qu": 610,
      "Ġsun": 611,
      "Ġsw": 612,
      "Ġfe": 613,
      ",\"": 614,
      "Ġv": 615,
      "Ġab": 616,
      "pped": 617,
      "Ġget": 618,
      "ank": 619,
      "Ġint": 620,
      "ĠMia": 621,
      "Th": 622,
      "ap": 623,
      "ump": 624,
      "Tim": 625,
      "ucy": 626,
      "oth": 627,
      "Ġlot": 628,
      "uch": 629,
      "Ġtried": 630,
      "Ġknow": 631,
      "ers": 632,
      "Ġsays": 633,
      "Ġgot": 634,
      "ited": 635,
      "Ġwho": 636,
      "ew": 637,
      "ave": 638,
      "Ġmany": 639,
      "ĠE": 640,
      "ĠD": 641,
      "ĠC": 642,
      "Ġany": 643,
      "ous": 644,
      "nder": 645,
      "Ġabout": 646,
      "Lily": 647,
      "Ġdec": 648,
      "Ġpret": 649,
      "ally": 650,
      "Ġred": 651,
      "ise": 652,
      "Ġpo": 653,
      "ive": 654,
      "##": 655,
      "Ġmore": 656,
      "pr": 657,
      "Ġknew": 658,
      "use": 659,
      "Ġop": 660,
      "Ġcare": 661,
      "Ġpic": 662,
      "ite": 663,
      "Ġhug": 664,
      "fter": 665,
      "ĠLucy": 666,
      "Ġgre": 667,
      "Ġlearned": 668,
      "Ġwater": 669,
      "urn": 670,
      "Ġbest": 671,
      "Ġbecame": 672,
      "ess": 673,
      "ace": 674,
      "ause": 675,
      "Ġun": 676,
      "Ġexc": 677,
      "âĢ": 678,
      "ant": 679,
      "ways": 680,
      "fe": 681,
      "Ġoutside": 682,
      "Ġlaughed": 683,
      "Ġalways": 684,
      "ided": 685,
      "Ġinto": 686,
      "Ġshow": 687,
      "ate": 688,
      "Ġroom": 689,
      "Ġbecause": 690,
      "Ġho": 691,
      "ĠBob": 692,
      "Ġdecided": 693,
      "Ġke": 694,
      "Ġboth": 695,
      "ĠSo": 696,
      "Ġeat": 697,
      "Ġstr": 698,
      "Ġjump": 699,
      "Ġpe": 700,
      "ĠAnd": 701,
      "Ġthis": 702,
      "udd": 703,
      "Ġone": 704,
      "ĠMom": 705,
      "Ġdad": 706,
      "They": 707,
      "ang": 708,
      "og": 709,
      "Ġsur": 710,
      "Ġmo": 711,
      "nn": 712,
      "Ġor": 713,
      "Ġlong": 714,
      "Ġfast": 715,
      "Ġrun": 716,
      "Ġexcited": 717,
      "Ġnice": 718,
      "Yes": 719,
      "Ġlist": 720,
      "Tom": 721,
      "Ġfeel": 722,
      "ink": 723,
      "ven": 724,
      "our": 725,
      "Ġif": 726,
      "Ġtr": 727,
      "Ġam": 728,
      "Ġsk": 729,
      "Ġeach": 730,
      "Ġsor": 731,
      "ull": 732,
      "Ġtold": 733,
      "ara": 734,
      "Ġinside": 735,
      "Ġsurpr": 736,
      "Ġpretty": 737,
      "iny": 738,
      "imal": 739,
      "Wh": 740,
      "Ġthan": 741,
      "Ġsl": 742,
      "age": 743,
      "Ġgave": 744,
      "Ġmuch": 745,
      "Ġgra": 746,
      "Ġus": 747,
      "Ġanimal": 748,
      "Ġhow": 749,
      "lew": 750,
      "Ġrock": 751,
      "nna": 752,
      "ct": 753,
      "Ġneed": 754,
      "etter": 755,
      "pl": 756,
      "But": 757,
      "ase": 758,
      "and": 759,
      "Ġtow": 760,
      "Ġunder": 761,
      "th": 762,
      "Ġold": 763,
      "Ġsorry": 764,
      "Ġwalk": 765,
      "Ġcom": 766,
      "Ġtake": 767,
      "ged": 768,
      "ber": 769,
      "ro": 770,
      "ised": 771,
      "Ġhand": 772,
      "urt": 773,
      "Ġcle": 774,
      "ast": 775,
      "Ġfish": 776,
      "Ġwalked": 777,
      "Ġclo": 778,
      "ĠĠĠĠĠĠĠ": 779,
      "here": 780,
      "ine": 781,
      "Ġbear": 782,
      "ac": 783,
      "ĠWe": 784,
      "Ġkind": 785,
      "Ġtw": 786,
      "ĠHis": 787,
      "Ġhig": 788,
      "Ġfi": 789,
      "Ġjust": 790,
      "Ġhappened": 791,
      "rom": 792,
      "Ġflow": 793,
      "able": 794,
      "Ġfood": 795,
      "Ġanimals": 796,
      "Ġdidn": 797,
      "Ġtry": 798,
      "Ġsn": 799,
      "ort": 800,
      "Ġnear": 801,
      "Ġwat": 802,
      "ial": 803,
      "ving": 804,
      "Ġide": 805,
      "Ġsky": 806,
      "Ġby": 807,
      "Ġits": 808,
      "Ġen": 809,
      "Ġ=": 810,
      "Ġbetter": 811,
      "Ġidea": 812,
      "ĠAmy": 813,
      "pec": 814,
      "Ġbug": 815,
      "ff": 816,
      "Ġheard": 817,
      "gry": 818,
      "Ġlet": 819,
      "Ġspec": 820,
      "ĠTh": 821,
      "lf": 822,
      "Ġte": 823,
      "Ġcareful": 824,
      "Ġshare": 825,
      "Ġfo": 826,
      "Thank": 827,
      "Ġstor": 828,
      "Ġfly": 829,
      "Mom": 830,
      "Ġspecial": 831,
      "more": 832,
      "Ġflew": 833,
      "Ġanymore": 834,
      "ub": 835,
      "ĠP": 836,
      "Ġlots": 837,
      "Ġend": 838,
      "Ġnever": 839,
      "ream": 840,
      "Ġgr": 841,
      "ĠIn": 842,
      "Ġwind": 843,
      "Ġcol": 844,
      "Ġdon": 845,
      "Ġim": 846,
      "ble": 847,
      "Ġeven": 848,
      "Ġclean": 849,
      "Ġover": 850,
      "ves": 851,
      "Ġtal": 852,
      "iz": 853,
      "rm": 854,
      "ĠThen": 855,
      "ople": 856,
      "Ġmag": 857,
      "Ġche": 858,
      "Ġshould": 859,
      "em": 860,
      "ail": 861,
      "Ġhard": 862,
      "Ġbook": 863,
      "Ġqu": 864,
      "Ġshiny": 865,
      "Ġfore": 866,
      "udden": 867,
      "ip": 868,
      "Ġturn": 869,
      "Ġafter": 870,
      "ady": 871,
      "Ġfam": 872,
      "Ġbad": 873,
      "Ġsafe": 874,
      "Ġcake": 875,
      "ild": 876,
      "Ġpeople": 877,
      "ĠAnna": 878,
      "uddenly": 879,
      "Ġhigh": 880,
      "pected": 881,
      "Ġproud": 882,
      "ĠEvery": 883,
      "Let": 884,
      "Ġsurprised": 885,
      "Ġhurt": 886,
      "Ġcome": 887,
      "imb": 888,
      "arden": 889,
      "Ġdoor": 890,
      "Ġgarden": 891,
      "Ġground": 892,
      "Ġcolor": 893,
      "Ġopened": 894,
      "Ġpicked": 895,
      "Ġloud": 896,
      "Ġclimb": 897,
      "expected": 898,
      "Ġunexpected": 899,
      "Ġgl": 900,
      "Ġcall": 901,
      "de": 902,
      "As": 903,
      "Ġway": 904,
      "uff": 905,
      "ough": 906,
      "No": 907,
      "Ġlove": 908,
      "'m": 909,
      "Ġblue": 910,
      "Ġthanked": 911,
      "Ġpar": 912,
      "Ġstill": 913,
      "Ġever": 914,
      "Ġfar": 915,
      "Ġhugged": 916,
      "ĠFrom": 917,
      "###": 918,
      "ĠHer": 919,
      "ĠSara": 920,
      "ĠWhen": 921,
      "Ġoff": 922,
      "pt": 923,
      "ĠK": 924,
      "Ġmagic": 925,
      "ummy": 926,
      "ary": 927,
      "ool": 928,
      "Ġbu": 929,
      "Ġjumped": 930,
      "hes": 931,
      "Ġgreat": 932,
      "Ġfamily": 933,
      "ies": 934,
      "Ġkid": 935,
      "Ġcu": 936,
      "Ġsmile": 937,
      "kay": 938,
      "ress": 939,
      "Ġnow": 940,
      "ture": 941,
      "Ġunt": 942,
      "aut": 943,
      "Ġapp": 944,
      "Ġdan": 945,
      "Ġstrong": 946,
      "Ġstay": 947,
      "Ġsto": 948,
      "dy": 949,
      "ane": 950,
      "Ġforest": 951,
      "Ġbra": 952,
      "Ġsqu": 953,
      "Ġuntil": 954,
      "itty": 955,
      "Ġnext": 956,
      "lease": 957,
      "Ġwhile": 958,
      "Ġgive": 959,
      "Ġfrog": 960,
      "Ġbro": 961,
      "Ġtra": 962,
      "oon": 963,
      "Ġbeaut": 964,
      "Ġmak": 965,
      "Ġrem": 966,
      "ning": 967,
      "Ġcon": 968,
      "Ġstick": 969,
      "Ġimp": 970,
      "Ġboat": 971,
      "oy": 972,
      "ĠR": 973,
      "Ġmet": 974,
      "Ġhappily": 975,
      "Ġclos": 976,
      "iful": 977,
      "Ġlisten": 978,
      "Ġde": 979,
      "Ġkids": 980,
      "Ġbeautiful": 981,
      "ĠN": 982,
      "Ġhelped": 983,
      "ree": 984,
      "Ġdra": 985,
      "He": 986,
      "Ġshowed": 987,
      "Ġstory": 988,
      "unny": 989,
      "ched": 990,
      "Ġlea": 991,
      "by": 992,
      "rel": 993,
      "Ġtalk": 994,
      "Ġtown": 995,
      "so": 996,
      "Ġrain": 997,
      "ge": 998,
      "Ġpicture": 999,
      "It": 1000,
      "Ġbeing": 1001,
      "Ġcalled": 1002,
      "Ġplace": 1003,
      "Ġeveryone": 1004,
      "Ġtwo": 1005,
      "Ġmor": 1006,
      "ount": 1007,
      "Ġad": 1008,
      "ass": 1009,
      "les": 1010,
      "Ġgame": 1011,
      "Ġstopped": 1012,
      "irst": 1013,
      "Ġwo": 1014,
      "int": 1015,
      "Can": 1016,
      "Ġkeep": 1017,
      "Ġopen": 1018,
      "Ġangry": 1019,
      "vent": 1020,
      "Ġsoft": 1021,
      "uffy": 1022,
      "Ġhat": 1023,
      "iss": 1024,
      "Ġalso": 1025,
      "Ġwork": 1026,
      "Ġtruck": 1027,
      "self": 1028,
      "When": 1029,
      "Ġcry": 1030,
      "Ġyummy": 1031,
      "Ġlost": 1032,
      "Ġbed": 1033,
      "ĠLet": 1034,
      "ĠSally": 1035,
      "Ġwhere": 1036,
      "Ġwarm": 1037,
      "fore": 1038,
      "ĠWh": 1039,
      "Ġmouse": 1040,
      "Ġate": 1041,
      "Ġbrave": 1042,
      "ished": 1043,
      "ĠKitty": 1044,
      "Ġdoll": 1045,
      "dded": 1046,
      "Ġcouldn": 1047,
      "Ġwatch": 1048,
      "bit": 1049,
      "Ġfell": 1050,
      "Ġuse": 1051,
      "ear": 1052,
      "Ġgreen": 1053,
      "ush": 1054,
      "ock": 1055,
      "gan": 1056,
      "Ġflowers": 1057,
      "What": 1058,
      "Ġnoise": 1059,
      "abbit": 1060,
      "ired": 1061,
      "owl": 1062,
      "ple": 1063,
      "az": 1064,
      "Ġstore": 1065,
      "Ġask": 1066,
      "Ġsoon": 1067,
      "ĠG": 1068,
      "Ġbefore": 1069,
      "Ġnum": 1070,
      "Ġslide": 1071,
      "Ġthink": 1072,
      "Ġrabbit": 1073,
      "Ġhole": 1074,
      "luffy": 1075,
      "Ġsat": 1076,
      "irrel": 1077,
      "be": 1078,
      "air": 1079,
      "illy": 1080,
      "ma": 1081,
      "Ġhear": 1082,
      "âĢĿ": 1083,
      "âĢľ": 1084,
      "Hi": 1085,
      "ng": 1086,
      "Ġkept": 1087,
      "That": 1088,
      "Ġsquirrel": 1089,
      "Ġar": 1090,
      "Then": 1091,
      "ect": 1092,
      "Ġnodded": 1093,
      "Ġthr": 1094,
      "Ġexpl": 1095,
      "Ġcook": 1096,
      "Ġhands": 1097,
      "Look": 1098,
      "Ġbirds": 1099,
      "Ġpain": 1100,
      "lem": 1101,
      "day": 1102,
      "Ġbre": 1103,
      "ange": 1104,
      "Ġhas": 1105,
      "Ġsing": 1106,
      "Ġgoing": 1107,
      "uit": 1108,
      "Ġused": 1109,
      "Ġfirst": 1110,
      "Ġfunny": 1111,
      "Ġhaving": 1112,
      "ray": 1113,
      "Ġfin": 1114,
      "ation": 1115,
      "Ġcatch": 1116,
      "aybe": 1117,
      "Ġey": 1118,
      "aug": 1119,
      "aught": 1120,
      "ĠCan": 1121,
      "Ġwr": 1122,
      "leep": 1123,
      "Ġyell": 1124,
      "ĠFluffy": 1125,
      "Ġfix": 1126,
      "Ġcra": 1127,
      "ft": 1128,
      "Ben": 1129,
      "ath": 1130,
      "Ġret": 1131,
      "Ġdif": 1132,
      "Ġtired": 1133,
      "Ġflo": 1134,
      "Ġbunny": 1135,
      "Ġlooking": 1136,
      "We": 1137,
      "Ġmean": 1138,
      "Ġour": 1139,
      "Ġpull": 1140,
      "Ġreturn": 1141,
      "Ġwait": 1142,
      "Ġimport": 1143,
      "thing": 1144,
      "ĠNow": 1145,
      "Ġkit": 1146,
      "Ġjo": 1147,
      "llow": 1148,
      "led": 1149,
      "Ġsound": 1150,
      "Ġmess": 1151,
      "ember": 1152,
      "ol": 1153,
      "Ġbeh": 1154,
      "Ġdr": 1155,
      "Ġpond": 1156,
      "Ġhead": 1157,
      "Ġ-": 1158,
      "ello": 1159,
      "Ġright": 1160,
      "Hello": 1161,
      "Ġsunny": 1162,
      "imes": 1163,
      "Ġothers": 1164,
      "Ġz": 1165,
      "chen": 1166,
      "Ġreal": 1167,
      "Ġkitchen": 1168,
      "Ġtri": 1169,
      "ĠJo": 1170,
      "rew": 1171,
      "rent": 1172,
      "Ġdis": 1173,
      "ious": 1174,
      "Ġfav": 1175,
      "Ġmommy": 1176,
      "Ġeyes": 1177,
      "Ġdress": 1178,
      "Ġface": 1179,
      "joy": 1180,
      "ĠDo": 1181,
      "Ġremember": 1182,
      "Ġfollow": 1183,
      "Ġflower": 1184,
      "Ġparty": 1185,
      "eet": 1186,
      "Ġcold": 1187,
      "ĠâĢľ": 1188,
      "Ġsand": 1189,
      "orn": 1190,
      "ied": 1191,
      "ĠThis": 1192,
      "Ġimportant": 1193,
      "Ġcuri": 1194,
      "Ġduck": 1195,
      "Ġshared": 1196,
      "Ġmoral": 1197,
      "hn": 1198,
      "zy": 1199,
      "Ġrace": 1200,
      "At": 1201,
      "ĠJack": 1202,
      "ting": 1203,
      "Ġice": 1204,
      "Ġworked": 1205,
      "Ġokay": 1206,
      "Ġadvent": 1207,
      "Ġmaking": 1208,
      "Ġown": 1209,
      "Ġbright": 1210,
      "Ġenjoy": 1211,
      "Ġcurious": 1212,
      "Ġmon": 1213,
      "ign": 1214,
      "Ġdir": 1215,
      "Ġtall": 1216,
      "reed": 1217,
      "Ġhid": 1218,
      "Ġhop": 1219,
      "ĠFin": 1220,
      "Ġfavor": 1221,
      "Ġri": 1222,
      "Ġhere": 1223,
      "Ġtable": 1224,
      "Ġfavorite": 1225,
      "Ġsleep": 1226,
      "Ġrest": 1227,
      "Wow": 1228,
      "Ġthing": 1229,
      "Ġbegan": 1230,
      "Ġbag": 1231,
      "Ġdraw": 1232,
      "Ġhill": 1233,
      "Don": 1234,
      "bed": 1235,
      "Ġyard": 1236,
      "Ġstop": 1237,
      "Ġtell": 1238,
      "Ġbel": 1239,
      "Ġdiffe": 1240,
      "Ġcut": 1241,
      "oice": 1242,
      "Ġwatched": 1243,
      "Ġblock": 1244,
      "ĠO": 1245,
      "ient": 1246,
      "Ġnight": 1247,
      "oc": 1248,
      "Ġagreed": 1249,
      "Ġpick": 1250,
      "aper": 1251,
      "Ġhun": 1252,
      "ĠĠĠĠĠĠĠĠĠĠĠ": 1253,
      "lly": 1254,
      "Ġtop": 1255,
      "Ġ1": 1256,
      "Ġbehind": 1257,
      "After": 1258,
      "Ġsurprise": 1259,
      "Ġhot": 1260,
      "Ġper": 1261,
      "Ġfarm": 1262,
      "Ġgrass": 1263,
      "Ġdark": 1264,
      "Ġworry": 1265,
      "Ġtrees": 1266,
      "Ġwalking": 1267,
      "Ġsong": 1268,
      "Ġread": 1269,
      "Ġmove": 1270,
      "av": 1271,
      "Ġtail": 1272,
      "Ġfloor": 1273,
      "ster": 1274,
      "Max": 1275,
      "Ġgrab": 1276,
      "Ġcolors": 1277,
      "Ġlion": 1278,
      "Ġgi": 1279,
      "Ġplease": 1280,
      "Ġbutter": 1281,
      "Ġdifferent": 1282,
      "Ġsweet": 1283,
      "Ġshout": 1284,
      "ĠDad": 1285,
      "Ġlady": 1286,
      "Ġforg": 1287,
      "isy": 1288,
      "Ġleaves": 1289,
      "Ġcloser": 1290,
      "ered": 1291,
      "Ġneeded": 1292,
      "ud": 1293,
      "Ġcars": 1294,
      "Ġdoes": 1295,
      "aring": 1296,
      "Ġvoice": 1297,
      "):": 1298,
      "Ġturned": 1299,
      "Ġwood": 1300,
      "Ġtast": 1301,
      "Why": 1302,
      "Ġdel": 1303,
      "Ġcried": 1304,
      "Ġonly": 1305,
      "Ġpus": 1306,
      "Ġfire": 1307,
      "Ġcount": 1308,
      "Ġname": 1309,
      "Ġlaugh": 1310,
      "âĢĻ": 1311,
      "Ġroll": 1312,
      "ĠMr": 1313,
      "ken": 1314,
      "Ġcont": 1315,
      "Ġadventure": 1316,
      "Ġhungry": 1317,
      "ask": 1318,
      "Ġhair": 1319,
      "ĠSuddenly": 1320,
      "Ġfull": 1321,
      "Ġ'": 1322,
      "Ġyellow": 1323,
      "Ġpaper": 1324,
      "Ġfeeling": 1325,
      "ĠAs": 1326,
      "Sue": 1327,
      "Ġtouch": 1328,
      "Sam": 1329,
      "Anna": 1330,
      "Ġwet": 1331,
      "oom": 1332,
      "Ġfriendly": 1333,
      "Ġsho": 1334,
      "ix": 1335,
      "Ġdanc": 1336,
      "ached": 1337,
      "Ġfruit": 1338,
      "Ġprom": 1339,
      "Ġswing": 1340,
      "Ġac": 1341,
      "ds": 1342,
      "ater": 1343,
      "kes": 1344,
      "Ġanother": 1345,
      "Ġbroken": 1346,
      "bo": 1347,
      "Ġset": 1348,
      "apped": 1349,
      "Ġtak": 1350,
      "Ġready": 1351,
      "bye": 1352,
      "Ġlight": 1353,
      "ppy": 1354,
      "ĠThat": 1355,
      "Ġpretend": 1356,
      "ger": 1357,
      "Ġclimbed": 1358,
      "where": 1359,
      "Ġlistened": 1360,
      "red": 1361,
      "Ġtrain": 1362,
      "Ġplan": 1363,
      "ĠBobo": 1364,
      "Ġrunning": 1365,
      "In": 1366,
      "Ġrepl": 1367,
      "Ġdance": 1368,
      "ash": 1369,
      "Ġgone": 1370,
      "Ġswim": 1371,
      "Ġbus": 1372,
      "Suddenly": 1373,
      "Sara": 1374,
      "ila": 1375,
      "ĠJane": 1376,
      "ndma": 1377,
      "Ġmust": 1378,
      "art": 1379,
      "Ġless": 1380,
      "yth": 1381,
      "She": 1382,
      "Ġsmell": 1383,
      "pe": 1384,
      "ction": 1385,
      "ee": 1386,
      "Ġhold": 1387,
      "que": 1388,
      "put": 1389,
      "aby": 1390,
      "Ġamaz": 1391,
      "Ġblocks": 1392,
      "So": 1393,
      "Ġperf": 1394,
      "ĠTimmy": 1395,
      "ike": 1396,
      "ĠAll": 1397,
      "orm": 1398,
      "Ġreached": 1399,
      "Ġwall": 1400,
      "Ġbutterf": 1401,
      "Ġclose": 1402,
      "Ġres": 1403,
      "Ġsees": 1404,
      "Ġbeen": 1405,
      "Ġslow": 1406,
      "oney": 1407,
      "Ġpu": 1408,
      "ph": 1409,
      "Ġdri": 1410,
      "Ġhelping": 1411,
      "Ġcream": 1412,
      "Ġ(": 1413,
      "ather": 1414,
      "Ġcool": 1415,
      "Ġant": 1416,
      "Ġglad": 1417,
      "Ġmat": 1418,
      "Ġpushed": 1419,
      "Ġgoodbye": 1420,
      "Ġfight": 1421,
      "Mia": 1422,
      "Ġthrough": 1423,
      "Ġwonder": 1424,
      "iced": 1425,
      "Ġmix": 1426,
      "Ġfair": 1427,
      "ized": 1428,
      "Ġwindow": 1429,
      "Ġcre": 1430,
      "Ġhide": 1431,
      "Ġmoment": 1432,
      "Ġchild": 1433,
      "Ġsit": 1434,
      "der": 1435,
      "ower": 1436,
      "Ġdone": 1437,
      "Ġbit": 1438,
      "ython": 1439,
      "Ġleft": 1440,
      "Ġballoon": 1441,
      "Ġsnow": 1442,
      "Ġexplore": 1443,
      "Ġquick": 1444,
      "ĠEveryone": 1445,
      "Ġthank": 1446,
      "Ġbuild": 1447,
      "Ġwished": 1448,
      "Ġbaby": 1449,
      "Ġwag": 1450,
      "Ġbuy": 1451,
      "Ġstuck": 1452,
      "Ġmight": 1453,
      "aw": 1454,
      "Ġste": 1455,
      "icy": 1456,
      "Ġbar": 1457,
      "ames": 1458,
      "Ġtrying": 1459,
      "Ġfall": 1460,
      "Ġcoming": 1461,
      "Ġapple": 1462,
      "ins": 1463,
      "angu": 1464,
      "Ġunderst": 1465,
      "Ġbooks": 1466,
      "Ġscary": 1467,
      "Ġlooks": 1468,
      "Ġel": 1469,
      "Ġdoing": 1470,
      "ctor": 1471,
      "ield": 1472,
      "sh": 1473,
      "aisy": 1474,
      "Ġdin": 1475,
      "Ġdream": 1476,
      "This": 1477,
      "Ġdirty": 1478,
      "Ġthree": 1479,
      "Ġmar": 1480,
      "Ġheld": 1481,
      "str": 1482,
      "anguage": 1483,
      "Ġem": 1484,
      "up": 1485,
      "Ġ{": 1486,
      "ott": 1487,
      "Ġbutterfly": 1488,
      "uddy": 1489,
      "Ġkey": 1490,
      "ode": 1491,
      "Ġshouted": 1492,
      "Ġreach": 1493,
      "Ġreplied": 1494,
      "Ġspl": 1495,
      "avy": 1496,
      "lement": 1497,
      "Ġwin": 1498,
      "Ġair": 1499,
      "Ġtiny": 1500,
      "Ġbran": 1501,
      "Ġwhy": 1502,
      "Ġland": 1503,
      "Ġdro": 1504,
      "oup": 1505,
      "Ġtreat": 1506,
      "ely": 1507,
      "Ġgrow": 1508,
      "Ġsure": 1509,
      "Ġpulled": 1510,
      "Ġseen": 1511,
      "amp": 1512,
      "Ġbrother": 1513,
      "Ġwoods": 1514,
      "Ġwise": 1515,
      "'re": 1516,
      "Ġchair": 1517,
      "ĠEnd": 1518,
      "ren": 1519,
      "Ġfill": 1520,
      "Ġplant": 1521,
      "Ġpink": 1522,
      "Ġclapped": 1523,
      "Ġowl": 1524,
      "ance": 1525,
      "Ġcup": 1526,
      "Ġjob": 1527,
      "Ġsometimes": 1528,
      "Ġval": 1529,
      "Ġcloud": 1530,
      "andy": 1531,
      "ton": 1532,
      "cle": 1533,
      "outh": 1534,
      "ord": 1535,
      "Ġpat": 1536,
      "Ġcolorful": 1537,
      "Ġremembered": 1538,
      "Ġnest": 1539,
      "Ġbigger": 1540,
      "Ġjoin": 1541,
      "Ġmouth": 1542,
      "room": 1543,
      "ĠThere": 1544,
      "Okay": 1545,
      "Ġlesson": 1546,
      "row": 1547,
      "Ġstring": 1548,
      "Jo": 1549,
      "Ġyear": 1550,
      "Ġwaved": 1551,
      "key": 1552,
      "Ġgrabbed": 1553,
      "Ġstayed": 1554,
      "Ġsec": 1555,
      "Ġpaint": 1556,
      "Ġmiss": 1557,
      "Oh": 1558,
      "Ġclot": 1559,
      "ĠAfter": 1560,
      "``": 1561,
      "Ġbreak": 1562,
      "Ġclothes": 1563,
      "app": 1564,
      "Ġnumber": 1565,
      "Ġpie": 1566,
      "cess": 1567,
      "Ġquickly": 1568,
      "Ġwaited": 1569,
      "Ġpur": 1570,
      "Ġpi": 1571,
      "ries": 1572,
      "ult": 1573,
      "Ġelse": 1574,
      "Ġprin": 1575,
      "Ġbroke": 1576,
      "ucky": 1577,
      "Ġgames": 1578,
      "Ġcast": 1579,
      "Ġmus": 1580,
      "Ġblew": 1581,
      "Ġgent": 1582,
      "ĠMommy": 1583,
      "erous": 1584,
      "Ġenjoyed": 1585,
      "Ġnoticed": 1586,
      "os": 1587,
      "ence": 1588,
      "asure": 1589,
      "Ġ#": 1590,
      "Ġlikes": 1591,
      "ĠCode": 1592,
      "Ġworld": 1593,
      "Ġpictures": 1594,
      "Ġheavy": 1595,
      "gs": 1596,
      "Ġalone": 1597,
      "Ġgif": 1598,
      "Ġanything": 1599,
      "Ġspot": 1600,
      "Ġpot": 1601,
      "Ġhopped": 1602,
      "Ġturns": 1603,
      "ĠLanguage": 1604,
      "Ġbott": 1605,
      "\".": 1606,
      "Ġpen": 1607,
      "Ġsea": 1608,
      "Her": 1609,
      "ner": 1610,
      "Ġarm": 1611,
      "ale": 1612,
      "Ġtight": 1613,
      "ape": 1614,
      "Ġeverywhere": 1615,
      "Ġwon": 1616,
      "ated": 1617,
      "Lucy": 1618,
      "Ġtower": 1619,
      "Ġfollowed": 1620,
      "man": 1621,
      "Ġthrew": 1622,
      "Ġhimself": 1623,
      "tion": 1624,
      "less": 1625,
      "ĠBuddy": 1626,
      "Ġride": 1627,
      "Bob": 1628,
      "Ġru": 1629,
      "arent": 1630,
      "Ġswam": 1631,
      "bers": 1632,
      "ey": 1633,
      "Ġwhite": 1634,
      "Ġmusic": 1635,
      "ire": 1636,
      "ĠWhat": 1637,
      "Ġwrong": 1638,
      "Ġmakes": 1639,
      "Ġpol": 1640,
      "ĠDaisy": 1641,
      "Ġblack": 1642,
      "Ġdeep": 1643,
      "Do": 1644,
      "Ġround": 1645,
      "Ġparent": 1646,
      "thy": 1647,
      "Spot": 1648,
      "cy": 1649,
      "co": 1650,
      "Ġstart": 1651,
      "Ġdelic": 1652,
      "ued": 1653,
      "Ġforgot": 1654,
      "Ġbee": 1655,
      "Ġvis": 1656,
      "Ġcastle": 1657,
      "olly": 1658,
      "ister": 1659,
      "iet": 1660,
      "Ġ<": 1661,
      "ens": 1662,
      "Ġwear": 1663,
      "ully": 1664,
      "Ġhit": 1665,
      "oun": 1666,
      "ove": 1667,
      "Ġquiet": 1668,
      "come": 1669,
      "Ġbor": 1670,
      "Ġwants": 1671,
      "Ġdanced": 1672,
      "Ġunderstand": 1673,
      "ĠJohn": 1674,
      "Ġleaf": 1675,
      "rot": 1676,
      "Ġwords": 1677,
      "Ġmonster": 1678,
      "Ġnap": 1679,
      "ross": 1680,
      "Ġbowl": 1681,
      "fully": 1682,
      "Ġside": 1683,
      "Ġfaster": 1684,
      "Ġtalked": 1685,
      "Ġdry": 1686,
      "set": 1687,
      "Ġcookies": 1688,
      "Ġsign": 1689,
      "ity": 1690,
      "Ġcontin": 1691,
      "oblem": 1692,
      "Ġfunction": 1693,
      "zz": 1694,
      "Ġbutton": 1695,
      "Ġbrought": 1696,
      "vel": 1697,
      "ĠInside": 1698,
      "Ġrel": 1699,
      "Ġmum": 1700,
      "Ġ0": 1701,
      "Ġprint": 1702,
      "From": 1703,
      "pper": 1704,
      "John": 1705,
      "Ġwell": 1706,
      "Ġbike": 1707,
      "Ġsmart": 1708,
      "ards": 1709,
      "Ġgu": 1710,
      "Ġfox": 1711,
      "Ġrocks": 1712,
      "Ġsomeone": 1713,
      "His": 1714,
      "Ġbranch": 1715,
      "Ġsharing": 1716,
      "Ġfield": 1717,
      "ĠTo": 1718,
      "ĠLila": 1719,
      "mon": 1720,
      "Ġfinished": 1721,
      "ich": 1722,
      "Ġreally": 1723,
      "Ġele": 1724,
      "Ġdinner": 1725,
      "Ġsister": 1726,
      "Ġpre": 1727,
      "Ġflying": 1728,
      "eddy": 1729,
      "Ġworried": 1730,
      "Ġvisit": 1731,
      "ible": 1732,
      "Ġsecret": 1733,
      "ment": 1734,
      "ĠMaybe": 1735,
      "Ġbeach": 1736,
      "ead": 1737,
      "Ġperfect": 1738,
      "Ġdang": 1739,
      "ased": 1740,
      "gy": 1741,
      "ĠSarah": 1742,
      "Ġking": 1743,
      "Ġtoday": 1744,
      "Ġgift": 1745,
      "ĠEm": 1746,
      "Ġ[": 1747,
      "Ġdrink": 1748,
      "Ġriver": 1749,
      "Ġeverything": 1750,
      "Ġsilly": 1751,
      "Ġshin": 1752,
      "Ġchildren": 1753,
      "Ġfree": 1754,
      "Ġfilled": 1755,
      "ĠSoon": 1756,
      "ze": 1757,
      "Ġ3": 1758,
      "ĠAt": 1759,
      "Ġ2": 1760,
      "Ġfur": 1761,
      "Ġwithout": 1762,
      "Ġwel": 1763,
      "Ġsmiles": 1764,
      "Ġyes": 1765,
      "ize": 1766,
      "eces": 1767,
      "stead": 1768,
      "Ġwish": 1769,
      "While": 1770,
      "Ġpieces": 1771,
      "Ġsang": 1772,
      "Ġcr": 1773,
      "Ġpass": 1774,
      "Ġpudd": 1775,
      "Ġsnack": 1776,
      "Ġeating": 1777,
      "()": 1778,
      "Ġrealized": 1779,
      "Ġpromised": 1780,
      "Ġpig": 1781,
      "Ġ`": 1782,
      "Ġcontinued": 1783,
      "itting": 1784,
      "Ġletter": 1785,
      "Ġbite": 1786,
      "Ġear": 1787,
      "Ġatt": 1788,
      "Ġparents": 1789,
      "Ġcarefully": 1790,
      "Just": 1791,
      "Ġthrow": 1792,
      "Ġcow": 1793,
      "cket": 1794,
      "Maybe": 1795,
      "Ġjar": 1796,
      "Ġblank": 1797,
      "Amy": 1798,
      "Ġsoup": 1799,
      "Ġorange": 1800,
      "Ġdrag": 1801,
      "Ġmud": 1802,
      "Ġenough": 1803,
      "Ġcrying": 1804,
      "me": 1805,
      "Ġblanket": 1806,
      "Ġpet": 1807,
      "Ġrolled": 1808,
      "Ġju": 1809,
      "cks": 1810,
      "Ġsel": 1811,
      "Ġself": 1812,
      "Ġsail": 1813,
      "Ġ+": 1814,
      "imi": 1815,
      "Ġinc": 1816,
      "Fin": 1817,
      "Ġra": 1818,
      "Ġwhe": 1819,
      "Ġsear": 1820,
      "Ġboun": 1821,
      "Ġcrab": 1822,
      "Ġlaughing": 1823,
      "Ġfairy": 1824,
      "ĠZ": 1825,
      "Ġamazing": 1826,
      "Ġbath": 1827,
      "ises": 1828,
      "Ġpurple": 1829,
      "used": 1830,
      "Ġpast": 1831,
      "Ġbottle": 1832,
      "iver": 1833,
      "ĠBilly": 1834,
      "Ġgrandma": 1835,
      "Ġleave": 1836,
      "itten": 1837,
      "Ġmoney": 1838,
      "Ġbrown": 1839,
      "Ġpython": 1840,
      "ĠGra": 1841,
      "fort": 1842,
      "ĠJoe": 1843,
      "Ġinte": 1844,
      "Ġmail": 1845,
      "chool": 1846,
      "Ġbarked": 1847,
      "Ġcreat": 1848,
      "Ġwagged": 1849,
      "Ġdoctor": 1850,
      "Ġmoved": 1851,
      "Ġmonkey": 1852,
      "unch": 1853,
      "Ġph": 1854,
      "Ġasks": 1855,
      "ĠCh": 1856,
      "Ġgetting": 1857,
      "Ġclosed": 1858,
      "Ġhigher": 1859,
      "Ġwelcome": 1860,
      "Ġschool": 1861,
      "Ġcal": 1862,
      "Ġowner": 1863,
      "Ġcandy": 1864,
      "Ġmorning": 1865,
      "Ġpiece": 1866,
      "Ġlon": 1867,
      "Ġsmo": 1868,
      "Ġdragon": 1869,
      "Ġsame": 1870,
      "Ġsnake": 1871,
      "Ġtreasure": 1872,
      "Ġmother": 1873,
      "Ġsitting": 1874,
      ".âĢĿ": 1875,
      "!âĢĿ": 1876,
      "Ġhappen": 1877,
      "Ġdangerous": 1878,
      "Ġlonely": 1879,
      "Ġliving": 1880,
      "Ġapples": 1881,
      "Ġrec": 1882,
      "isk": 1883,
      "Ġshop": 1884,
      "Ġstre": 1885,
      "Ġroad": 1886,
      "Ġstrange": 1887,
      "Ġshining": 1888,
      "Ġdes": 1889,
      "ors": 1890,
      "ĠTommy": 1891,
      "ract": 1892,
      "una": 1893,
      "Ġpaw": 1894,
      "Ġdi": 1895,
      "Ġshoes": 1896,
      "Ġnumbers": 1897,
      "althy": 1898,
      "Ġyears": 1899,
      "Ġcaught": 1900,
      "igh": 1901,
      "Ġtalking": 1902,
      "ches": 1903,
      "cked": 1904,
      "Ġruns": 1905,
      "Ġeg": 1906,
      "Ġbuck": 1907,
      "Ġve": 1908,
      "Ġwings": 1909,
      "Ġdays": 1910,
      "Ġlake": 1911,
      "ined": 1912,
      "board": 1913,
      "asket": 1914,
      "Ġmad": 1915,
      "Ġfan": 1916,
      "Ġstand": 1917,
      "Ġbasket": 1918,
      "Ġfarmer": 1919,
      "br": 1920,
      "Ġelement": 1921,
      "Mommy": 1922,
      "itch": 1923,
      "Ġstone": 1924,
      "Ġce": 1925,
      "Ġthinks": 1926,
      "Ġbat": 1927,
      "ĠBl": 1928,
      "Ġdelicious": 1929,
      "sw": 1930,
      "Ġtom": 1931,
      "Ġnose": 1932,
      "Ġpuddle": 1933,
      "Ġbelie": 1934,
      "ĠMimi": 1935,
      "Ġpart": 1936,
      "Ġteddy": 1937,
      "Ġfit": 1938,
      "eter": 1939,
      "Ġmine": 1940,
      "Ġcoat": 1941,
      "ier": 1942,
      "ces": 1943,
      "Ġbring": 1944,
      "Ġcomp": 1945,
      "Ġfinally": 1946,
      "St": 1947,
      "ming": 1948,
      "rayon": 1949,
      "Please": 1950,
      "sy": 1951,
      "Ġwhist": 1952,
      "phant": 1953,
      "igg": 1954,
      "Ġgentle": 1955,
      "Ġcrayon": 1956,
      "Ġcoll": 1957,
      "Ġscream": 1958,
      "Ġkite": 1959,
      "Ġheart": 1960,
      "Ġpush": 1961,
      "Ġpill": 1962,
      "Ġshell": 1963,
      "Ġvill": 1964,
      "Ġben": 1965,
      "Ġansw": 1966,
      "Ġsinging": 1967,
      "00": 1968,
      "ella": 1969,
      "Ġtasty": 1970,
      "Ġtrou": 1971,
      "Ġtakes": 1972,
      "Ġherself": 1973,
      "Ġhoped": 1974,
      "Ġwore": 1975,
      "Ġswings": 1976,
      "ror": 1977,
      "Ġbelong": 1978,
      "Ġkiss": 1979,
      "ĠĠĠĠĊ": 1980,
      "Ġpers": 1981,
      "ugg": 1982,
      "Ġbush": 1983,
      "ubble": 1984,
      "emy": 1985,
      "iskers": 1986,
      "num": 1987,
      "Ġcarrot": 1988,
      "Ġarri": 1989,
      "Ġcour": 1990,
      "ator": 1991,
      "ert": 1992,
      "bow": 1993,
      "Ġshap": 1994,
      "Ġteach": 1995,
      "aughty": 1996,
      "Ġelephant": 1997,
      "Ġnaughty": 1998,
      "Ġdropped": 1999,
      "Ġteac": 2000,
      "ose": 2001,
      "ball": 2002,
      "Ġ}": 2003,
      "Ġwoke": 2004,
      "inted": 2005,
      "Ġpile": 2006,
      "ese": 2007,
      "Ġhiding": 2008,
      "irt": 2009,
      "irth": 2010,
      "Ġproblem": 2011,
      "Ġdist": 2012,
      "'ll": 2013,
      "Ġmost": 2014,
      "isa": 2015,
      "Ġcourse": 2016,
      "erry": 2017,
      "Ġpuppy": 2018,
      "Ġtouc": 2019,
      "ama": 2020,
      "llie": 2021,
      "ost": 2022,
      "Ġseem": 2023,
      "Ġtwins": 2024,
      "Ġlunch": 2025,
      "Ġrob": 2026,
      "Ġbow": 2027,
      "Ġrub": 2028,
      "Ġsack": 2029,
      "Ġshapes": 2030,
      "Ġcheered": 2031,
      "ĠIf": 2032,
      "ĠJen": 2033,
      "Ġgrew": 2034,
      "Ġpatient": 2035,
      "read": 2036,
      "fused": 2037,
      "Ġrope": 2038,
      "Ġvillage": 2039,
      "irthday": 2040,
      "Ġusing": 2041,
      "OK": 2042,
      "Ġspin": 2043,
      "Ġrainbow": 2044,
      "Ġable": 2045,
      "Ġjuice": 2046,
      "eb": 2047,
      "Ġmod": 2048,
      "Ġstreet": 2049,
      "Jack": 2050,
      "Ġvalue": 2051,
      "Ġhar": 2052,
      "Ġshook": 2053,
      "Ġi": 2054,
      "Ġbench": 2055,
      "Ġspoon": 2056,
      "Ġpower": 2057,
      "ĠFred": 2058,
      "Ġnut": 2059,
      "Ġcheese": 2060,
      "idge": 2061,
      "Ġcute": 2062,
      "Ġtouched": 2063,
      "Ġfence": 2064,
      "Ġcarry": 2065,
      "Ġeas": 2066,
      "Ġwar": 2067,
      "Ġjoy": 2068,
      "Ġinv": 2069,
      "Ġpop": 2070,
      "Ġseed": 2071,
      "Ġcorn": 2072,
      "Ġteacher": 2073,
      "Good": 2074,
      "Ġfew": 2075,
      "Ġarrived": 2076,
      "ĠWhiskers": 2077,
      "Ġforever": 2078,
      "Ġbell": 2079,
      "Ġplane": 2080,
      "ĠBlue": 2081,
      "ont": 2082,
      "Finally": 2083,
      "lla": 2084,
      "Ġsounds": 2085,
      "Ġbugs": 2086,
      "Ġspo": 2087,
      "Ġbirthday": 2088,
      ");": 2089,
      "ilk": 2090,
      "ocked": 2091,
      "ond": 2092,
      "Ġmixed": 2093,
      "umpy": 2094,
      "Ġind": 2095,
      "Ġwonderful": 2096,
      "els": 2097,
      "ato": 2098,
      "Ġwra": 2099,
      "to": 2100,
      "Ġbusy": 2101,
      "Ġdolls": 2102,
      "irp": 2103,
      "Ġpromise": 2104,
      "pty": 2105,
      "Ġclass": 2106,
      "ĠThank": 2107,
      "Ġfeels": 2108,
      "Ġmeet": 2109,
      "Ġyoung": 2110,
      "ĠEmma": 2111,
      "Ġbread": 2112,
      "To": 2113,
      "list": 2114,
      "Ġmilk": 2115,
      "Ġrobot": 2116,
      "Ġneck": 2117,
      "Ġsuc": 2118,
      "ountain": 2119,
      "ipped": 2120,
      "Ġshy": 2121,
      "ider": 2122,
      "ipp": 2123,
      "Ġband": 2124,
      "Ġpocket": 2125,
      "Ġcir": 2126,
      "Ġhelpful": 2127,
      "arp": 2128,
      "Ġslowly": 2129,
      "Ġbelieve": 2130,
      "com": 2131,
      "eared": 2132,
      "Ġje": 2133,
      "Ġcave": 2134,
      "Ġexp": 2135,
      "gly": 2136,
      "ling": 2137,
      "Ġmark": 2138,
      "Ġlive": 2139,
      "\",": 2140,
      "Ġadd": 2141,
      "Ġmin": 2142,
      "Ġcover": 2143,
      "Ġtowards": 2144,
      "Ġstorm": 2145,
      "Ġholding": 2146,
      "adow": 2147,
      "Ġempty": 2148,
      "Ġhor": 2149,
      "Ġugly": 2150,
      "Ġlast": 2151,
      "Ġturt": 2152,
      "Ġupset": 2153,
      "\"\"": 2154,
      "',": 2155,
      "Ġshr": 2156,
      "not": 2157,
      "sent": 2158,
      "Ġgen": 2159,
      "aces": 2160,
      "Ġsharp": 2161,
      "Ġsal": 2162,
      "ĠLe": 2163,
      "ĠRemy": 2164,
      "Ġdisapp": 2165,
      "Ġstories": 2166,
      "Ġprincess": 2167,
      "ular": 2168,
      "```": 2169,
      "Ġhoney": 2170,
      "ĠBella": 2171,
      "Ġnoises": 2172,
      "Ġgray": 2173,
      "Ġballs": 2174,
      "Ġspark": 2175,
      "Ġdriver": 2176,
      "oggy": 2177,
      "Ġdirt": 2178,
      "ĠFinally": 2179,
      "val": 2180,
      "Ġlate": 2181,
      "Ġseat": 2182,
      "Ġbucket": 2183,
      "unt": 2184,
      "Ġseek": 2185,
      "Ġmach": 2186,
      "struc": 2187,
      "ata": 2188,
      "Ġturtle": 2189,
      "Ġent": 2190,
      "ourn": 2191,
      "Ġamazed": 2192,
      "lower": 2193,
      "Ġtreats": 2194,
      "Ġinstead": 2195,
      "epend": 2196,
      "Of": 2197,
      "Ġmagical": 2198,
      "Ġglow": 2199,
      "Ġmist": 2200,
      "Ġzoom": 2201,
      "(\"": 2202,
      "Ġjourn": 2203,
      "Ġlemon": 2204,
      "Ġsandw": 2205,
      "Now": 2206,
      "fortable": 2207,
      "oose": 2208,
      "Ġtrip": 2209,
      "Ġser": 2210,
      "Ġfold": 2211,
      "Ġnet": 2212,
      "Ġkitten": 2213,
      "Ġsplas": 2214,
      "port": 2215,
      "Ġhang": 2216,
      "Ġpuzz": 2217,
      "Ġorgan": 2218,
      "aur": 2219,
      "iling": 2220,
      "Ġ==": 2221,
      "Ġtaking": 2222,
      "ek": 2223,
      "od": 2224,
      "ates": 2225,
      "Ġwild": 2226,
      "Ġhorse": 2227,
      "Ġsol": 2228,
      "Sure": 2229,
      "Ġpath": 2230,
      "Ġfil": 2231,
      "ĠMark": 2232,
      "Ġcookie": 2233,
      "ĠSt": 2234,
      "Ġcannot": 2235,
      "Ġhugs": 2236,
      "Ġstars": 2237,
      "rest": 2238,
      "Ġcloth": 2239,
      "Ġstep": 2240,
      "Ġcou": 2241,
      "Ġcomple": 2242,
      "Ġword": 2243,
      "bled": 2244,
      "ĠLisa": 2245,
      "ever": 2246,
      "ring": 2247,
      "Ġdrove": 2248,
      "Ġcoin": 2249,
      "Ġwrite": 2250,
      "Ġrude": 2251,
      "Ġhuge": 2252,
      "oop": 2253,
      "ĠJim": 2254,
      "Ġbubble": 2255,
      "Ġcraw": 2256,
      "Ġfighting": 2257,
      "Ġdef": 2258,
      "Ġspicy": 2259,
      "Ġca": 2260,
      "Ġlucky": 2261,
      "Be": 2262,
      "ube": 2263,
      "Hey": 2264,
      "Ġbone": 2265,
      "sp": 2266,
      "ars": 2267,
      "ition": 2268,
      "ĠGrandma": 2269,
      "Ġcard": 2270,
      "Ġforget": 2271,
      "Ġsongs": 2272,
      "Ġsick": 2273,
      "Ġwhistle": 2274,
      "Ġfoot": 2275,
      "Ġfixed": 2276,
      "mer": 2277,
      "Ġspider": 2278,
      "Ġwide": 2279,
      "Lila": 2280,
      "Ġmachine": 2281,
      "Ġrad": 2282,
      "Ġsnowman": 2283,
      "Ġlife": 2284,
      "Ġpillow": 2285,
      "ung": 2286,
      "Ġmoon": 2287,
      "ĠJust": 2288,
      "den": 2289,
      "Later": 2290,
      "Ġcart": 2291,
      "Ġhon": 2292,
      "ĠAnn": 2293,
      "Ġpoint": 2294,
      "struction": 2295,
      "oph": 2296,
      "Ġchange": 2297,
      "Ġgiant": 2298,
      "rill": 2299,
      "Ġline": 2300,
      "ser": 2301,
      "mb": 2302,
      "pect": 2303,
      "Ġboss": 2304,
      "Ġcomes": 2305,
      "Ġgiven": 2306,
      "Ġtaste": 2307,
      "Ġsour": 2308,
      "Ġgrumpy": 2309,
      "Ġlar": 2310,
      "Ġinterest": 2311,
      "ĠOn": 2312,
      "Ġwave": 2313,
      "Ġdrive": 2314,
      "Ġsuch": 2315,
      "Ġash": 2316,
      "Ġhidden": 2317,
      "ĠĠĠĠĠĠĠĠĠĠĠĠĠĠĠ": 2318,
      "Ġfle": 2319,
      "Ġpeace": 2320,
      "Ġlay": 2321,
      "ope": 2322,
      "Ġfruits": 2323,
      "Ġdaddy": 2324,
      "Ġshelf": 2325,
      "ĠLeo": 2326,
      "Ġmed": 2327,
      "Ġarray": 2328,
      "box": 2329,
      "Ġsuddenly": 2330,
      "Ġwasn": 2331,
      "Ġlanded": 2332,
      "Ġconfused": 2333,
      "Ġring": 2334,
      "Ġ$": 2335,
      "Ġworm": 2336,
      "Ġchased": 2337,
      "Ġsmooth": 2338,
      "Ġbark": 2339,
      "Ġmyster": 2340,
      "Ġpri": 2341,
      "Ġspe": 2342,
      "Ġsearch": 2343,
      "Ġacross": 2344,
      "ĠCome": 2345,
      "kin": 2346,
      "ique": 2347,
      "Ġimag": 2348,
      "ery": 2349,
      "Ġadventures": 2350,
      "Ġoven": 2351,
      "Ġstepped": 2352,
      "Ġmissed": 2353,
      "Ġphone": 2354,
      "anan": 2355,
      "Ġselfish": 2356,
      "ork": 2357,
      "Ġsheep": 2358,
      "Ġmessy": 2359,
      "Ġlater": 2360,
      "ano": 2361,
      "eth": 2362,
      "ife": 2363,
      "Ġtie": 2364,
      "elly": 2365,
      "Ġsticks": 2366,
      "Ġbought": 2367,
      "Ġign": 2368,
      "ĠLuna": 2369,
      "let": 2370,
      "upp": 2371,
      "Ġdrew": 2372,
      "Ġtea": 2373,
      "llo": 2374,
      "Ġ\"\"\"": 2375,
      "irpy": 2376,
      "Ġshake": 2377,
      "Ġav": 2378,
      "?âĢĿ": 2379,
      "Ġwash": 2380,
      "estion": 2381,
      "Ġpour": 2382,
      "Ġbeak": 2383,
      "Ġjog": 2384,
      "Ġzoo": 2385,
      "ĠU": 2386,
      "Ġgrate": 2387,
      "Ġlegs": 2388,
      "Ġducks": 2389,
      "Ġhope": 2390,
      "Ġob": 2391,
      "ian": 2392,
      "Ġslid": 2393,
      "Ġfeather": 2394,
      "ĠInstruction": 2395,
      "Ġsave": 2396,
      "Ġtrue": 2397,
      "Ġinput": 2398,
      "Ġshirt": 2399,
      "amed": 2400,
      "Ġpan": 2401,
      "Ġdrum": 2402,
      "Ġsleepy": 2403,
      "Ġsum": 2404,
      "def": 2405,
      "Ġgrateful": 2406,
      "Ġfing": 2407,
      "Ġsupp": 2408,
      "ĠCat": 2409,
      "izz": 2410,
      "ipe": 2411,
      "Ġleg": 2412,
      "Ġclever": 2413,
      "rue": 2414,
      "ĠMolly": 2415,
      "Ġsmelly": 2416,
      "print": 2417,
      "Ġinteresting": 2418,
      "Ġchick": 2419,
      "Ġsplash": 2420,
      "ĠJill": 2421,
      "Ġwatching": 2422,
      "Ġprot": 2423,
      "Soon": 2424,
      "Ġplate": 2425,
      "izzy": 2426,
      "Ġbanan": 2427,
      "Here": 2428,
      "sc": 2429,
      "yard": 2430,
      "ward": 2431,
      "Ġclouds": 2432,
      "Ġfaces": 2433,
      "Ġalong": 2434,
      "=\"": 2435,
      "Ġwhole": 2436,
      "Ġba": 2437,
      "Ġlift": 2438,
      "ĠBe": 2439,
      "Ġdogs": 2440,
      "Ġthough": 2441,
      "Ġwolf": 2442,
      "Ġdig": 2443,
      "Ġbackyard": 2444,
      "Ġseemed": 2445,
      "Ġquestion": 2446,
      "Ġque": 2447,
      "Ġspray": 2448,
      "pping": 2449,
      "Ġexplain": 2450,
      "erly": 2451,
      "Come": 2452,
      "bar": 2453,
      "Ġmot": 2454,
      "Ġfancy": 2455,
      "Ġpuzzle": 2456,
      "Ġcalm": 2457,
      "Ġpract": 2458,
      "ĠDaddy": 2459,
      "Ġfinish": 2460,
      "Ġhealthy": 2461,
      "Ġtest": 2462,
      "Ġarms": 2463,
      "Ġeasy": 2464,
      "Ġ5": 2465,
      "ually": 2466,
      "arac": 2467,
      "Ġrocket": 2468,
      "iting": 2469,
      "Ġact": 2470,
      "Ġlonger": 2471,
      "aracter": 2472,
      "Ġjew": 2473,
      "))": 2474,
      "Ġtrouble": 2475,
      "Ġworking": 2476,
      "Ġunique": 2477,
      "Ġpack": 2478,
      "ute": 2479,
      "cc": 2480,
      "Ġpool": 2481,
      "Ġlen": 2482,
      "Ġjelly": 2483,
      "ĠChirpy": 2484,
      "Ġtid": 2485,
      "Ġexam": 2486,
      "Ġlarge": 2487,
      "iger": 2488,
      "Ġfake": 2489,
      "Ġcrayons": 2490,
      "Ġwondered": 2491,
      "Ġfront": 2492,
      "Ġship": 2493,
      "Ġscar": 2494,
      "Ġmaybe": 2495,
      "Ġnothing": 2496,
      "ighb": 2497,
      "Ġmatch": 2498,
      "Ġgives": 2499,
      "akes": 2500,
      "Ġanyone": 2501,
      "unk": 2502,
      "ĠJerry": 2503,
      "Ġperson": 2504,
      "iction": 2505,
      "Ġes": 2506,
      "Ġsaved": 2507,
      "ĠBunny": 2508,
      "Ġbossy": 2509,
      "Ġpin": 2510,
      "ĠDoggy": 2511,
      "Ġsmelled": 2512,
      "Ġbal": 2513,
      "Ġneighb": 2514,
      "rass": 2515,
      "Ġcross": 2516,
      "barrass": 2517,
      "Ġhonest": 2518,
      "Ġvan": 2519,
      "Ġembarrass": 2520,
      "ote": 2521,
      "Ġputs": 2522,
      "ĠWith": 2523,
      "Ġweak": 2524,
      "Ġtidy": 2525,
      "ĠMy": 2526,
      "Ġreg": 2527,
      "Ġmind": 2528,
      "Ġegg": 2529,
      "Ġkick": 2530,
      "Ġplants": 2531,
      "And": 2532,
      "ĠOllie": 2533,
      "Ġwhich": 2534,
      "orrow": 2535,
      "uce": 2536,
      "ĠMomo": 2537,
      "Ġexplor": 2538,
      "Ġgently": 2539,
      "Ġcozy": 2540,
      "Ġonto": 2541,
      "Ġlock": 2542,
      "ject": 2543,
      "ones": 2544,
      "Ġplaces": 2545,
      "Ġyog": 2546,
      "Ġpointed": 2547,
      "Ġwaiting": 2548,
      "Ġlad": 2549,
      "oomy": 2550,
      "Ġaf": 2551,
      "Ġstood": 2552,
      "af": 2553,
      "Ġjumping": 2554,
      "ram": 2555,
      "aced": 2556,
      "Ġcheer": 2557,
      "ĠĠĠĠĠ": 2558,
      "Ġqueen": 2559,
      "ĠMary": 2560,
      "ĠWhy": 2561,
      "name": 2562,
      "Ġforgive": 2563,
      "Ġwing": 2564,
      "Ġrep": 2565,
      "Ġresult": 2566,
      "Ġlovely": 2567,
      "Ġer": 2568,
      "cul": 2569,
      "era": 2570,
      "Ġbuilding": 2571,
      "Ġcleaned": 2572,
      "Ġdeer": 2573,
      "Ġchew": 2574,
      "ory": 2575,
      "Ġstret": 2576,
      "Ġcouch": 2577,
      "Ġdish": 2578,
      "aughter": 2579,
      "ĠTheir": 2580,
      "Ġsuccess": 2581,
      "oman": 2582,
      "Ġladder": 2583,
      "raid": 2584,
      "My": 2585,
      "Ġants": 2586,
      "Ġstir": 2587,
      "Ġlaw": 2588,
      "Ġafraid": 2589,
      "Ġtomorrow": 2590,
      "Ġloop": 2591,
      "ned": 2592,
      "Ġcur": 2593,
      "Ġsandwich": 2594,
      "Ġhum": 2595,
      "Ġprotect": 2596,
      "Sally": 2597,
      "ĠPr": 2598,
      "Ġpretended": 2599,
      "Ġsort": 2600,
      "iable": 2601,
      "Ġrich": 2602,
      "Ġgather": 2603,
      "Ġpizz": 2604,
      "Ġlazy": 2605,
      "Ġgoes": 2606,
      "Ġboring": 2607,
      "gth": 2608,
      "ĠSomet": 2609,
      "Ġteeth": 2610,
      "Kitty": 2611,
      "Ġdaughter": 2612,
      "Ġwoman": 2613,
      "Ġcode": 2614,
      "Ġscarf": 2615,
      "Ġflag": 2616,
      "ĠPlease": 2617,
      "Ġanswer": 2618,
      "Ġthese": 2619,
      "Ġstra": 2620,
      "ĠTogether": 2621,
      "erv": 2622,
      "Ġswimming": 2623,
      "Ġfurry": 2624,
      "Ġtool": 2625,
      "Ġsplashed": 2626,
      "Ġloves": 2627,
      "ues": 2628,
      "Ġscreamed": 2629,
      "Ġstat": 2630,
      "ual": 2631,
      "Ġ/": 2632,
      "ĠHow": 2633,
      "Ġeag": 2634,
      "ocol": 2635,
      "Ġ>": 2636,
      "Ġashamed": 2637,
      "Ġcharacter": 2638,
      "Ġpizza": 2639,
      "te": 2640,
      "Ġappeared": 2641,
      "Ġpowerful": 2642,
      "Ġbounce": 2643,
      "Ġnearby": 2644,
      "Ġfear": 2645,
      "Ġorder": 2646,
      "Ġclown": 2647,
      "Ġchar": 2648,
      "ictionary": 2649,
      "Ġmotor": 2650,
      "Ġwand": 2651,
      "ĠTV": 2652,
      "Ġcircle": 2653,
      "Ġchocol": 2654,
      "Ġprince": 2655,
      "airs": 2656,
      "Ġcand": 2657,
      "icked": 2658,
      "Ġmap": 2659,
      "Ġtrust": 2660,
      "Ġsaf": 2661,
      "Ġcreative": 2662,
      "Ġnoisy": 2663,
      "Ġhello": 2664,
      "Ġwearing": 2665,
      "Ġmatter": 2666,
      "Ġlog": 2667,
      "Ġcap": 2668,
      "Ġrespect": 2669,
      "elp": 2670,
      "rag": 2671,
      "Ġnote": 2672,
      "Ġexpens": 2673,
      "ĠBird": 2674,
      "Ġrange": 2675,
      "ervous": 2676,
      "ado": 2677,
      "Ġsold": 2678,
      "Ġmir": 2679,
      "Ġnervous": 2680,
      "iff": 2681,
      "Ġperform": 2682,
      "owed": 2683,
      "Ġpresent": 2684,
      "ĠTrue": 2685,
      "oppy": 2686,
      "Ġsmiling": 2687,
      "ĠPython": 2688,
      "ogram": 2689,
      "cho": 2690,
      "string": 2691,
      "ndp": 2692,
      "Ġlead": 2693,
      "osaur": 2694,
      "Ġtries": 2695,
      "Ġjewel": 2696,
      "Ġdrank": 2697,
      "Ġchocolate": 2698,
      "ume": 2699,
      "Ġimpress": 2700,
      "Ġsquare": 2701,
      "Ġknee": 2702,
      "Ġdinosaur": 2703,
      "itive": 2704,
      "Ġpolite": 2705,
      "ness": 2706,
      "Ġgold": 2707,
      "Ġrare": 2708,
      "Ġshadow": 2709,
      "ĠBobby": 2710,
      "ĠTiny": 2711,
      "Ġballoons": 2712,
      "ina": 2713,
      "Stop": 2714,
      "erate": 2715,
      "Ġcontain": 2716,
      "old": 2717,
      "arl": 2718,
      "Ġmirror": 2719,
      "Ġcarried": 2720,
      "Ġchang": 2721,
      "Ġexpensive": 2722,
      "ĠDon": 2723,
      "Ġgun": 2724,
      "Ġbald": 2725,
      "Ġglass": 2726,
      "Ġter": 2727,
      "Ġmysterious": 2728,
      "Ġpump": 2729,
      "Ġhero": 2730,
      "Ġgate": 2731,
      "ating": 2732,
      "issors": 2733,
      "Ġmarch": 2734,
      "ugar": 2735,
      "Ġevent": 2736,
      "Ġicy": 2737,
      "Ġweird": 2738,
      "Ġcri": 2739,
      "Ġsnee": 2740,
      "igin": 2741,
      "Ġsoap": 2742,
      "inary": 2743,
      "nic": 2744,
      "Ġfeet": 2745,
      "Ġpoor": 2746,
      "itter": 2747,
      "Help": 2748,
      "ubb": 2749,
      "any": 2750,
      "we": 2751,
      "Ġrequ": 2752,
      "Ġwhale": 2753,
      "ormal": 2754,
      "aking": 2755,
      "Ġtape": 2756,
      "Ġdisco": 2757,
      "Ġelements": 2758,
      "Ġsub": 2759,
      "Ġdizzy": 2760,
      "Ġcollect": 2761,
      "Ġgenerous": 2762,
      "ndpa": 2763,
      "ced": 2764,
      "ĠBenny": 2765,
      "Ġgroup": 2766,
      "Ġmic": 2767,
      "isp": 2768,
      "Ġpicnic": 2769,
      "Ġsque": 2770,
      "Ġembarrassed": 2771,
      "Ġjourney": 2772,
      "Ġprogram": 2773,
      "lves": 2774,
      "Ġtick": 2775,
      "Ġtent": 2776,
      "Ġsugar": 2777,
      "Ġboot": 2778,
      "Ġfat": 2779,
      "Ġpeaceful": 2780,
      "Ġjoke": 2781,
      "Ġscissors": 2782,
      "ĠBear": 2783,
      "Ġmel": 2784,
      "Ġtasted": 2785,
      "Ġyelled": 2786,
      "Tommy": 2787,
      "Ġdecor": 2788,
      "Ġbrush": 2789,
      "Ġdancing": 2790,
      "Ġglue": 2791,
      "Ġrough": 2792,
      "Ġhur": 2793,
      "Ġclap": 2794,
      "Ġbridge": 2795,
      "Ġcreate": 2796,
      "Ġpay": 2797,
      "Ġcloset": 2798,
      "Ġdictionary": 2799,
      "Ġcrown": 2800,
      "Ġnormal": 2801,
      "Ġorigin": 2802,
      "ĠSometimes": 2803,
      "Ġcheck": 2804,
      "Ġlamp": 2805,
      "lebr": 2806,
      "Ġscare": 2807,
      "Ġrelie": 2808,
      "getable": 2809,
      "Ġchase": 2810,
      "Ġeld": 2811,
      "Ġtele": 2812,
      "Ġcelebr": 2813,
      "Ġgigg": 2814,
      "Ġwhisp": 2815,
      "Ġwis": 2816,
      "ground": 2817,
      "Ġord": 2818,
      "Ġpainted": 2819,
      "Ġblow": 2820,
      "Ġvase": 2821,
      "Ġadm": 2822,
      "Ġspread": 2823,
      "ĠDucky": 2824,
      "Ġguess": 2825,
      "Ġvegetable": 2826,
      "rob": 2827,
      "erries": 2828,
      "ilt": 2829,
      "Ġignor": 2830,
      "Ġberries": 2831,
      "ĠBu": 2832,
      "Ġbecome": 2833,
      "Ġcage": 2834,
      "dle": 2835,
      "Ġwouldn": 2836,
      "Ġbalance": 2837,
      "Ġdrawing": 2838,
      "Ġmountain": 2839,
      "ustr": 2840,
      "Ġbake": 2841,
      "Ġfamous": 2842,
      "Ġbean": 2843,
      "Ġknocked": 2844,
      "asp": 2845,
      "Ġwrap": 2846,
      "Ġkicked": 2847,
      "Ġclear": 2848,
      "Ġthick": 2849,
      "Ġshark": 2850,
      "Ġlose": 2851,
      "Ġteam": 2852,
      "Ġincred": 2853,
      "Ġmid": 2854,
      "Ġclock": 2855,
      "Ġesc": 2856,
      "Ġthin": 2857,
      "Ġcorner": 2858,
      "Ġfine": 2859,
      "Ġ4": 2860,
      "Ġspace": 2861,
      "Ġelderly": 2862,
      "Ġ\"$": 2863,
      "Ġpro": 2864,
      "case": 2865,
      "Ġwheel": 2866,
      "Ġfrustr": 2867,
      "robe": 2868,
      "reate": 2869,
      "Ġmighty": 2870,
      "Ġcone": 2871,
      "Ġincredible": 2872,
      "ighed": 2873,
      "Ġfeed": 2874,
      "Dad": 2875,
      "Ġmov": 2876,
      "Ġmoms": 2877,
      "Ġfrag": 2878,
      "Ġsock": 2879,
      "ages": 2880,
      "ature": 2881,
      "ĠBr": 2882,
      "Ġjam": 2883,
      "Ġsell": 2884,
      "Ġorganized": 2885,
      "Ġfright": 2886,
      "Ġfinding": 2887,
      "ĠSome": 2888,
      "Ġbranches": 2889,
      "Ġroar": 2890,
      "Ġdiff": 2891,
      "alous": 2892,
      "ĠMama": 2893,
      "Ġfool": 2894,
      "als": 2895,
      "Ġmeasure": 2896,
      "Ġhorn": 2897,
      "Ġacc": 2898,
      "Ġjealous": 2899,
      "Ġyarn": 2900,
      "Ġburn": 2901,
      "la": 2902,
      "Ġfragile": 2903,
      "Ġspent": 2904,
      "lass": 2905,
      "Ġunderstood": 2906,
      "cient": 2907,
      "ĠSp": 2908,
      "Ġsolve": 2909,
      "ations": 2910,
      "Where": 2911,
      "Ġtowel": 2912,
      "Ġstubb": 2913,
      "Ġfrustrated": 2914,
      "Ġ*": 2915,
      "Ġhose": 2916,
      "Ġshoe": 2917,
      "Ġtaught": 2918,
      "Ġtwist": 2919,
      "Ġstubborn": 2920,
      "ony": 2921,
      "play": 2922,
      "Ġboard": 2923,
      "Ġwagon": 2924,
      "Ġoriginal": 2925,
      "Ġhandle": 2926,
      "Ġancient": 2927,
      "Ġcreature": 2928,
      "Ġchest": 2929,
      "Ġpolice": 2930,
      "Ġspoiled": 2931,
      "Ġbuilt": 2932,
      "Ġrelieved": 2933,
      "udy": 2934,
      "Ġeggs": 2935,
      "Ġdiffic": 2936,
      "Ġfier": 2937,
      "Ġpray": 2938,
      "len": 2939,
      "Ġuseful": 2940,
      "Ġterri": 2941,
      "Ġcab": 2942,
      "orry": 2943,
      "Ġbarn": 2944,
      "Ġcomfortable": 2945,
      "Ġpumpkin": 2946,
      "Ġfierce": 2947,
      "Ġdead": 2948,
      "Ġfrightened": 2949,
      "ested": 2950,
      "Ġtoug": 2951,
      "Ġdiscover": 2952,
      "Ġgoat": 2953,
      "Ġunus": 2954,
      "Ġtem": 2955,
      "ident": 2956,
      "Ġbreath": 2957,
      "kn": 2958,
      "Ġexploring": 2959,
      "Ġfoolish": 2960,
      "ĠNo": 2961,
      "Ġstraw": 2962,
      "Ġtomato": 2963,
      "Ġunusual": 2964,
      "Ġdug": 2965,
      "Ġclay": 2966,
      "Ġwrote": 2967,
      "Ġclum": 2968,
      "Ġwaves": 2969,
      "Ġdata": 2970,
      "Ġtimes": 2971,
      "Ġx": 2972,
      "angle": 2973,
      "Ġsearched": 2974,
      "Ġhears": 2975,
      "Ġneckl": 2976,
      "Ġrever": 2977,
      "Ġtells": 2978,
      "Ġcabin": 2979,
      "Ġdull": 2980,
      "vis": 2981,
      "Ġclumsy": 2982,
      "light": 2983,
      "Ġtough": 2984,
      "Ġbubbles": 2985,
      "Ġnosy": 2986,
      "known": 2987,
      "Together": 2988,
      "Ġcomb": 2989,
      "Ġwashed": 2990,
      "Ġdrop": 2991,
      "Ġbathroom": 2992,
      "Ġcost": 2993,
      "cept": 2994,
      "unn": 2995,
      "Ġpaws": 2996,
      "tern": 2997,
      "ĠCreate": 2998,
      "Ġsmaller": 2999,
      "alk": 3000,
      "ying": 3001,
      "Ġending": 3002,
      "Ġcase": 3003,
      "berry": 3004,
      "Ġasking": 3005,
      "ĠPe": 3006,
      "Ġpal": 3007,
      "Ġcalcul": 3008,
      "io": 3009,
      "ĠYour": 3010,
      "Ġcrazy": 3011,
      "Ġthankful": 3012,
      "cil": 3013,
      "yal": 3014,
      "Ġsunf": 3015,
      "Ġbitter": 3016,
      "Ġcovered": 3017,
      "Ġlibr": 3018,
      "Ġpir": 3019,
      "ipper": 3020,
      "Ġrose": 3021,
      "Ġunknown": 3022,
      "Ġswan": 3023,
      "Ġdifficult": 3024,
      "ict": 3025,
      "Me": 3026,
      "Ġbloom": 3027,
      "Ġlab": 3028,
      "oot": 3029,
      "Ġham": 3030,
      "ĠElla": 3031,
      "Ġfinger": 3032,
      "pes": 3033,
      "Ġbody": 3034,
      "Ġpencil": 3035,
      "reen": 3036,
      "Ġjet": 3037,
      "acked": 3038,
      "Ġhoop": 3039,
      "Ġwitch": 3040,
      "Ġsword": 3041,
      "Ġflex": 3042,
      "Ġrecord": 3043,
      "ER": 3044,
      "Ġchicken": 3045,
      "Ġloyal": 3046,
      "Ġrat": 3047,
      "Ġgloomy": 3048,
      "Ġzip": 3049,
      "Ġcats": 3050,
      "Ġunl": 3051,
      "Ġbet": 3052,
      "Ġwealthy": 3053,
      "Ġmis": 3054,
      "met": 3055,
      "Ġjoined": 3056,
      "Ġdesign": 3057,
      "ours": 3058,
      "Ġguit": 3059,
      "iant": 3060,
      "Ġheal": 3061,
      "shine": 3062,
      "Ġcher": 3063,
      "Ġdove": 3064,
      "Ġterrible": 3065,
      "Ġwake": 3066,
      "anut": 3067,
      "Ġchanged": 3068,
      "erp": 3069,
      "Ġyours": 3070,
      "land": 3071,
      "Ġmask": 3072,
      "und": 3073,
      "bble": 3074,
      "Ġsalad": 3075,
      "ĠRex": 3076,
      "Ġmoving": 3077,
      "ĠAndy": 3078,
      "Ġnuts": 3079,
      "</": 3080,
      "selves": 3081,
      "Ġmistake": 3082,
      "Ġtiger": 3083,
      "Ġpotato": 3084,
      "Ġfile": 3085,
      "bon": 3086,
      "Ġcheap": 3087,
      "Ġmiddle": 3088,
      "hip": 3089,
      "Ġexciting": 3090,
      "ĠMany": 3091,
      "ormous": 3092,
      "Ġguitar": 3093,
      "Ġtoast": 3094,
      "Ġyourself": 3095,
      "Ġmarble": 3096,
      "Ġfour": 3097,
      "Ġdisg": 3098,
      "ĠĠĠĠĠĠĠĠ": 3099,
      "Ġremind": 3100,
      "irsty": 3101,
      "ĠTask": 3102,
      "Ġknowing": 3103,
      "Ġadventur": 3104,
      "ĠBrown": 3105,
      "Ġenormous": 3106,
      "Ġhairy": 3107,
      "Ġ+=": 3108,
      "Every": 3109,
      "Ġshoot": 3110,
      "Ġ10": 3111,
      "Ġstri": 3112,
      "Ġpepper": 3113,
      "Ġbored": 3114,
      "Ġcube": 3115,
      "Ġacorn": 3116,
      "Ġdepend": 3117,
      "Ġadventurous": 3118,
      "Ġflexible": 3119,
      "Ġsunshine": 3120,
      "Ġhats": 3121,
      "Ġstuff": 3122,
      "Ġmarket": 3123,
      "Ġpipe": 3124,
      "ĠAl": 3125,
      "If": 3126,
      "ĠJimmy": 3127,
      "most": 3128,
      "Ġsuit": 3129,
      "rilliant": 3130,
      "Ġknife": 3131,
      "Ġcounted": 3132,
      "iness": 3133,
      "Ġneighbor": 3134,
      "Ġsnacks": 3135,
      "Ġshore": 3136,
      "Ġnods": 3137,
      "Ġbrilliant": 3138,
      "Ġthirsty": 3139,
      "ĠGo": 3140,
      "Ġdelicate": 3141,
      "Ġbanana": 3142,
      "Ġfrown": 3143,
      "upid": 3144,
      "ti": 3145,
      "Ġdisgust": 3146,
      "Ġseeds": 3147,
      "Ġnecklace": 3148,
      "Are": 3149,
      "Ġasleep": 3150,
      "Ġmailbox": 3151,
      "Ġdough": 3152,
      "Ġtrick": 3153,
      "ungle": 3154,
      "Who": 3155,
      "Ġmagn": 3156,
      "ĠProblem": 3157,
      "imp": 3158,
      "Ġstage": 3159,
      "Ġmedic": 3160,
      "Ġang": 3161,
      "ĠInstead": 3162,
      "Ġjungle": 3163,
      "Ġsquee": 3164,
      "mbre": 3165,
      "Ġexplained": 3166,
      "':": 3167,
      "ĠWhile": 3168,
      "Jim": 3169,
      "Ġumbre": 3170,
      "How": 3171,
      "arr": 3172,
      "Ġarg": 3173,
      "fted": 3174,
      "Ġdisgusting": 3175,
      "head": 3176,
      "Ġlow": 3177,
      "heck": 3178,
      "--": 3179,
      "cod": 3180,
      "Ġjolly": 3181,
      "corn": 3182,
      "Ġrh": 3183,
      "Ġflash": 3184,
      "}}": 3185,
      "Ġfridge": 3186,
      "atch": 3187,
      "Ġcrane": 3188,
      "Ġisland": 3189,
      "par": 3190,
      "Ġcaterp": 3191,
      "Ġcaterpill": 3192,
      "Ġsunflower": 3193,
      "Ġrelax": 3194,
      "Ġsuccessful": 3195,
      "Ġshiver": 3196,
      "Ġindepend": 3197,
      "Ġstupid": 3198,
      "ĠWill": 3199,
      "ants": 3200,
      "Ġvegetables": 3201,
      "Ġgoose": 3202,
      "Ġobject": 3203,
      "Ġpress": 3204,
      "Ġstove": 3205,
      "gest": 3206,
      "Inside": 3207,
      "oto": 3208,
      "Ġgem": 3209,
      "Ġbatter": 3210,
      "Mum": 3211,
      "Ġgar": 3212,
      "Ġspring": 3213,
      "Ġsighed": 3214,
      "Ġmelon": 3215,
      "Ġmedicine": 3216,
      "Ġstones": 3217,
      "Ġobed": 3218,
      "Ġshine": 3219,
      "Ġrug": 3220,
      "Ġdisplay": 3221,
      "Ġindependent": 3222,
      "word": 3223,
      "Ġcareless": 3224,
      "Ġstamp": 3225,
      "Ġcarrots": 3226,
      "Ġmeal": 3227,
      "Ġcries": 3228,
      "Ġdest": 3229,
      "Ġstudy": 3230,
      "Ġtaken": 3231,
      "Ġcomput": 3232,
      "aid": 3233,
      "Ġborrow": 3234,
      "There": 3235,
      "Ġalmost": 3236,
      "Ġjeep": 3237,
      "Ġpopcorn": 3238,
      "Ġobedient": 3239,
      "Ġtag": 3240,
      "Ġcro": 3241,
      "Ġsy": 3242,
      "Sorry": 3243,
      "acket": 3244,
      "ouses": 3245,
      "Ġfearful": 3246,
      "Ġharm": 3247,
      "Ġescape": 3248,
      "Ġgets": 3249,
      "Ġmax": 3250,
      "inky": 3251,
      "Ġtax": 3252,
      "Ġsauce": 3253,
      "Ġcam": 3254,
      "Ġchoose": 3255,
      "erable": 3256,
      "ĠSammy": 3257,
      "Ġbedroom": 3258,
      "Ġcaterpillar": 3259,
      "Ġserious": 3260,
      "Ġmovie": 3261,
      "Ġpeanut": 3262,
      "Ġeager": 3263,
      "Ġpasta": 3264,
      "Ġparrot": 3265,
      "Ġhelmet": 3266,
      "Ġstatue": 3267,
      "Ġpebble": 3268,
      "Ġstrang": 3269,
      "cut": 3270,
      "Ġcompet": 3271,
      "Ġfountain": 3272,
      "Ġraven": 3273,
      "('": 3274,
      "Ġumbrella": 3275,
      "Ġarr": 3276,
      "Ġjacket": 3277,
      "Ġbelonged": 3278,
      "Ġneeds": 3279,
      "Ġeng": 3280,
      "Ġfilthy": 3281,
      "Ġhouses": 3282,
      "Ġbottom": 3283,
      "Ġref": 3284,
      "Ġhay": 3285,
      "Ġcop": 3286,
      "Ġbelt": 3287,
      "Ġprize": 3288,
      "ude": 3289,
      "Ġfig": 3290,
      "Ġecho": 3291,
      "Ġbrace": 3292,
      "Ġscale": 3293,
      "Ġstanding": 3294,
      "pack": 3295,
      "Ġpainting": 3296,
      "Ġmiserable": 3297,
      "uth": 3298,
      "Ġbracelet": 3299,
      "Ġraced": 3300,
      "eterm": 3301,
      "Ġfork": 3302,
      "vious": 3303,
      "Ġscr": 3304,
      "Ġimpressive": 3305,
      "Ġtied": 3306,
      "Ġtank": 3307,
      "Ġspotted": 3308,
      "Ġload": 3309,
      "Ġlifted": 3310,
      "Ġslipped": 3311,
      "ween": 3312,
      "ĠTw": 3313,
      "Ġwip": 3314,
      "Ġthoughtful": 3315,
      "Ġdependable": 3316,
      "Ġregular": 3317,
      "Ġsteal": 3318,
      "Ġgarage": 3319,
      "Ġtrack": 3320,
      "Ġcomplex": 3321,
      "enny": 3322,
      "Ġmush": 3323,
      "real": 3324,
      "Ġmole": 3325,
      "Ġthread": 3326,
      "Ġcrawled": 3327,
      "Ġtor": 3328,
      "Ġshows": 3329,
      "Ġsink": 3330,
      "Ġboats": 3331,
      "host": 3332,
      "Ġmoder": 3333,
      "lph": 3334,
      "Ġhammer": 3335,
      "vice": 3336,
      "Ġcheerful": 3337,
      "Ġpicks": 3338,
      "Ġswe": 3339,
      "Ġpiano": 3340,
      "Ġbetween": 3341,
      "ither": 3342,
      "berries": 3343,
      "iv": 3344,
      "Ġmagnet": 3345,
      "codile": 3346,
      "ital": 3347,
      "Ġhurts": 3348,
      "Ġcrack": 3349,
      "Ġones": 3350,
      "Ġsmoke": 3351,
      "Ġonion": 3352,
      "Ġmodern": 3353,
      "Ġpopular": 3354,
      "Ġ//": 3355,
      "Ġaunt": 3356,
      "Ġmessage": 3357,
      "Ġwaff": 3358,
      "Ġtriangle": 3359,
      "Ġspeed": 3360,
      "Ġdeterm": 3361,
      "time": 3362,
      "cream": 3363,
      "Ġtunn": 3364,
      "Ġdolph": 3365,
      "Ġarrow": 3366,
      "Ġreliable": 3367,
      "eon": 3368,
      "Ġhopping": 3369,
      "Ġnames": 3370,
      "Ġmushroom": 3371,
      "Ġjug": 3372,
      "Timmy": 3373,
      "Ġsquash": 3374,
      "Ġincl": 3375,
      "By": 3376,
      "Ġgum": 3377,
      "Ġsent": 3378,
      "Ġpattern": 3379,
      "Ġflute": 3380,
      "Ġbeet": 3381,
      "Ġlean": 3382,
      "\")": 3383,
      "Ġprov": 3384,
      "ging": 3385,
      "Ġsize": 3386,
      "Their": 3387,
      "Ġsil": 3388,
      "opter": 3389,
      "icopter": 3390,
      "amond": 3391,
      "Ġcryst": 3392,
      "cles": 3393,
      "llip": 3394,
      "__": 3395,
      "atter": 3396,
      "Ġhelps": 3397,
      "aser": 3398,
      "Ġgrace": 3399,
      "Ġroot": 3400,
      "Ġhelicopter": 3401,
      "ĠRet": 3402,
      "Ġliz": 3403,
      "llipop": 3404,
      "Ġnod": 3405,
      "Ġcrocodile": 3406,
      "Molly": 3407,
      "fish": 3408,
      "Ġtroubled": 3409,
      "Ġlocked": 3410,
      "ache": 3411,
      "Ġpigeon": 3412,
      "Ġuncom": 3413,
      "Ġtricks": 3414,
      "Ġlollipop": 3415,
      "Ġplayful": 3416,
      "Ġenc": 3417,
      "Ġhumble": 3418,
      "Ġshape": 3419,
      "Ġbase": 3420,
      "Ġtaxi": 3421,
      "ĠOK": 3422,
      "Ġkissed": 3423,
      "Ġvol": 3424,
      "Ġuncomfortable": 3425,
      "Ġcommon": 3426,
      "Ġdiamond": 3427,
      "ĠV": 3428,
      "Ġpassed": 3429,
      "Ġengine": 3430,
      "Ġcamera": 3431,
      "Ġwander": 3432,
      "Ġrid": 3433,
      "Ġwrapped": 3434,
      "Ġtorn": 3435,
      "Ġanx": 3436,
      "ĠSn": 3437,
      "Ġwire": 3438,
      "Ġmuff": 3439,
      "Ġpants": 3440,
      "Ġtwig": 3441,
      "Ġdisappo": 3442,
      "Ġanxious": 3443,
      "Ġtot": 3444,
      "aff": 3445,
      "Ġghost": 3446,
      "uple": 3447,
      "edy": 3448,
      "Ġaer": 3449,
      "Ġtears": 3450,
      "Ġruined": 3451,
      "ĠEven": 3452,
      "Ġquar": 3453,
      "Ġmem": 3454,
      "ilty": 3455,
      "opl": 3456,
      "ĠJenny": 3457,
      "alse": 3458,
      "Ġfis": 3459,
      "Ġoper": 3460,
      "Ġguilty": 3461,
      "Ġbull": 3462,
      "Ġlearning": 3463,
      "Ġaeropl": 3464,
      "Ġhappiness": 3465,
      "Ġhelpless": 3466,
      "Ġlizard": 3467,
      "cean": 3468,
      "Jane": 3469,
      "Ġboys": 3470,
      "Ġprime": 3471,
      "het": 3472,
      "Ġwalks": 3473,
      "ĠReturn": 3474,
      "Ġmeant": 3475,
      "Ġnail": 3476,
      "Ġfactor": 3477,
      "Ġocean": 3478,
      "Ġremove": 3479,
      "zed": 3480,
      "Ġfluffy": 3481,
      "apping": 3482,
      "Ġstretch": 3483,
      "ctus": 3484,
      "Ġdeaf": 3485,
      "urse": 3486,
      "Ġbur": 3487,
      "Ġcandle": 3488,
      "Ġtotal": 3489,
      "Ġradio": 3490,
      "umber": 3491,
      "Ġbeetle": 3492,
      "Ġmop": 3493,
      "Ġharmless": 3494,
      "umpet": 3495,
      "Ġordinary": 3496,
      "Ġharder": 3497,
      "Ġanswered": 3498,
      "Ġcollar": 3499,
      "Ġbees": 3500,
      "Ġtire": 3501,
      "Ġpersist": 3502,
      "Ġquarrel": 3503,
      "atient": 3504,
      "Ġflashlight": 3505,
      "Ġhalf": 3506,
      "Ġcrystal": 3507,
      "Ġlit": 3508,
      "omes": 3509,
      "Ġsecond": 3510,
      "ript": 3511,
      "Ġpoured": 3512,
      "Ġtrumpet": 3513,
      "Mama": 3514,
      "Ġcurrent": 3515,
      "Ġhunt": 3516,
      "Ġreturned": 3517,
      "Ġtooth": 3518,
      "Ġpale": 3519,
      "Ġweek": 3520,
      "Ġcereal": 3521,
      "Ġinvited": 3522,
      "Ġcarp": 3523,
      "Ġoffice": 3524,
      "rite": 3525,
      "aze": 3526,
      "Ġrow": 3527,
      "Ġmelt": 3528,
      "Ġspill": 3529,
      "ats": 3530,
      "Ġcactus": 3531,
      "Ġscoot": 3532,
      "Ġspend": 3533,
      "Ġpow": 3534,
      "ief": 3535,
      "Ġshade": 3536,
      "appy": 3537,
      "Ġcomet": 3538,
      "Ġstack": 3539,
      "Ġmug": 3540,
      "asing": 3541,
      "Ġyogurt": 3542,
      "Ġaccident": 3543,
      "Ġfigure": 3544,
      "Ġcompass": 3545,
      "Ġsheet": 3546,
      "sect": 3547,
      "Ġtask": 3548,
      "aghet": 3549,
      "aghetti": 3550,
      "Ġvi": 3551,
      "ci": 3552,
      "udge": 3553,
      "Ġdisappointed": 3554,
      "Ġcomputer": 3555,
      "Ġforward": 3556,
      "ellig": 3557,
      "ushion": 3558,
      "Ġgiving": 3559,
      "Ġlicked": 3560,
      "gu": 3561,
      "Ġlibrary": 3562,
      "work": 3563,
      "Ġcushion": 3564,
      "ten": 3565,
      "Ġavoc": 3566,
      "Ġintellig": 3567,
      "Ġwhispered": 3568,
      "Ġplanet": 3569,
      "Ġ|": 3570,
      "Ġquestions": 3571,
      "oli": 3572,
      "Ġed": 3573,
      "Ġbarber": 3574,
      "ubby": 3575,
      "Ġroof": 3576,
      "Ġstream": 3577,
      "Ġrode": 3578,
      "Ġaut": 3579,
      "Ġgifted": 3580,
      "ccoli": 3581,
      "Ġpracticed": 3582,
      "Ġalert": 3583,
      "Ġmill": 3584,
      "Ġdelight": 3585,
      "Ġext": 3586,
      "azz": 3587,
      "Ġharsh": 3588,
      "Ġdust": 3589,
      "Ġbicy": 3590,
      "Ġspaghetti": 3591,
      "Ġtur": 3592,
      "Ġcoo": 3593,
      "Ġcompassion": 3594,
      "Ġsailed": 3595,
      "Ġfollowing": 3596,
      "Ġpersistent": 3597,
      "Ġcoco": 3598,
      "Ġcharacters": 3599,
      "])": 3600,
      "Ġenvel": 3601,
      "Ġcocoa": 3602,
      "Ġfeathers": 3603,
      "uring": 3604,
      "Ġcoins": 3605,
      "Ġdesk": 3606,
      "Ġglove": 3607,
      "Bobo": 3608,
      "Ġrice": 3609,
      "Ġshrimp": 3610,
      "Ġtunnel": 3611,
      "Ġcharming": 3612,
      "Ġears": 3613,
      "Ġstronger": 3614,
      "Ġknot": 3615,
      "Ġraft": 3616,
      "Ġenvious": 3617,
      "Ġturkey": 3618,
      "],": 3619,
      "Ġscreen": 3620,
      "Ġtap": 3621,
      "Ġcrawl": 3622,
      "Ġap": 3623,
      "element": 3624,
      "Ġboxes": 3625,
      "Ġtrap": 3626,
      "cano": 3627,
      "Ġequ": 3628,
      "Ġangel": 3629,
      "Ġvide": 3630,
      "Ġwheat": 3631,
      "Ġintelligent": 3632,
      "Ġcarpet": 3633,
      "Ġaeroplane": 3634,
      "Ġindex": 3635,
      "Ġtrunk": 3636,
      "utes": 3637,
      "Ġchubby": 3638,
      "Ġrestless": 3639,
      "Ġtube": 3640,
      "Ġspun": 3641,
      "olin": 3642,
      "Ġdreams": 3643,
      "Ġfriendship": 3644,
      "ulif": 3645,
      "Ġreverse": 3646,
      "Ġmodel": 3647,
      "Ġticket": 3648,
      "Ġimpr": 3649,
      "Ġbroccoli": 3650,
      "Ġdeliver": 3651,
      "dom": 3652,
      "Ġbri": 3653,
      "')": 3654,
      "ines": 3655,
      "Ġvolcano": 3656,
      "append": 3657,
      "Ġpost": 3658,
      "Ġsle": 3659,
      "cycle": 3660,
      "ĠJake": 3661,
      "nam": 3662,
      "Ġcaulif": 3663,
      "Ġvine": 3664,
      "Ġthief": 3665,
      "isted": 3666,
      "essie": 3667,
      "Ġinsect": 3668,
      "ric": 3669,
      "Ġlouder": 3670,
      "Ġsleeping": 3671,
      "Ġyaw": 3672,
      "Ġeventually": 3673,
      "Ġhaircut": 3674,
      "Ġhosp": 3675,
      "body": 3676,
      "Ġuniver": 3677,
      "Ġmay": 3678,
      "ceed": 3679,
      "Ġexcite": 3680,
      "ĠAr": 3681,
      "Ġhospital": 3682,
      "Ġdestro": 3683,
      "squ": 3684,
      "ĠToday": 3685,
      "Ġhappening": 3686,
      "ulu": 3687,
      "ĠAdd": 3688,
      "Ġeraser": 3689,
      "Ġgraceful": 3690,
      "Re": 3691,
      "Ġattract": 3692,
      "Ġdecide": 3693,
      "ense": 3694,
      "ĠEmily": 3695,
      "Ġnicely": 3696,
      "rework": 3697,
      "Ġrepe": 3698,
      "Ġcity": 3699,
      "Ġways": 3700,
      "Ġpoem": 3701,
      "Ġleop": 3702,
      "Ġcompetitive": 3703,
      "Ġcauliflower": 3704,
      "ention": 3705,
      "Ġcelebrate": 3706,
      "acht": 3707,
      "ulb": 3708,
      "urtain": 3709,
      "ĠFr": 3710,
      "Ġtravel": 3711,
      "Ġpeach": 3712,
      "Ġsoldier": 3713,
      "Ġsaus": 3714,
      "Ġparade": 3715,
      "Ġsend": 3716,
      "Ġcurtain": 3717,
      "Ġattractive": 3718,
      "Ġscatter": 3719,
      "Ġviolin": 3720,
      "Ġnurse": 3721,
      "Ġskip": 3722,
      "Ġdolphin": 3723,
      "ĠĠĊ": 3724,
      "Ġmath": 3725,
      "Ġwheels": 3726,
      "Ġignorant": 3727,
      "Ġyacht": 3728,
      "zzy": 3729,
      "Ġcompassionate": 3730,
      "Ġbarrel": 3731,
      "Ġenvelope": 3732,
      "Ġsteps": 3733,
      "iew": 3734,
      "Ġlying": 3735,
      "Ġfirework": 3736,
      "ĠSh": 3737,
      "Sarah": 3738,
      "..": 3739,
      "Ġbulb": 3740,
      "ĠPipp": 3741,
      "Ġscooter": 3742,
      "Ġrag": 3743,
      "count": 3744,
      "elery": 3745,
      "Ġbicycle": 3746,
      "Ġneedle": 3747,
      "Ġremain": 3748,
      "Ġhook": 3749,
      "Ġleopard": 3750,
      "Ġcounting": 3751,
      "Ġonce": 3752,
      "Ġpony": 3753,
      "Ġcricket": 3754,
      "Ġtruth": 3755,
      "\":": 3756,
      "Go": 3757,
      "dge": 3758,
      "Ġhomes": 3759,
      "ete": 3760,
      "Ġsepar": 3761,
      "Ġador": 3762,
      "Ġlength": 3763,
      "Ġrubbed": 3764,
      "Ġspell": 3765,
      "LE": 3766,
      "Ġbushes": 3767,
      "Ġjudge": 3768,
      "Ġuncle": 3769,
      "Ġcooked": 3770,
      "Ġgrown": 3771,
      "Ġadded": 3772,
      "add": 3773,
      "Ġthemselves": 3774,
      "Ġsplit": 3775,
      "Ġadorable": 3776,
      "Ġchalk": 3777,
      "Ġskin": 3778,
      "Ġsoar": 3779,
      "ices": 3780,
      "Ġbin": 3781,
      "Ġpurse": 3782,
      "Ġimpatient": 3783,
      "Ġwalls": 3784,
      "Ġcelery": 3785,
      "Ġtray": 3786,
      "Ġshells": 3787,
      "Ġimplement": 3788,
      "Ġpengu": 3789,
      "Ġrod": 3790,
      "Ġsurf": 3791,
      "data": 3792,
      "Ġprun": 3793,
      "Ġsniff": 3794,
      "Ġmanag": 3795,
      "Ġelev": 3796,
      "Ġseal": 3797,
      "Ġsaying": 3798,
      "Ġchain": 3799,
      "illa": 3800,
      "Ġlively": 3801,
      "Ġspeak": 3802,
      "Ġallig": 3803,
      "ready": 3804,
      "Ġdistant": 3805,
      "Ġradish": 3806,
      "Ġsupport": 3807,
      "Ġmotorcycle": 3808,
      "Ġpun": 3809,
      "Ġfilm": 3810,
      "Ġvar": 3811,
      "Ġmeat": 3812,
      "Ch": 3813,
      "live": 3814,
      "place": 3815,
      "Ġcleaning": 3816,
      "Ġspinning": 3817,
      "Ġforth": 3818,
      "Ġenth": 3819,
      "ebra": 3820,
      "Ġbounced": 3821,
      "Ġpit": 3822,
      "Ġstum": 3823,
      "Ġshut": 3824,
      "Ġslept": 3825,
      "Ġwallet": 3826,
      "chair": 3827,
      "Ġperm": 3828,
      "ebook": 3829,
      "Ġskipped": 3830,
      "Ġbiggest": 3831,
      "Ġmarry": 3832,
      "Ġautom": 3833,
      "Ġmetal": 3834,
      "Ġenthus": 3835,
      "Ġnotebook": 3836,
      "Ġreturns": 3837,
      "Ġdestroy": 3838,
      "Ġjournal": 3839,
      "Ġwiped": 3840,
      "cus": 3841,
      "ords": 3842,
      "Ġavocado": 3843,
      "Ġsteak": 3844,
      "Ġitem": 3845,
      "Ġbandage": 3846,
      "Ġlaughs": 3847,
      "Ġalready": 3848,
      "gor": 3849,
      "lo": 3850,
      "ĠBuzz": 3851,
      "usie": 3852,
      "Ġfre": 3853,
      "Ġcompl": 3854,
      "Ġunlock": 3855,
      "ents": 3856,
      "Ġdiary": 3857,
      "under": 3858,
      "Ġbehave": 3859,
      "Ġelevator": 3860,
      "gen": 3861,
      "Ġmint": 3862,
      "Ġbuttons": 3863,
      "Ġshowing": 3864,
      "Ġzebra": 3865,
      "Ġbags": 3866,
      "Ġarmchair": 3867,
      "bul": 3868,
      "Ġdistur": 3869,
      "Ġoy": 3870,
      "Ġfolder": 3871,
      "Ġclub": 3872,
      "),": 3873,
      "Ġpole": 3874,
      "Gra": 3875,
      "Ġearth": 3876,
      "Ġgathered": 3877,
      "phone": 3878,
      "Ġalligator": 3879,
      "Ġart": 3880,
      "Ġsweater": 3881,
      "Ġstranger": 3882,
      "Ġjellyfish": 3883,
      "Ġscrew": 3884,
      "Em": 3885,
      "ĠPoppy": 3886,
      "Give": 3887,
      "Ġmixer": 3888,
      "lies": 3889,
      "Ġskull": 3890,
      "Ġlime": 3891,
      "Ġprep": 3892,
      "Ġbump": 3893,
      "Ġambul": 3894,
      "Ġfather": 3895,
      "Ġpointing": 3896,
      "Ġfalls": 3897,
      "Ġsorted": 3898,
      "ito": 3899,
      "Ġmeans": 3900,
      "Ġloudly": 3901,
      "ailable": 3902,
      "ĠBet": 3903,
      "Ġshield": 3904,
      "Ġstruc": 3905,
      "ĠLulu": 3906,
      "ĠPeter": 3907,
      "Ġ6": 3908,
      "Ġitself": 3909,
      "Ġlights": 3910,
      "Ġtrucks": 3911,
      "Ġplayground": 3912,
      "Ġink": 3913,
      "ĠWrite": 3914,
      "Ġtummy": 3915,
      "Ġedge": 3916,
      "Ġstrings": 3917,
      "Ġdecorate": 3918,
      "Ġambulance": 3919,
      "ef": 3920,
      "irit": 3921,
      "Ġcalling": 3922,
      "Ġallowed": 3923,
      "ĠPolly": 3924,
      "Billy": 3925,
      "Ġdive": 3926,
      "Ġfu": 3927,
      "Ġsalt": 3928,
      "ĠBirdy": 3929,
      "Ġherb": 3930,
      "lic": 3931,
      "Ġguard": 3932,
      "ule": 3933,
      "Ġknows": 3934,
      "Ġornam": 3935,
      "Ġwhenever": 3936,
      "Ġmodest": 3937,
      "Ġyet": 3938,
      "Ġmosqu": 3939,
      "Ġrot": 3940,
      "oby": 3941,
      "Ġpolish": 3942,
      "Ġcalculate": 3943,
      "Ġeither": 3944,
      "Ġstation": 3945,
      "Ġpos": 3946,
      "Ġmosquito": 3947,
      "Ġresc": 3948,
      "Ġattic": 3949,
      "Ġvest": 3950,
      "import": 3951,
      "Ġframe": 3952,
      "res": 3953,
      "Ġple": 3954,
      "opus": 3955,
      "ctopus": 3956,
      "iron": 3957,
      "Ġdisappeared": 3958,
      "Ġletters": 3959,
      "ĠFo": 3960,
      "Ġstructure": 3961,
      "Ġminutes": 3962,
      "Ġ[]": 3963,
      "leton": 3964,
      "Ġstrawberry": 3965,
      "Ġdistance": 3966,
      "ination": 3967,
      "ĠMum": 3968,
      "ĠOut": 3969,
      "Ġkay": 3970,
      "Ġsugg": 3971,
      "ĠEx": 3972,
      "Ġpage": 3973,
      "Ġbrothers": 3974,
      "Ġitch": 3975,
      "Ġfootball": 3976,
      "Ġpirate": 3977,
      "keleton": 3978,
      "Ġuser": 3979,
      "Ġswitch": 3980,
      "web": 3981,
      "Ġcomplete": 3982,
      "Ġhipp": 3983,
      "Ġled": 3984,
      "Ġdriving": 3985,
      "Ġcable": 3986,
      "Ġphoto": 3987,
      "obile": 3988,
      "Ġdetermined": 3989,
      "Ġ100": 3990,
      "Ġreading": 3991,
      "Ġoctopus": 3992,
      "Ġcupboard": 3993,
      "aky": 3994,
      "Ġavailable": 3995,
      "andom": 3996,
      "ait": 3997,
      "umb": 3998,
      "inked": 3999,
      "Ġfloat": 4000,
      "Ġcord": 4001,
      "Ġvalues": 4002,
      "ushed": 4003,
      "Ġwishes": 4004,
      "Ġtripped": 4005,
      "Ġhours": 4006,
      "Ġur": 4007,
      "Ġkayak": 4008,
      "Ġ%": 4009,
      "Ġsucceed": 4010,
      "lasses": 4011,
      "Ġmild": 4012,
      "?\".": 4013,
      "uct": 4014,
      "stic": 4015,
      "Ġinf": 4016,
      "Ġcoal": 4017,
      "Well": 4018,
      "Ġsung": 4019,
      "Ġkindness": 4020,
      "iastic": 4021,
      "Ġautomobile": 4022,
      "ample": 4023,
      "Ġcomplain": 4024,
      "Ġthunder": 4025,
      "Ġmeth": 4026,
      "Ġenthusiastic": 4027,
      "Ġsneeze": 4028,
      "Ġcell": 4029,
      "Ġrib": 4030,
      "Ġincre": 4031,
      "Ġcartoon": 4032,
      "Ġyoga": 4033,
      "ithm": 4034,
      "Ġpackage": 4035,
      "ĠLittle": 4036,
      "rage": 4037,
      "Ġvideo": 4038,
      "ES": 4039,
      "Ġshrink": 4040,
      "Ġgrowl": 4041,
      "htub": 4042,
      "Ġflea": 4043,
      "Ġmeadow": 4044,
      "Ġdrawer": 4045,
      "ophone": 4046,
      "ĠCheck": 4047,
      "Ġskeleton": 4048,
      "Ġbathtub": 4049,
      "Ġgolf": 4050,
      "Ġhall": 4051,
      "con": 4052,
      "tress": 4053,
      "Ġview": 4054,
      "icle": 4055,
      "Ġveil": 4056,
      "ately": 4057,
      "Ġgor": 4058,
      "Ġchess": 4059,
      "Ġhunter": 4060,
      "Ġflame": 4061,
      "Ġthose": 4062,
      "Ġcups": 4063,
      "Ġtroph": 4064,
      "Ġglowing": 4065,
      "Al": 4066,
      "Ġmattress": 4067,
      "Ġoyster": 4068,
      "essert": 4069,
      "Ġmaze": 4070,
      "Ġpenny": 4071,
      "urch": 4072,
      "Ġspear": 4073,
      "Ġdrawings": 4074,
      "Ġrolling": 4075,
      "Ġrepair": 4076,
      "Ġhippo": 4077,
      "eros": 4078,
      "Ġsunglasses": 4079,
      "gorithm": 4080,
      "Ġdessert": 4081,
      "Ġcostume": 4082,
      "ikes": 4083,
      ",âĢĿ": 4084,
      "ĠReturns": 4085,
      "Ġmuffin": 4086,
      "per": 4087,
      "Ġpastry": 4088,
      "ĠMiss": 4089,
      "Ġcamp": 4090,
      "Ġshort": 4091,
      "Ġpacked": 4092,
      "Ġtelephone": 4093,
      "ĠPeople": 4094,
      "Ġmakeup": 4095,
      "Ġgear": 4096,
      "Ġwaffle": 4097,
      "vision": 4098,
      "Ġpear": 4099,
      "Ġpine": 4100,
      "cing": 4101,
      "Ġtext": 4102,
      "Ġhedge": 4103,
      "Ġtools": 4104,
      "Ġshocked": 4105,
      "Ġknight": 4106,
      "Ġtrophy": 4107,
      "Ġpowder": 4108,
      "Ġcob": 4109,
      "Ġmanaged": 4110,
      "Ġencou": 4111,
      "Ġmissile": 4112,
      "ĠArgs": 4113,
      "Ġok": 4114,
      "Ġwife": 4115,
      "Ġfive": 4116,
      "Ġstairs": 4117,
      "Ġcolour": 4118,
      "Ġmagaz": 4119,
      "rophone": 4120,
      "Ġstrugg": 4121,
      "Ġgrapes": 4122,
      "Bye": 4123,
      "Ġbasketball": 4124,
      "ĠTina": 4125,
      "ĠHere": 4126,
      "Ġcobweb": 4127,
      "Jimmy": 4128,
      "ĠTweet": 4129,
      "See": 4130,
      "ĠDan": 4131,
      "keep": 4132,
      "Ġeye": 4133,
      "Ġwool": 4134,
      "Ġmicrophone": 4135,
      "fee": 4136,
      "numbers": 4137,
      "Ġleash": 4138,
      "Ġgasp": 4139,
      "Ġbarking": 4140,
      "Ġweep": 4141,
      "Ġsafely": 4142,
      "Ġribbon": 4143,
      "Ġveh": 4144,
      ":-": 4145,
      "Ġtear": 4146,
      "offee": 4147,
      "Ġoften": 4148,
      "Ġearly": 4149,
      "Ġslides": 4150,
      "Ġvend": 4151,
      "Ġbananas": 4152,
      "Ġstaff": 4153,
      "Ġmen": 4154,
      "istol": 4155,
      "Jill": 4156,
      "arian": 4157,
      "Ġten": 4158,
      "Ġspirit": 4159,
      "Ġpoke": 4160,
      "Ġcooking": 4161,
      "Ġgiggled": 4162,
      "Ġalgorithm": 4163,
      "chor": 4164,
      "was": 4165,
      "ckey": 4166,
      "Ġhockey": 4167,
      "Ġgorilla": 4168,
      "Ġcomplexity": 4169,
      "Ġcooler": 4170,
      "ĠRose": 4171,
      "scope": 4172,
      "ĠLook": 4173,
      "Ġimprove": 4174,
      "otter": 4175,
      "Ġraise": 4176,
      "Ġmarched": 4177,
      "Ġflour": 4178,
      "ured": 4179,
      "washer": 4180,
      "ilot": 4181,
      "Ġsailor": 4182,
      "Ġmedal": 4183,
      "roscope": 4184,
      "Ġhotel": 4185,
      "Ġchurch": 4186,
      "ĠPete": 4187,
      "Ġtuple": 4188,
      "erc": 4189,
      "gers": 4190,
      "ustom": 4191,
      "Ġsausage": 4192,
      "Ġvendor": 4193,
      "Ġmitten": 4194,
      "Ġorganize": 4195,
      "Ġfireman": 4196,
      "Ġgrandpa": 4197,
      "Ġotter": 4198,
      "Ġbaseball": 4199,
      "Ġsight": 4200,
      "Ġpistol": 4201,
      "Ġpretending": 4202,
      "Ġdishwasher": 4203,
      "Ġbattery": 4204,
      "arm": 4205,
      "Ġopens": 4206,
      "Ġknock": 4207,
      "Ġiron": 4208,
      "Ġtemple": 4209,
      "Ġgrill": 4210,
      "Ġthinking": 4211,
      "Ġ8": 4212,
      "Ġanchor": 4213,
      "Ġow": 4214,
      "Ġpatch": 4215,
      "Ġrealised": 4216,
      "Ġoil": 4217,
      "Ġsandbox": 4218,
      "Ġlaser": 4219,
      "Ġsne": 4220,
      "ittens": 4221,
      "Ġabove": 4222,
      "ĠGive": 4223,
      "Ġrise": 4224,
      "Is": 4225,
      "Ġwhip": 4226,
      "'d": 4227,
      "sum": 4228,
      "Ġskirt": 4229,
      "Ġtrash": 4230,
      "ified": 4231,
      "ney": 4232,
      "Ġfactory": 4233,
      "ĠBetty": 4234,
      "ava": 4235,
      "Ġward": 4236,
      "Ġsett": 4237,
      "Ġrhin": 4238,
      "Ġlotion": 4239,
      "useum": 4240,
      "Ġmusician": 4241,
      "date": 4242,
      "zer": 4243,
      "verage": 4244,
      "uper": 4245,
      "Ġwardrobe": 4246,
      "ugged": 4247,
      "Ġcardboard": 4248,
      "Ġreward": 4249,
      "apers": 4250,
      "aches": 4251,
      "Ġmuseum": 4252,
      "Ġhelper": 4253,
      "Ġtowers": 4254,
      "Ġhanging": 4255,
      "Ġquit": 4256,
      "ucet": 4257,
      "Ġax": 4258,
      "ĠSunny": 4259,
      "eer": 4260,
      "ĠZoom": 4261,
      "Ġpilot": 4262,
      "keeper": 4263,
      "Ġcoffee": 4264,
      "loo": 4265,
      "Fluffy": 4266,
      "Ġblackboard": 4267,
      "Ġexcitement": 4268,
      "sed": 4269,
      "Ġholds": 4270,
      "mbol": 4271,
      "Ġnapkin": 4272,
      "Ġpenguin": 4273,
      "ĠRob": 4274,
      "Ġpicking": 4275,
      "ĠPippin": 4276,
      "Ġcane": 4277,
      "ĠSnow": 4278,
      "Ġig": 4279,
      "Ġhive": 4280,
      "azor": 4281,
      "Ġpassport": 4282,
      "Ġfaucet": 4283,
      "Ġstumbled": 4284,
      "med": 4285,
      "Ġdreamed": 4286,
      "low": 4287,
      "aroo": 4288,
      "ĠBessie": 4289,
      "Ġigloo": 4290,
      "angaroo": 4291,
      "Ġpand": 4292,
      "Ġjuicy": 4293,
      "Ġminer": 4294,
      "ffic": 4295,
      "Ġbathe": 4296,
      "li": 4297,
      "Ġdancer": 4298,
      "value": 4299,
      "Ġtornado": 4300,
      "imney": 4301,
      "Ġnewsp": 4302,
      "Ġfingers": 4303,
      "undry": 4304,
      "htray": 4305,
      "Ġhanger": 4306,
      "Ġ7": 4307,
      "Ġpeek": 4308,
      "${": 4309,
      "Ġlend": 4310,
      "Ġchimney": 4311,
      "Ġlaundry": 4312,
      "Ġoak": 4313,
      "Ġfastest": 4314,
      "Ġreplace": 4315,
      "Ġpractice": 4316,
      "Ġfisher": 4317,
      "Ġrandom": 4318,
      "Ġkangaroo": 4319,
      "ĠEverywhere": 4320,
      "Ġtelling": 4321,
      "Ġnovel": 4322,
      "Ġsymbol": 4323,
      "Ġbill": 4324,
      "Ġmummy": 4325,
      "Ġscore": 4326,
      "Ġins": 4327,
      "Ġgain": 4328,
      "Ġvalu": 4329,
      "Ġstud": 4330,
      "Ġmule": 4331,
      "Ġcherries": 4332,
      "}}\"": 4333,
      "Ġspilled": 4334,
      "Ġreind": 4335,
      "Ġenjoying": 4336,
      "Ġmicroscope": 4337,
      "length": 4338,
      "ampoo": 4339,
      "Ġcows": 4340,
      "ĠZip": 4341,
      "Ġrece": 4342,
      "Ġimagine": 4343,
      "Ġornament": 4344,
      "stri": 4345,
      "Ġfuel": 4346,
      "oceros": 4347,
      "Ġmagazine": 4348,
      "Ġfireplace": 4349,
      "Ġhurry": 4350,
      "Ġcabinet": 4351,
      "Wait": 4352,
      "Ġmissing": 4353,
      "Joe": 4354,
      "Ġashtray": 4355,
      "Ġdiscovered": 4356,
      "];": 4357,
      "for": 4358,
      "alend": 4359,
      "ĠSpike": 4360,
      "Ġseparate": 4361,
      "Ġfalling": 4362,
      "ments": 4363,
      "Ġpalace": 4364,
      "Ġreindeer": 4365,
      "Ġextra": 4366,
      "ilet": 4367,
      "Ġjumps": 4368,
      "Ġsilver": 4369,
      "Ġstared": 4370,
      "Ġroared": 4371,
      "Ġaw": 4372,
      "Ġtrail": 4373,
      "Ġtub": 4374,
      "Ġresist": 4375,
      "Ġcalend": 4376,
      "Ġage": 4377,
      "Ġrhinoceros": 4378,
      "Ġfog": 4379,
      "Ġmatches": 4380,
      "ions": 4381,
      "stairs": 4382,
      "Ġtaller": 4383,
      "Ġhut": 4384,
      "Ġhappier": 4385,
      "Ġnotice": 4386,
      "Ġtoilet": 4387,
      "ogn": 4388,
      "Ġvaluable": 4389,
      "Ġpor": 4390,
      "rror": 4391,
      "Ow": 4392,
      "Ġoats": 4393,
      "Ġfisherman": 4394,
      "xy": 4395,
      "Ġrake": 4396,
      "Ġshampoo": 4397,
      "Ġholes": 4398,
      "Ġoffered": 4399,
      "Ġboots": 4400,
      "Ġvalid": 4401,
      "itionally": 4402,
      "Ġenter": 4403,
      "Ġclimbing": 4404,
      "ival": 4405,
      "Ġcalendar": 4406,
      "python": 4407,
      "Ġstretched": 4408,
      "Ġstops": 4409,
      "arry": 4410,
      "Ġlistening": 4411,
      "Ġzipper": 4412,
      "Ġlanguage": 4413,
      "ik": 4414,
      "Ġtelevision": 4415,
      "Ġjokes": 4416,
      "Ġsuper": 4417,
      "Ġagainst": 4418,
      "ison": 4419,
      "Ġbathrobe": 4420,
      "Ġjewelry": 4421,
      "Ġfinds": 4422,
      "Ġaxe": 4423,
      "Ġstarts": 4424,
      "Ġattach": 4425,
      "Ġsparkly": 4426,
      "ĠSusie": 4427,
      "Ġperfume": 4428,
      "Ġpressed": 4429,
      "rod": 4430,
      "Ġson": 4431,
      "Ġpopped": 4432,
      "Ġobser": 4433,
      "Mummy": 4434,
      "ym": 4435,
      "Ġunpack": 4436,
      "reek": 4437,
      "urs": 4438,
      "Ġneat": 4439,
      "ĠKim": 4440,
      "Ġdoesn": 4441,
      "imum": 4442,
      "affe": 4443,
      "ĠToby": 4444,
      "Ġcreek": 4445,
      "Ġsnap": 4446,
      "Ġopera": 4447,
      "Mr": 4448,
      "ĠMar": 4449,
      "Ġgasped": 4450,
      "Ġpapers": 4451,
      "Ġtuna": 4452,
      "Ġchose": 4453,
      "ĠAre": 4454,
      "ific": 4455,
      "Ġvehicle": 4456,
      "Ġsubway": 4457,
      "zag": 4458,
      "Ġfreezer": 4459,
      "utor": 4460,
      "Ġpinch": 4461,
      "rence": 4462,
      "Ġrestaur": 4463,
      "Ġanyway": 4464,
      "Ġexerc": 4465,
      "Ġlie": 4466,
      "cl": 4467,
      "Ġporch": 4468,
      "Ġbikes": 4469,
      "Ġspoke": 4470,
      "Ġbelongs": 4471,
      "Ġaccept": 4472,
      "iches": 4473,
      "Ġtightly": 4474,
      "igzag": 4475,
      "Ġcomfort": 4476,
      "king": 4477,
      "Ġnature": 4478,
      "resent": 4479,
      "Ġshaking": 4480,
      "plic": 4481,
      "Ġrazor": 4482,
      "Ġsandwiches": 4483,
      "Ġweigh": 4484,
      "Ġrestaurant": 4485,
      "AM": 4486,
      "Ġnewspaper": 4487,
      "Ġrecogn": 4488,
      "Ġstickers": 4489,
      "input": 4490,
      "Ġcards": 4491,
      "Ġbookcase": 4492,
      "ĠFalse": 4493,
      "Ġped": 4494,
      "Ġswinging": 4495,
      "Ġdisag": 4496,
      "ative": 4497,
      "olog": 4498,
      "Ġsquirrels": 4499,
      "ero": 4500,
      "Ġgym": 4501,
      "Ġswamp": 4502,
      "Ġbutterflies": 4503,
      "Ġgrowing": 4504,
      "Ġprovide": 4505,
      "fast": 4506,
      "Ġbuckle": 4507,
      "Ġalarm": 4508,
      "Ġstirred": 4509,
      "Ġmustache": 4510,
      "Ġbillboard": 4511,
      "Ġbeep": 4512,
      "Ġlightning": 4513,
      "Ġfest": 4514,
      "Ġlip": 4515,
      "ason": 4516,
      "Ġagree": 4517,
      "Ġhung": 4518,
      "ience": 4519,
      "Ġblouse": 4520,
      "adi": 4521,
      "year": 4522,
      "Little": 4523,
      "Ġserve": 4524,
      "iven": 4525,
      "Ġdisturb": 4526,
      "Ġhate": 4527,
      "ify": 4528,
      "Ġcircles": 4529,
      "Ġrubber": 4530,
      "Ġsof": 4531,
      "index": 4532,
      "Ġweather": 4533,
      "Ġfestival": 4534,
      "Ouch": 4535,
      "Ġadvice": 4536,
      "Ġbeef": 4537,
      "Ġrules": 4538,
      "Ġbookshe": 4539,
      "aspoon": 4540,
      "Ġtutor": 4541,
      "ected": 4542,
      "asis": 4543,
      "Ġsweetie": 4544,
      "Ġfort": 4545,
      "pron": 4546,
      "lter": 4547,
      "Ġapron": 4548,
      "Ġblueberries": 4549,
      "Ġcrib": 4550,
      "Ġsofa": 4551,
      "Ġbreakfast": 4552,
      "Ġpee": 4553,
      "Ġgiraffe": 4554,
      "Ex": 4555,
      "Ġgas": 4556,
      "na": 4557,
      "Ġshelter": 4558,
      "Ġbookshelf": 4559,
      "Ġairport": 4560,
      "yle": 4561,
      "Ġrail": 4562,
      "Ġtease": 4563,
      "Ġsoil": 4564,
      "Ġinter": 4565,
      "right": 4566,
      "Ġplayer": 4567,
      "Ġfrogs": 4568,
      "Ġkne": 4569,
      "Ġteaspoon": 4570,
      "Ġjunk": 4571,
      "Ġriding": 4572,
      "Ġrepresent": 4573,
      "Ġpair": 4574,
      "Ġlumber": 4575,
      "Ġpleased": 4576,
      "Ġahead": 4577,
      "ĠMrs": 4578,
      "Ġdrain": 4579,
      "ib": 4580,
      "Ġweb": 4581,
      "aws": 4582,
      "Ġleaving": 4583,
      "Ġrequest": 4584,
      "Ġwipe": 4585,
      "Ġlic": 4586,
      "Ġrescue": 4587,
      "Ġoasis": 4588,
      "Ġgoal": 4589,
      "elements": 4590,
      "act": 4591,
      "Ġmult": 4592,
      "Ġprevent": 4593,
      "omm": 4594,
      "Ġpainter": 4595,
      "Ġsqueeze": 4596,
      "Ġknob": 4597,
      "Ġpoked": 4598,
      "ĠTeddy": 4599,
      "iform": 4600,
      "iture": 4601,
      "Ġpeeked": 4602,
      "Error": 4603,
      "Ġolder": 4604,
      "urniture": 4605,
      "Ġtrains": 4606,
      "hest": 4607,
      "elcome": 4608,
      "Ġquiz": 4609,
      "Ġty": 4610,
      "Ġinclude": 4611,
      "Ġrefused": 4612,
      "redient": 4613,
      "Ġsuff": 4614,
      "rmomet": 4615,
      "Ġhappens": 4616,
      "Ġcountry": 4617,
      "ingredient": 4618,
      "Ġsounded": 4619,
      "Ġwinter": 4620,
      "ĠAdditionally": 4621,
      "Ġdisappear": 4622,
      "ĠGrandpa": 4623,
      "Ġbirdc": 4624,
      "Ġtrade": 4625,
      "yer": 4626,
      "ON": 4627,
      "Ġpoints": 4628,
      "rmometer": 4629,
      "ĠDolly": 4630,
      "Ġwaste": 4631,
      "ĠUn": 4632,
      "Ġtheater": 4633,
      "Ġchance": 4634,
      "Ġbirdcage": 4635,
      "Ġuniform": 4636,
      "Ġcarrying": 4637,
      "Ġreef": 4638,
      "umn": 4639,
      "Daisy": 4640,
      "Ġinvite": 4641,
      "ola": 4642,
      "Ġostri": 4643,
      "Ġswung": 4644,
      "Ġcliff": 4645,
      "!\".": 4646,
      "Ġfurniture": 4647,
      "Ġlawn": 4648,
      "ĠPandy": 4649,
      "Ġleaned": 4650,
      "Ġpages": 4651,
      "Ġbury": 4652,
      "Ġlicense": 4653,
      "stem": 4654,
      "Ġadmire": 4655,
      "render": 4656,
      "eterin": 4657,
      "Ġaccidentally": 4658,
      "eterinarian": 4659,
      "Ġintegers": 4660,
      "Ġstom": 4661,
      "ases": 4662,
      "Ġtwir": 4663,
      "riger": 4664,
      "Ġstable": 4665,
      "Ġpanda": 4666,
      "Ġanywhere": 4667,
      "Ġform": 4668,
      "Ġignore": 4669,
      "Ġblinked": 4670,
      "astic": 4671,
      "night": 4672,
      "rigerator": 4673,
      "Ġstarting": 4674,
      "ĠLee": 4675,
      "vert": 4676,
      "Ġimagined": 4677,
      "=\"${": 4678,
      "Ġdreaming": 4679,
      "Ġceiling": 4680,
      "Ġclassroom": 4681,
      "Ġshower": 4682,
      "Ġrefrigerator": 4683,
      "orre": 4684,
      "itial": 4685,
      "Ġcaring": 4686,
      "Ġsearching": 4687,
      "Ġproblems": 4688,
      "Ġveterinarian": 4689,
      "ĠOutput": 4690,
      ").": 4691,
      "Ġlawyer": 4692,
      "Ġconst": 4693,
      "Ġmonkeys": 4694,
      "ĠWhere": 4695,
      "Ġthermometer": 4696,
      "ublic": 4697,
      "Ġsummer": 4698,
      "Ġwarned": 4699,
      "Ġbrick": 4700,
      "Ġ<=": 4701,
      "++": 4702,
      "Ġcudd": 4703,
      "Ġdelay": 4704,
      "cript": 4705,
      "chan": 4706,
      "ument": 4707,
      "amber": 4708,
      "ĠCl": 4709,
      "aked": 4710,
      "ides": 4711,
      "Ġ9": 4712,
      "Ġchasing": 4713,
      "ution": 4714,
      "ending": 4715,
      "Ġmethod": 4716,
      "Ġlid": 4717,
      "ari": 4718,
      "number": 4719,
      "uggage": 4720,
      "ince": 4721,
      "Ġrespectful": 4722,
      "form": 4723,
      "Ġfrowned": 4724,
      "Ġzoomed": 4725,
      "Ġsuggested": 4726,
      "Ġintrod": 4727,
      "Ġmistakes": 4728,
      "Ġbent": 4729,
      "Ġwindows": 4730,
      "Your": 4731,
      "ventually": 4732,
      "Ġluggage": 4733,
      "Ġsunset": 4734,
      "Ġostrich": 4735,
      "Ġprints": 4736,
      "eor": 4737,
      "Ġwine": 4738,
      "Ġjail": 4739,
      "Ġinteger": 4740,
      "Ġgrape": 4741,
      "son": 4742,
      "Ġshouts": 4743,
      "vet": 4744,
      "Ġwigg": 4745,
      "Ġweight": 4746,
      "Ġfixing": 4747,
      "ses": 4748,
      "Ġrecomm": 4749,
      "Ġspoil": 4750,
      "Ġmeeting": 4751,
      "Ġchamber": 4752,
      "Did": 4753,
      "Ġlions": 4754,
      "Ġyield": 4755,
      "\">": 4756,
      "arget": 4757,
      "Ġcontent": 4758,
      "Ġhanded": 4759,
      "Ġunite": 4760,
      "Ġfought": 4761,
      "Ġexercise": 4762,
      "ĠRed": 4763,
      "Ġbrightly": 4764,
      "iki": 4765,
      "Ġexit": 4766,
      "col": 4767,
      "Ġbeg": 4768,
      "Ġsurprises": 4769,
      "ĠEllie": 4770,
      "Ġfavour": 4771,
      "adium": 4772,
      "ĠSpe": 4773,
      "Ġvariable": 4774,
      "Ġstadium": 4775,
      "AME": 4776,
      "Ġrecommend": 4777,
      "ement": 4778,
      "FI": 4779,
      "Ġproudly": 4780,
      "log": 4781,
      "Ġexample": 4782,
      "NAME": 4783,
      "Ġchairs": 4784,
      "Ġslip": 4785,
      "Ġmineral": 4786,
      "=\"${{": 4787,
      "Ġhuman": 4788,
      "text": 4789,
      "Ġsaving": 4790,
      "ĠCarl": 4791,
      "Ġmechan": 4792,
      "ĠBow": 4793,
      "Ġsadly": 4794,
      "sity": 4795,
      "Ġport": 4796,
      "lex": 4797,
      "veal": 4798,
      "Ġpuddles": 4799,
      "Ġberry": 4800,
      "ĠĠĠĠĠĠĠĠĊ": 4801,
      "ĠInput": 4802,
      "ĠBoun": 4803,
      "Ġranch": 4804,
      "Ġresp": 4805,
      "']": 4806,
      "ĠBig": 4807,
      "Ġargue": 4808,
      "Ġadmired": 4809,
      "apon": 4810,
      "Ġfavourite": 4811,
      "eorge": 4812,
      "Ġleak": 4813,
      "Ġcontaining": 4814,
      "Ġdiscus": 4815,
      "Ġrac": 4816,
      "Ġexcitedly": 4817,
      "Ġingredient": 4818,
      "thank": 4819,
      "Ġgrabs": 4820,
      "Ġsteam": 4821,
      "bor": 4822,
      "iday": 4823,
      "ubbles": 4824,
      "Ġprice": 4825,
      "Ġpushing": 4826,
      "Ġreveal": 4827,
      "alley": 4828,
      "Qu": 4829,
      "Ġmall": 4830,
      "its": 4831,
      "aul": 4832,
      "Ġreminded": 4833,
      "oduct": 4834,
      "FILE": 4835,
      "Ġ!": 4836,
      "array": 4837,
      "Ġprepare": 4838,
      "Ġsurrender": 4839,
      "Ġweapon": 4840,
      "ĠNext": 4841,
      "Ġputting": 4842,
      "Ġlabel": 4843,
      "Ġvalley": 4844,
      "Ġregret": 4845,
      "Ġevening": 4846,
      "item": 4847,
      "izes": 4848,
      "Ġforgave": 4849,
      "Ġdem": 4850,
      "Next": 4851,
      "Ġmenu": 4852,
      "Ġsneezed": 4853,
      "ecause": 4854,
      "Ġpup": 4855,
      "Ġrushed": 4856,
      "Ġspade": 4857,
      "Ġplates": 4858,
      "Ġapolog": 4859,
      "Ġmeas": 4860,
      "rix": 4861,
      "ĠJava": 4862,
      "Ġharbor": 4863,
      "Ġsupply": 4864,
      "Ġpulls": 4865,
      "ĠBuzzy": 4866,
      "uplic": 4867,
      "Ġstrip": 4868,
      "Ġplastic": 4869,
      "Ġsniffed": 4870,
      "ĠJazz": 4871,
      "Ġspr": 4872,
      "section": 4873,
      "ĠBill": 4874,
      "Ġshovel": 4875,
      "Ġmention": 4876,
      "Ġlives": 4877,
      "Ġrestore": 4878,
      "Ġparts": 4879,
      "Ġcared": 4880,
      "Ġdoors": 4881,
      "Ġallow": 4882,
      "Ġsocks": 4883,
      "result": 4884,
      "Ġpa": 4885,
      "Ġmystery": 4886,
      "ĠâĢ": 4887,
      "Ġsudden": 4888,
      "Ġsticker": 4889,
      "Ġslipper": 4890,
      "ĠNone": 4891,
      "Ġkinds": 4892,
      "ĠOw": 4893,
      "Ġslippery": 4894,
      "quen": 4895,
      "Ġpanic": 4896,
      "hero": 4897,
      "icer": 4898,
      "Ġhoping": 4899,
      "ricane": 4900,
      "Ġshone": 4901,
      "ssible": 4902,
      "Ġgro": 4903,
      "Ġhol": 4904,
      "Ġmemory": 4905,
      "Ġholiday": 4906,
      "['": 4907,
      "ĠMike": 4908,
      "ĠOr": 4909,
      "ĠBinky": 4910,
      "Ġaverage": 4911,
      "ipping": 4912,
      "Ġsuperhero": 4913,
      "Ġdelighted": 4914,
      "Yay": 4915,
      "ĠAb": 4916,
      "IN": 4917,
      "Ġchickens": 4918,
      "Ġgrand": 4919,
      "ores": 4920,
      "cast": 4921,
      "laud": 4922,
      "ĠAlice": 4923,
      "Mary": 4924,
      "oof": 4925,
      "Ġcustom": 4926,
      "tain": 4927,
      "Ġshoulder": 4928,
      "Ġrained": 4929,
      "Ġcolourful": 4930,
      "Ġbreat": 4931,
      "wards": 4932,
      "imed": 4933,
      "CE": 4934,
      "ĠBubbles": 4935,
      "Ġsorting": 4936,
      "Ġsoftly": 4937,
      "Yuck": 4938,
      "ges": 4939,
      "oved": 4940,
      "Ġrequire": 4941,
      "Ġkeeping": 4942,
      "rise": 4943,
      "Ġmass": 4944,
      "Ġthrowing": 4945,
      "Grandma": 4946,
      "ĠPat": 4947,
      "Ġvo": 4948,
      "String": 4949,
      "Ġbarks": 4950,
      "ther": 4951,
      "Ġplanes": 4952,
      "Ġended": 4953,
      "ĠFreddy": 4954,
      "Ġpushes": 4955,
      "Ġcalls": 4956,
      "ml": 4957,
      "Ġshakes": 4958,
      "Ġshivering": 4959,
      "All": 4960,
      "Ġsunrise": 4961,
      "Ġrooms": 4962,
      "Ġtrem": 4963,
      "Ġfresh": 4964,
      "Ġchoice": 4965,
      "Ġthanks": 4966,
      "Ġtip": 4967,
      "Ġsuffer": 4968,
      "Ġrepeat": 4969,
      "Ġnetwork": 4970,
      "Ġcorre": 4971,
      "Ġinfant": 4972,
      "Ġdishes": 4973,
      "ĠSpeedy": 4974,
      "Ġfreeze": 4975,
      "==": 4976,
      "Ġconf": 4977,
      "ĠWould": 4978,
      "AT": 4979,
      "ĠOlive": 4980,
      "Ġcopper": 4981,
      "Ġgiggle": 4982,
      "Ġbelow": 4983,
      "unction": 4984,
      "Ġsmells": 4985,
      "Ġdear": 4986,
      "Ġheads": 4987,
      "Ġcherry": 4988,
      "Ġthumb": 4989,
      "happy": 4990,
      "Ġapplaud": 4991,
      "Ġhurricane": 4992,
      "Ġbrighter": 4993,
      "Ġ{{": 4994,
      "Ġmeowed": 4995,
      "Ġskill": 4996,
      "ĠHel": 4997,
      "Ġmechanic": 4998,
      "Ġhist": 4999,
      "Ġsandcast": 5000,
      "10": 5001,
      "Ġletting": 5002,
      "Ġsprayed": 5003,
      "Will": 5004,
      "Ġlaught": 5005,
      "ngth": 5006,
      "Ġpositive": 5007,
      "Ġlaughter": 5008,
      "Ġclapping": 5009,
      "prime": 5010,
      "Ġfeelings": 5011,
      "Ġsticky": 5012,
      "icky": 5013,
      "Ġimage": 5014,
      "Alice": 5015,
      "Ġwre": 5016,
      "Ġsplashing": 5017,
      "iest": 5018,
      "pted": 5019,
      "ndition": 5020,
      "Ġcastles": 5021,
      "Ġthrows": 5022,
      "Ġkneel": 5023,
      "Ġuniverse": 5024,
      "words": 5025,
      "Ġnavy": 5026,
      "ophie": 5027,
      "igi": 5028,
      "Ġoperation": 5029,
      "Ġflies": 5030,
      "Ġbreaks": 5031,
      "ĠGiven": 5032,
      "Ġsim": 5033,
      "ĠDave": 5034,
      "ĠSm": 5035,
      "Ġunhappy": 5036,
      "Ġgreedy": 5037,
      "'.": 5038,
      "arlie": 5039,
      "Ġincrease": 5040,
      "gative": 5041,
      "Ġerror": 5042,
      "rop": 5043,
      "Ġener": 5044,
      "Ġdiscuss": 5045,
      "alcul": 5046,
      "Ġdare": 5047,
      "ially": 5048,
      "][": 5049,
      "dict": 5050,
      "Ġdat": 5051,
      "Ġalive": 5052,
      "Ġbend": 5053,
      "ĠY": 5054,
      "urther": 5055,
      "Ġdemand": 5056,
      "Ġstrength": 5057,
      "Ġsport": 5058,
      "Ġcourage": 5059,
      "Ġvac": 5060,
      "Ġinvit": 5061,
      "Ready": 5062,
      "Sh": 5063,
      "Ġimplementation": 5064,
      "Lisa": 5065,
      "oves": 5066,
      "echo": 5067,
      "itle": 5068,
      "Ġtrusted": 5069,
      "Mark": 5070,
      "Ġkeys": 5071,
      "//": 5072,
      "Ġingredients": 5073,
      "ans": 5074,
      "Ġgroc": 5075,
      "List": 5076,
      "Ġsomewhere": 5077,
      "Ġentered": 5078,
      "Ġprune": 5079,
      "Ġexamine": 5080,
      "Ġwreck": 5081,
      "Ġchecked": 5082,
      "bonac": 5083,
      "GE": 5084,
      "Ġelif": 5085,
      "Emma": 5086,
      "bonacci": 5087,
      "ocess": 5088,
      "enry": 5089,
      "Ġnews": 5090,
      "Ġoutput": 5091,
      "Ġeaten": 5092,
      "Buddy": 5093,
      "Ġraining": 5094,
      "heart": 5095,
      "men": 5096,
      "Ar": 5097,
      "ĠHelp": 5098,
      "Ġjogged": 5099,
      "Ġpoison": 5100,
      "Ġrush": 5101,
      "Ġsnugg": 5102,
      "Ġarea": 5103,
      "Ġpirates": 5104,
      "Ġtarget": 5105,
      "Ġscratch": 5106,
      "Ġrespon": 5107,
      "ĠKiki": 5108,
      "Ġdrops": 5109,
      "Ġsigh": 5110,
      "Ġminute": 5111,
      "ploy": 5112,
      "Ann": 5113,
      "Ġflapped": 5114,
      "Ġchirp": 5115,
      "cending": 5116,
      "quence": 5117,
      "Ġsparkled": 5118,
      "Ġsteel": 5119,
      "ĠZoomy": 5120,
      "ĠFl": 5121,
      "Ġbased": 5122,
      "start": 5123,
      "Ġhistory": 5124,
      "Ġpaid": 5125,
      "OU": 5126,
      "Ġbumped": 5127,
      "Ġyawned": 5128,
      "Ġplaced": 5129,
      "Ġscold": 5130,
      "Ġmyself": 5131,
      "Ġuniversity": 5132,
      "Ġtracks": 5133,
      "Ġfollows": 5134,
      "Ġmoves": 5135,
      "Ġshrugged": 5136,
      "Ġcoats": 5137,
      "Ġpunish": 5138,
      "Ġpigs": 5139,
      "Ġnation": 5140,
      "Ġexpect": 5141,
      "ĠJohnny": 5142,
      "Ġtoe": 5143,
      "Ġupstairs": 5144,
      "Ġcrossed": 5145,
      "Ġprayed": 5146,
      "Ġwarn": 5147,
      "Ġdanger": 5148,
      "Ġsqueezed": 5149,
      "Ġimpressed": 5150,
      "Ġflood": 5151,
      "Ġbouncing": 5152,
      "ĠExample": 5153,
      "Ġrabbits": 5154,
      "Ġbadly": 5155,
      "Ġleather": 5156,
      "----": 5157,
      "Ġtide": 5158,
      "ĠTed": 5159,
      "valid": 5160,
      "ĠCon": 5161,
      "Ġtype": 5162,
      "reat": 5163,
      "Ġbuzz": 5164,
      "oco": 5165,
      "Ġbears": 5166,
      "Ġclaws": 5167,
      "orses": 5168,
      "Ġsweetheart": 5169,
      "Ġwriting": 5170,
      "ythm": 5171,
      "Ġheat": 5172,
      "Ġexplored": 5173,
      "Ġequal": 5174,
      "Ġeasily": 5175,
      "Ġcounter": 5176,
      "Ġobserve": 5177,
      "Ġvacation": 5178,
      "from": 5179,
      "Ġstrawberries": 5180,
      "Ġdire": 5181,
      "Ġgreater": 5182,
      "Ġsettle": 5183,
      "Ġhorses": 5184,
      "Ġsandcastle": 5185,
      "Ġyawn": 5186,
      "ĠLilly": 5187,
      "ĠLola": 5188,
      "mare": 5189,
      "Ġoffer": 5190,
      "Le": 5191,
      "ĠMummy": 5192,
      "ĠSque": 5193,
      "ĠUnder": 5194,
      "pecially": 5195,
      "Ġbelieved": 5196,
      "Daddy": 5197,
      "ĠHoppy": 5198,
      "Ġblink": 5199,
      "Ġcondition": 5200,
      "ipment": 5201,
      "Ġprop": 5202,
      "ĠMandy": 5203,
      "Welcome": 5204,
      "ĠIm": 5205,
      "();": 5206,
      "Ġ[[": 5207,
      "():": 5208,
      "Ġcheek": 5209,
      "Ġhighest": 5210,
      "Ġenergy": 5211,
      "Ġstyle": 5212,
      "Ġspots": 5213,
      "Ġsnowball": 5214,
      "With": 5215,
      "ĠSee": 5216,
      "ĠSk": 5217,
      "ĠBee": 5218,
      "otten": 5219,
      "Ġblueberry": 5220,
      "nes": 5221,
      "Before": 5222,
      "class": 5223,
      "etch": 5224,
      "Ġocc": 5225,
      "Ġequipment": 5226,
      "Ġinclud": 5227,
      "reeze": 5228,
      "ĠGigi": 5229,
      "Ġrhythm": 5230,
      "Ġdaisy": 5231,
      "Ġwaving": 5232,
      "Ġsafari": 5233,
      "Ġappro": 5234,
      "Ġespecially": 5235,
      "Ġvroom": 5236,
      "Ġsoak": 5237,
      "Ġmassage": 5238,
      "Ġignored": 5239,
      "Ġmaximum": 5240,
      "Ġstomach": 5241,
      "Ġbaking": 5242,
      "Ġstair": 5243,
      "Ġexper": 5244,
      "Ġnightmare": 5245,
      "Ġchecks": 5246,
      "Ġinsisted": 5247,
      "Ġblowing": 5248,
      "Ġtwisted": 5249,
      "Ġseason": 5250,
      "Ġfurther": 5251,
      "td": 5252,
      "Ġbeauty": 5253,
      "Ġpalm": 5254,
      "ĠEach": 5255,
      "Ġscoop": 5256,
      "Ġbother": 5257,
      "ups": 5258,
      "Ġprunes": 5259,
      "Ġbrain": 5260,
      "Ġzero": 5261,
      "noon": 5262,
      "Ġuses": 5263,
      "RE": 5264,
      "Ġhills": 5265,
      "Ġpoppy": 5266,
      "Ġafternoon": 5267,
      "Ġsolution": 5268,
      "ĠFox": 5269,
      "Ġduring": 5270,
      "Ġsir": 5271,
      "Ġappear": 5272,
      "Ġburned": 5273,
      "Ġearthqu": 5274,
      "ĠSnowy": 5275,
      "Ġnobody": 5276,
      "xygen": 5277,
      "apa": 5278,
      "Ġsew": 5279,
      "Ġtug": 5280,
      "Ġhearts": 5281,
      "Ġintroduce": 5282,
      "ĠĠĠĠĠĠĠĠĠĠĠĠĠĠĠĠĠĠĠ": 5283,
      "isty": 5284,
      "Ġpastel": 5285,
      "po": 5286,
      "Ġlear": 5287,
      "Ġlearnt": 5288,
      "ednes": 5289,
      "Ġlemonade": 5290,
      "ednesday": 5291,
      "Ġgenerate": 5292,
      "Jenny": 5293,
      "illie": 5294,
      "eve": 5295,
      "Ġtremble": 5296,
      "Ġgaz": 5297,
      "Fred": 5298,
      "DI": 5299,
      "Ġbackpack": 5300,
      "Ġmailman": 5301,
      "Ġpossible": 5302,
      "Ġwhistled": 5303,
      "Ġpedal": 5304,
      "sing": 5305,
      "Ġtour": 5306,
      "Ġcolumn": 5307,
      "emember": 5308,
      "Ġtraffic": 5309,
      "Ġshopkeeper": 5310,
      "Ġlower": 5311,
      "Ġyucky": 5312,
      "Ġfloating": 5313,
      "Ġcrash": 5314,
      "Ġlemons": 5315,
      "::": 5316,
      "perature": 5317,
      "Ġ</": 5318,
      "Ġbeans": 5319,
      "uby": 5320,
      "Ġfloated": 5321,
      "mod": 5322,
      "Ġpermit": 5323,
      "Ġcreated": 5324,
      "Ġmultip": 5325,
      "Ġdivis": 5326,
      "alue": 5327,
      "chie": 5328,
      "Ġearthquake": 5329,
      "Ġplanned": 5330,
      "unday": 5331,
      "AC": 5332,
      "alculate": 5333,
      "Ġracing": 5334,
      "Ġluck": 5335,
      "Ġslap": 5336,
      "ĠLucky": 5337,
      "Ġwisdom": 5338,
      "laimed": 5339,
      "Ġwags": 5340,
      "ĠFinny": 5341,
      "Not": 5342,
      "rand": 5343,
      "ĠGeorge": 5344,
      "house": 5345,
      "ĠIs": 5346,
      "Ġrecognize": 5347,
      "ecture": 5348,
      "Ġimagination": 5349,
      "Ġmama": 5350,
      "Ġpitch": 5351,
      "ĠHave": 5352,
      "KU": 5353,
      "ĠElly": 5354,
      "Ġ>=": 5355,
      "Ġapart": 5356,
      "Ġsorts": 5357,
      "cont": 5358,
      "gie": 5359,
      "Ġdifference": 5360,
      "Ġexclaimed": 5361,
      "Ġburied": 5362,
      "sure": 5363,
      "Ġpublic": 5364,
      "ĠAn": 5365,
      "Ġleast": 5366,
      "Ġsizes": 5367,
      "Ġiter": 5368,
      "Ġcandles": 5369,
      "ĠAlex": 5370,
      "ĠWednesday": 5371,
      "Mimi": 5372,
      "sort": 5373,
      "Ġmarbles": 5374,
      "riage": 5375,
      "anges": 5376,
      "ĠSunday": 5377,
      "Ġintersection": 5378,
      "`.": 5379,
      "Ġcub": 5380,
      "Ġmanage": 5381,
      "Ġgrowled": 5382,
      "Ġclosely": 5383,
      "ah": 5384,
      "Ġteaching": 5385,
      "Ġfolded": 5386,
      "Ġhopes": 5387,
      "Pr": 5388,
      "ĠDog": 5389,
      "ĠFinn": 5390,
      "bin": 5391,
      "Ġzigzag": 5392,
      "ĠWho": 5393,
      "Woof": 5394,
      "ĠPaul": 5395,
      "ĠOwl": 5396,
      "Ġdigg": 5397,
      "Ġpulling": 5398,
      "Ġbouncy": 5399,
      "Ġ;": 5400,
      "ifi": 5401,
      "Ġwinning": 5402,
      "([": 5403,
      "Ġdigging": 5404,
      "Ġchewed": 5405,
      "Ġbalan": 5406,
      "Ġnested": 5407,
      "Ġmodified": 5408,
      "look": 5409,
      "ĠIterate": 5410,
      "Ġitems": 5411,
      "Ġdresses": 5412,
      "Ġgrocery": 5413,
      "Ġstrike": 5414,
      "LO": 5415,
      "Ġwithin": 5416,
      "Ġduplic": 5417,
      "Ġproduct": 5418,
      "Ġfash": 5419,
      "hood": 5420,
      "ĠSu": 5421,
      "ĠCoco": 5422,
      "Ġpuzzles": 5423,
      "Ġshouting": 5424,
      "orted": 5425,
      "Ġtwisty": 5426,
      "ne": 5427,
      "Ġpeanuts": 5428,
      "Ġreaches": 5429,
      "Ġscrat": 5430,
      "Ġrecurs": 5431,
      "Ġcontains": 5432,
      "div": 5433,
      "AGE": 5434,
      "Ġwhisper": 5435,
      "Ġchores": 5436,
      "Ġattention": 5437,
      "sub": 5438,
      "ĠFroggy": 5439,
      "Ġcape": 5440,
      "ĠWhenever": 5441,
      "Ġdeeper": 5442,
      "Ġsnail": 5443,
      "Ġfashion": 5444,
      "Ġacorns": 5445,
      "Ġworms": 5446,
      "Ġnode": 5447,
      "Ġblood": 5448,
      "Ġurge": 5449,
      "Ġplanted": 5450,
      "fi": 5451,
      "ux": 5452,
      "Ġvisited": 5453,
      "itialize": 5454,
      "ĠTilly": 5455,
      "ĠSqueaky": 5456,
      "Ġquite": 5457,
      "ĠGrace": 5458,
      "cur": 5459,
      "Ġlandsc": 5460,
      "Ġ!=": 5461,
      "Ġagre": 5462,
      "Ġwarning": 5463,
      "Ġsolved": 5464,
      "mm": 5465,
      "oral": 5466,
      "ĠDanny": 5467,
      "ories": 5468,
      "Sur": 5469,
      "abel": 5470,
      "Ġ20": 5471,
      "lete": 5472,
      "Ġunderground": 5473,
      "Ġcreatures": 5474,
      "ML": 5475,
      "Ġnegative": 5476,
      "uesday": 5477,
      "Ġstruggle": 5478,
      "Ġ]": 5479,
      "Ġwelcom": 5480,
      "Everyone": 5481,
      "Ġmer": 5482,
      "ĠMittens": 5483,
      "ips": 5484,
      "Ġsince": 5485,
      "Ġrelease": 5486,
      "Ġlecture": 5487,
      "do": 5488,
      "tr": 5489,
      "Ġwashing": 5490,
      "Ġhurting": 5491,
      "Ġgifts": 5492,
      "Ġvanished": 5493,
      "char": 5494,
      "Ġdressed": 5495,
      "Ġinvitation": 5496,
      "ĠSharing": 5497,
      "Ġlicks": 5498,
      "Ġlists": 5499,
      "Ġsnuggled": 5500,
      "Ġspaces": 5501,
      "Ġble": 5502,
      "ical": 5503,
      "Ġmarriage": 5504,
      "Ġquietly": 5505,
      "DIR": 5506,
      "reci": 5507,
      "Ġjazz": 5508,
      "bing": 5509,
      "Ġelephants": 5510,
      "Ġbreathe": 5511,
      "Ġacce": 5512,
      "Ġneighbour": 5513,
      "plement": 5514,
      "sole": 5515,
      "Ġprinted": 5516,
      "Ġfiref": 5517,
      "Ġlandscape": 5518,
      "Ġspecific": 5519,
      "Ġdried": 5520,
      "Ġfallen": 5521,
      "Ġvel": 5522,
      "ĠâĢĵ": 5523,
      "plit": 5524,
      "vers": 5525,
      "Ġquery": 5526,
      "ctions": 5527,
      "Ġsprink": 5528,
      "ĠGood": 5529,
      "Ġbang": 5530,
      "Ġmice": 5531,
      "ury": 5532,
      "Ġappreci": 5533,
      "ĠSophie": 5534,
      "Ġpaused": 5535,
      "ĠJoey": 5536,
      "ĠRock": 5537,
      "Ġeagerly": 5538,
      "Ġsailing": 5539,
      "Ġworth": 5540,
      "Ġoh": 5541,
      "Ġsimple": 5542,
      "CT": 5543,
      "ĠBounce": 5544,
      "ĠPenny": 5545,
      "looking": 5546,
      "ites": 5547,
      "service": 5548,
      "Ġplays": 5549,
      "Ġoxygen": 5550,
      "Ġaddition": 5551,
      "Because": 5552,
      "Ġusage": 5553,
      "Bl": 5554,
      "Ġshined": 5555,
      "Ġprocess": 5556,
      "ities": 5557,
      "NT": 5558,
      "test": 5559,
      "ĠX": 5560,
      "Ġraised": 5561,
      "ippy": 5562,
      "wise": 5563,
      "ĠZara": 5564,
      "medi": 5565,
      "ĠTuesday": 5566,
      "Ġideas": 5567,
      "Ġkisses": 5568,
      "Ġbricks": 5569,
      "These": 5570,
      "cat": 5571,
      "Bella": 5572,
      "inter": 5573,
      "Ġcomm": 5574,
      "Ġheel": 5575,
      "Ġwob": 5576,
      "Ġfireworks": 5577,
      "Ġ;;": 5578,
      "Today": 5579,
      "Ġaccepted": 5580,
      "ĠRos": 5581,
      "iggly": 5582,
      "Ġseeing": 5583,
      "ucked": 5584,
      "ĠPip": 5585,
      "max": 5586,
      "Ġvow": 5587,
      "Ġmain": 5588,
      "Ġflap": 5589,
      "ystem": 5590,
      "check": 5591,
      "Ġ__": 5592,
      "unately": 5593,
      "Ġmentioned": 5594,
      "Ġreceive": 5595,
      "Ġmuddy": 5596,
      "Ġtomatoes": 5597,
      "Ġmarried": 5598,
      "=$": 5599,
      "ĠList": 5600,
      "ĠCharlie": 5601,
      "Ġskills": 5602,
      "Name": 5603,
      "ĠAnnie": 5604,
      "000": 5605,
      "Ġboo": 5606,
      "Ġwagging": 5607,
      "Remy": 5608,
      "Ġcollection": 5609,
      "BAC": 5610,
      "Ġwandered": 5611,
      "Ġgloves": 5612,
      "Ġcaptain": 5613,
      "Ġflat": 5614,
      "raged": 5615,
      "Ġeasier": 5616,
      "Ġpillows": 5617,
      "html": 5618,
      "ĠPinky": 5619,
      "Ġpetals": 5620,
      "ĠEverything": 5621,
      "ĠSmith": 5622,
      "++)": 5623,
      "Ġwatered": 5624,
      "!/": 5625,
      "Ġrecei": 5626,
      "ĠEventually": 5627,
      "Ġbrings": 5628,
      "Ġprinter": 5629,
      "tra": 5630,
      "KUP": 5631,
      "BACKUP": 5632,
      "Ġpinched": 5633,
      "Script": 5634,
      "Ġdestroyed": 5635,
      "Ġcakes": 5636,
      "Ġvanish": 5637,
      "Ġbeha": 5638,
      "Ġtreasures": 5639,
      "ĠBluey": 5640,
      "Ġsigns": 5641,
      "Ġworse": 5642,
      "Ġhadn": 5643,
      "Ġhits": 5644,
      "Ġcatching": 5645,
      "ĠFifi": 5646,
      "Ġoranges": 5647,
      "Ġemail": 5648,
      "Surpr": 5649,
      "Ġvelvet": 5650,
      "Ġachie": 5651,
      "Ġscattered": 5652,
      "Ġdisagree": 5653,
      "Ġmemories": 5654,
      "ĠImplement": 5655,
      "ĠPapa": 5656,
      "Ġseats": 5657,
      "ising": 5658,
      "Ġbones": 5659,
      "icing": 5660,
      "Ġcontinue": 5661,
      "#!/": 5662,
      "Ġpears": 5663,
      "Ġhers": 5664,
      "Ġfetch": 5665,
      "Ġscolded": 5666,
      "aries": 5667,
      "Ġ<<": 5668,
      "Ġsliding": 5669,
      "Ġsits": 5670,
      "Ġsentence": 5671,
      "Ġsnapped": 5672,
      "Ġfields": 5673,
      "Ġgazed": 5674,
      "omed": 5675,
      "Ġnone": 5676,
      "Ġrang": 5677,
      "nter": 5678,
      "min": 5679,
      "Ġshot": 5680,
      "Ġzipped": 5681,
      "Ġpets": 5682,
      "ĠMaria": 5683,
      "ĠCom": 5684,
      "Ġpies": 5685,
      "ĠGod": 5686,
      "Ġpatterns": 5687,
      "but": 5688,
      "Ġfro": 5689,
      "mediately": 5690,
      "Element": 5691,
      "ĠGen": 5692,
      "lean": 5693,
      "ĠBy": 5694,
      "RO": 5695,
      "Ġunderstanding": 5696,
      "Ġclimbs": 5697,
      "Ġcutting": 5698,
      "terday": 5699,
      "Ġmarks": 5700,
      "Ġtwirled": 5701,
      "ys": 5702,
      "bash": 5703,
      "Ġforgotten": 5704,
      "Ġblankets": 5705,
      "Ġbaked": 5706,
      "Ġgolden": 5707,
      "Ġlux": 5708,
      "ccer": 5709,
      "Ġass": 5710,
      "Yum": 5711,
      "Ġcollected": 5712,
      "ining": 5713,
      "Ġcrow": 5714,
      "lst": 5715,
      "Ġstate": 5716,
      "Ġkitty": 5717,
      "Ġolive": 5718,
      "aggie": 5719,
      "aped": 5720,
      "hello": 5721,
      "Ġnowhere": 5722,
      "ression": 5723,
      "Ġrequirements": 5724,
      "ĠHarry": 5725,
      "Ġdoc": 5726,
      "Ġsoccer": 5727,
      "Ġstraight": 5728,
      "Ġdared": 5729,
      "ĠHenry": 5730,
      "Ġ&": 5731,
      "Ġbites": 5732,
      "Ġaddress": 5733,
      "anny": 5734,
      "ĠQu": 5735,
      "Ġcelebrated": 5736,
      "choo": 5737,
      "Ġwinner": 5738,
      "ĠSpark": 5739,
      "Ġencourage": 5740,
      "Ġtrave": 5741,
      "ĠJavaScript": 5742,
      "function": 5743,
      "sters": 5744,
      "Ġunlocked": 5745,
      "ackup": 5746,
      "Ġoccur": 5747,
      "ls": 5748,
      "TML": 5749,
      "=$(": 5750,
      "Ġbleed": 5751,
      "Ġexcept": 5752,
      "osed": 5753,
      "Ġwelcomed": 5754,
      ")):": 5755,
      "ĠRo": 5756,
      "Ġspoons": 5757,
      "Ġbash": 5758,
      "Ġours": 5759,
      "Ġemer": 5760,
      "Ġstitch": 5761,
      "Ġid": 5762,
      "assword": 5763,
      "Ġisn": 5764,
      "izing": 5765,
      "Ġjogging": 5766,
      "Surprise": 5767,
      "ission": 5768,
      "next": 5769,
      "Ġconvert": 5770,
      "Ġreceived": 5771,
      "Ġtong": 5772,
      "ales": 5773,
      "eep": 5774,
      "Ġwid": 5775,
      "Ġguessed": 5776,
      "ists": 5777,
      "Ġ||": 5778,
      "Ok": 5779,
      "px": 5780,
      "Ġattached": 5781,
      "ĠSystem": 5782,
      "Ġsmallest": 5783,
      "Moral": 5784,
      "ĠTony": 5785,
      "lives": 5786,
      "Ġcons": 5787,
      "Ġweeping": 5788,
      "Ġ]];": 5789,
      "Ġmarching": 5790,
      "Ġluxury": 5791,
      "Ġfamil": 5792,
      "Ġvict": 5793,
      "Ġselling": 5794,
      "Ġshouldn": 5795,
      "ĠRuby": 5796,
      "Ġstuffed": 5797,
      "CH": 5798,
      "Goodbye": 5799,
      "Out": 5800,
      "gr": 5801,
      "ĠKing": 5802,
      "True": 5803,
      "left": 5804,
      "Ġurged": 5805,
      "Ġbowed": 5806,
      "Ġkingdom": 5807,
      "ĠFor": 5808,
      "une": 5809,
      "Ġbye": 5810,
      "Un": 5811,
      "aded": 5812,
      "wh": 5813,
      "Ġolives": 5814,
      "find": 5815,
      "Ġacted": 5816,
      "Ġkicking": 5817,
      "rr": 5818,
      "\"]": 5819,
      "ĠWiggly": 5820,
      "Ġpunished": 5821,
      "ĠLiz": 5822,
      "jo": 5823,
      "ĠBaby": 5824,
      "ĠThese": 5825,
      "Ġfilter": 5826,
      "Ġmeasured": 5827,
      "Ġtoes": 5828,
      "Ġmuscles": 5829,
      "Ġcras": 5830,
      "va": 5831,
      "Ġgrant": 5832,
      "Ġjewels": 5833,
      "ĠRosie": 5834,
      "Ġlines": 5835,
      "fortunately": 5836,
      "ino": 5837,
      "Ġbeds": 5838,
      "IM": 5839,
      "Ġ:": 5840,
      "Ġfunctions": 5841,
      "...\"": 5842,
      "Ġmelted": 5843,
      "'ve": 5844,
      "Ġworks": 5845,
      "ĠHowever": 5846,
      "`,": 5847,
      "SE": 5848,
      "Ġgrin": 5849,
      "Ġtrapped": 5850,
      "Ġ12": 5851,
      "ision": 5852,
      "ĠBefore": 5853,
      "Ġtore": 5854,
      "iers": 5855,
      "Ġlongest": 5856,
      "omeday": 5857,
      "uation": 5858,
      "Ġlined": 5859,
      "Ġscript": 5860,
      "Ġwaist": 5861,
      "Ġencouraged": 5862,
      "amb": 5863,
      "Ġmeow": 5864,
      "uples": 5865,
      "ĠSandy": 5866,
      "Ġwest": 5867,
      "umes": 5868,
      "Ġwaffles": 5869,
      "zing": 5870,
      "Ġsurround": 5871,
      "rences": 5872,
      "ĠWally": 5873,
      "Ġbrus": 5874,
      "ien": 5875,
      "ĠInitialize": 5876,
      "kins": 5877,
      "mat": 5878,
      "Or": 5879,
      "Ġmouths": 5880,
      "Meow": 5881,
      "OR": 5882,
      "Ġmatrix": 5883,
      "ĠKate": 5884,
      "Ġbreaking": 5885,
      "Ġpeaches": 5886,
      "Ġbreeze": 5887,
      "ND": 5888,
      "bug": 5889,
      "title": 5890,
      "ishing": 5891,
      "Ġprovided": 5892,
      "Ġrepeated": 5893,
      "Ġimmediately": 5894,
      "Ġsoldiers": 5895,
      "Ġpotatoes": 5896,
      "Ġsomeday": 5897,
      "Ġpassword": 5898,
      "Ġlst": 5899,
      "Ġsix": 5900,
      "Ġpupil": 5901,
      "ĠMillie": 5902,
      "quency": 5903,
      "Ġdrinks": 5904,
      "Ġpresents": 5905,
      "Ġexperience": 5906,
      "ĠTuna": 5907,
      "Ġshed": 5908,
      "size": 5909,
      "ĠChe": 5910,
      "ĠGr": 5911,
      "Cl": 5912,
      "12": 5913,
      "bie": 5914,
      "Ġpermission": 5915,
      "Ġskipping": 5916,
      "ĠGenerate": 5917,
      "Ġvoices": 5918,
      "Ġdrinking": 5919,
      "Ġparam": 5920,
      "ĠUncle": 5921,
      "Ġformat": 5922,
      "\");": 5923,
      "Ġgener": 5924,
      "Ġvictory": 5925,
      "Ġrelaxed": 5926,
      "Ġroots": 5927,
      "Ġloc": 5928,
      "items": 5929,
      "Time": 5930,
      "ids": 5931,
      "Ġpaints": 5932,
      "oe": 5933,
      "Ġhurried": 5934,
      "Ġtwink": 5935,
      "Ġtongue": 5936,
      "Ġcostumes": 5937,
      "Ġdivisible": 5938,
      "Ġbak": 5939,
      "Ġknown": 5940,
      "Ġbegged": 5941,
      "Ġteasing": 5942,
      "Ġwhistling": 5943,
      "Ġrepresenting": 5944,
      "Ġsip": 5945,
      "Ġdisagreed": 5946,
      "Ġdate": 5947,
      "ĠMay": 5948,
      "Ġofficer": 5949,
      "Ġpearl": 5950,
      "Ġstro": 5951,
      "Bu": 5952,
      "Leo": 5953,
      "Ġemploy": 5954,
      "Ġreversed": 5955,
      "Ġfishing": 5956,
      "ility": 5957,
      "Ġopin": 5958,
      "init": 5959,
      "Ġpra": 5960,
      "!\",": 5961,
      "Ġordered": 5962,
      "ĠBoo": 5963,
      "Ġwatches": 5964,
      "split": 5965,
      "Ġringing": 5966,
      "Ġsetting": 5967,
      "ĠTr": 5968,
      "otal": 5969,
      "Ġtonight": 5970,
      "walk": 5971,
      "Ġlets": 5972,
      "Ġperfectly": 5973,
      "Ġphot": 5974,
      "Blue": 5975,
      "color": 5976,
      "]:": 5977,
      "Ġshadows": 5978,
      "allen": 5979,
      "Ġherbs": 5980,
      "Ġwarmth": 5981,
      "ĠFirst": 5982,
      "Jen": 5983,
      "ĠIts": 5984,
      "Ġ['": 5985,
      "avid": 5986,
      "Ġremained": 5987,
      "Ġsequence": 5988,
      "ERV": 5989,
      "ety": 5990,
      "Ġstatic": 5991,
      "Ha": 5992,
      "ĠBo": 5993,
      "ĠHop": 5994,
      "Bobby": 5995,
      "utter": 5996,
      "Ġsneak": 5997,
      "**": 5998,
      "stance": 5999,
      "ĠFollow": 6000,
      "Ġlips": 6001,
      "Ġkneeled": 6002,
      "Ġago": 6003,
      "Ġdocument": 6004,
      "Ġcontest": 6005,
      ".'": 6006,
      "nums": 6007,
      "QL": 6008,
      "Ġodd": 6009,
      "Ġspike": 6010,
      "uing": 6011,
      "common": 6012,
      "Ġcolours": 6013,
      "Ġcartoons": 6014,
      "Ġrecursive": 6015,
      "Ġremote": 6016,
      "Ġsidewalk": 6017,
      "Ġeast": 6018,
      "Ġstamps": 6019,
      "ĠBoth": 6020,
      "imit": 6021,
      "ĠToto": 6022,
      "Ġheaded": 6023,
      "Ġeff": 6024,
      "Ġfalse": 6025,
      "Ġchallen": 6026,
      "Ġfed": 6027,
      "ĠCalculate": 6028,
      "Ġsupposed": 6029,
      "Ġprec": 6030,
      "ishes": 6031,
      "lay": 6032,
      "Ġlick": 6033,
      "Ġcrunch": 6034,
      "Ġmixing": 6035,
      "Ġemergen": 6036,
      "Array": 6037,
      "ĠJul": 6038,
      "Ġtemperature": 6039,
      "Enter": 6040,
      "igate": 6041,
      "Ġdecorations": 6042,
      "Ġstd": 6043,
      "Ġmelting": 6044,
      "Mandy": 6045,
      "Ġamount": 6046,
      "ibonacci": 6047,
      "()`": 6048,
      "AL": 6049,
      "Ġrested": 6050,
      "[]": 6051,
      "Ġlily": 6052,
      "ĠSuzy": 6053,
      "tuple": 6054,
      "Ġlaid": 6055,
      "Ġcones": 6056,
      "Ġsucceeded": 6057,
      "tim": 6058,
      "ps": 6059,
      "isf": 6060,
      "Ġwiggle": 6061,
      "Number": 6062,
      "Ġremoved": 6063,
      "cted": 6064,
      "Ġshock": 6065,
      "ĠSlow": 6066,
      "model": 6067,
      "Ġkeeps": 6068,
      "Ġstudied": 6069,
      "Ġcorrect": 6070,
      "Ġmatched": 6071,
      "Ġinvest": 6072,
      "Ġstrangers": 6073,
      "ĠRocky": 6074,
      "ĠUse": 6075,
      "point": 6076,
      "Really": 6077,
      "Ġtwigs": 6078,
      "Ġtheirs": 6079,
      "Ġensure": 6080,
      "Ġgirls": 6081,
      "Ġ.": 6082,
      "Ġlands": 6083,
      "Ġscreams": 6084,
      "sol": 6085,
      "abase": 6086,
      "Ġmoments": 6087,
      "Ġ=>": 6088,
      "Ġbrid": 6089,
      "Ġstirring": 6090,
      "Andy": 6091,
      "Ġalright": 6092,
      "Ġstealing": 6093,
      "random": 6094,
      "Ġburning": 6095,
      "Ġrul": 6096,
      "ern": 6097,
      "Ġbravely": 6098,
      "rib": 6099,
      ".\")": 6100,
      "Ġmister": 6101,
      "Bird": 6102,
      "Ġvet": 6103,
      "ĠSky": 6104,
      "Ġsatisf": 6105,
      "Ġresting": 6106,
      "Ġscratched": 6107,
      "Ġplaytime": 6108,
      "Ġposition": 6109,
      "!'": 6110,
      "Ġripped": 6111,
      "Ġtucked": 6112,
      "Ġpadd": 6113,
      "ĠRe": 6114,
      "Ġtexture": 6115,
      "ĠChicky": 6116,
      "ĠClara": 6117,
      "Peter": 6118,
      "Ġbridges": 6119,
      "Ġmonth": 6120,
      "please": 6121,
      "Ġupd": 6122,
      "Ġwaits": 6123,
      "Sammy": 6124,
      ":\",": 6125,
      "...": 6126,
      "ĠString": 6127,
      "Ġnails": 6128,
      "abies": 6129,
      "Ġchef": 6130,
      "ĠHTML": 6131,
      "Ġsettled": 6132,
      "Ġsele": 6133,
      "Happy": 6134,
      "ĠGet": 6135,
      "rome": 6136,
      "ĉĉ": 6137,
      "Ġdot": 6138,
      "Ġdet": 6139,
      "Ġturning": 6140,
      "Boo": 6141,
      "mbling": 6142,
      "Ġ->": 6143,
      "Ġsafety": 6144,
      "ding": 6145,
      "uture": 6146,
      "LECT": 6147,
      "Ġwink": 6148,
      "Input": 6149,
      "Ġtrembling": 6150,
      "Ġupper": 6151,
      "Ġanswers": 6152,
      "antly": 6153,
      "Ġimportance": 6154,
      "Ġescaped": 6155,
      "atie": 6156,
      "ĠJames": 6157,
      "ĠSomeone": 6158,
      "Ġmuffins": 6159,
      "Ġpiles": 6160,
      "Ġinvestigate": 6161,
      "Ġsore": 6162,
      "Ġbroom": 6163,
      "Ġladybug": 6164,
      "ĠPepper": 6165,
      "ROM": 6166,
      "Ġthreat": 6167,
      "load": 6168,
      "Ġappreciate": 6169,
      "ICE": 6170,
      "Ġadmir": 6171,
      "Ġemergency": 6172,
      "Ġtwin": 6173,
      "Ġbabies": 6174,
      "Ġslice": 6175,
      "Ġsilence": 6176,
      "Tw": 6177,
      "Ġbinary": 6178,
      "Ġsisters": 6179,
      "Ġiterate": 6180,
      "AR": 6181,
      "Ġdads": 6182,
      "Ġrespons": 6183,
      "sit": 6184,
      "Ġpupp": 6185,
      "Ġserved": 6186,
      "OUR": 6187,
      "Ġmultiple": 6188,
      "Ġchewing": 6189,
      "Ġslapped": 6190,
      "Ġwiz": 6191,
      "Ġshopping": 6192,
      "flo": 6193,
      "orld": 6194,
      "Would": 6195,
      "indrome": 6196,
      "Ġsets": 6197,
      "ĠDr": 6198,
      "Ġhen": 6199,
      "Ġobjects": 6200,
      "Ġspecified": 6201,
      "Ġoperator": 6202,
      "Ġ[\"": 6203,
      "ĠMe": 6204,
      "Ġ{}": 6205,
      "ops": 6206,
      "Ġtouching": 6207,
      "Ġsparkle": 6208,
      "Ġactiv": 6209,
      "igail": 6210,
      "ĠLater": 6211,
      "Ġfuture": 6212,
      "Ġsoared": 6213,
      "Ġsings": 6214,
      "Ġmatching": 6215,
      "uments": 6216,
      "First": 6217,
      "Ella": 6218,
      "achel": 6219,
      "Ġrecorded": 6220,
      "anna": 6221,
      "Momo": 6222,
      "ĠDino": 6223,
      "Ġmovies": 6224,
      "Cat": 6225,
      "SERV": 6226,
      "ĠYes": 6227,
      "verse": 6228,
      "Ġamazement": 6229,
      "Ġlowercase": 6230,
      "Ġrevealed": 6231,
      "Ġhesit": 6232,
      "Ġconn": 6233,
      "Ġ--": 6234,
      "Ġpad": 6235,
      "Ġtim": 6236,
      "else": 6237,
      "ped": 6238,
      "Ġsoaked": 6239,
      "email": 6240,
      "stat": 6241,
      "caten": 6242,
      "Ġcho": 6243,
      "Ġdescending": 6244,
      "Ġfoods": 6245,
      "Ġsides": 6246,
      "Prime": 6247,
      "eed": 6248,
      "Ġdinosaurs": 6249,
      "Ġrides": 6250,
      "Ġdock": 6251,
      "Ġadding": 6252,
      "Invalid": 6253,
      "ĠDes": 6254,
      "Ġinch": 6255,
      "user": 6256,
      "Ġtickle": 6257,
      "Ġtrips": 6258,
      "Ġhi": 6259,
      "Ġrows": 6260,
      "Ġspaceship": 6261,
      "Ġdep": 6262,
      "ĠZigzag": 6263,
      "Ġdiv": 6264,
      "\";": 6265,
      "nders": 6266,
      "Ġ15": 6267,
      "Ġrele": 6268,
      "Ġwizard": 6269,
      "ha": 6270,
      "Ġheight": 6271,
      "incl": 6272,
      "ĠNot": 6273,
      "Ġglowed": 6274,
      "Ġtrans": 6275,
      "ĠFrog": 6276,
      "ored": 6277,
      "Mmm": 6278,
      "ouble": 6279,
      "Ġadditional": 6280,
      "Ġstudying": 6281,
      "Fr": 6282,
      "Ġquack": 6283,
      "Ġwooden": 6284,
      "Ġbeamed": 6285,
      "fficient": 6286,
      "fail": 6287,
      "Ġcurled": 6288,
      "Ġhated": 6289,
      "ection": 6290,
      "Emily": 6291,
      "Ġworker": 6292,
      "Ġeats": 6293,
      "Ġexpected": 6294,
      "ĠBug": 6295,
      "Ġcrawling": 6296,
      "Ġresults": 6297,
      "ĠEn": 6298,
      "Ġnon": 6299,
      "Ġflav": 6300,
      "Ġbrushes": 6301,
      "Eventually": 6302,
      "Ġthird": 6303,
      "Ġpraised": 6304,
      "Ġfirefight": 6305,
      "Ġbringing": 6306,
      "Ġmittens": 6307,
      "att": 6308,
      "embers": 6309,
      "ĠSomething": 6310,
      "SERVICE": 6311,
      "node": 6312,
      "Ġgust": 6313,
      "Ġloops": 6314,
      "LOG": 6315,
      "Ġruler": 6316,
      "eters": 6317,
      "Ġ&&": 6318,
      "Ġdownstairs": 6319,
      "OURCE": 6320,
      "SOURCE": 6321,
      "Ġcases": 6322,
      "Ġshooting": 6323,
      "())": 6324,
      "Ġ1000": 6325,
      "actor": 6326,
      "Ġnapping": 6327,
      "Ġtastes": 6328,
      "Ġsprinkles": 6329,
      "Ġcuddled": 6330,
      "plash": 6331,
      "Ġcollecting": 6332,
      "Ġmeasuring": 6333,
      "main": 6334,
      "strings": 6335,
      "Ġalph": 6336,
      "Ġsystem": 6337,
      "####": 6338,
      "Ġfamilies": 6339,
      "Ġproject": 6340,
      "Ġmonsters": 6341,
      "itude": 6342,
      "ĠHappy": 6343,
      "ln": 6344,
      "ods": 6345,
      "ĠStar": 6346,
      "Ġleader": 6347,
      "Ġthrill": 6348,
      "Jake": 6349,
      "__(": 6350,
      "ĠRabbit": 6351,
      "rice": 6352,
      "Ġwhose": 6353,
      "Ġoat": 6354,
      "Ġapproached": 6355,
      "password": 6356,
      "ĠValue": 6357,
      "SAGE": 6358,
      "].": 6359,
      "ĠOnce": 6360,
      "Ġbeat": 6361,
      "Ġperformance": 6362,
      "Ġcrunchy": 6363,
      "ees": 6364,
      "Ġpipefail": 6365,
      "ĠFibonacci": 6366,
      "line": 6367,
      "='": 6368,
      "Ġbleeding": 6369,
      "alid": 6370,
      "Ġremembers": 6371,
      "label": 6372,
      "enter": 6373,
      "uo": 6374,
      "Ġnicer": 6375,
      "ĠMo": 6376,
      "Ġsneaky": 6377,
      "Ġdisturbed": 6378,
      "Ġduplicate": 6379,
      "hind": 6380,
      "Ġcounts": 6381,
      "Ġneighborhood": 6382,
      "ler": 6383,
      "Remember": 6384,
      "Ġmotion": 6385,
      "Ġscaring": 6386,
      "Ġgrey": 6387,
      "Ġtuples": 6388,
      "Ġtickets": 6389,
      "Somet": 6390,
      "ĠHope": 6391,
      "Ġfiremen": 6392,
      "resh": 6393,
      "Ġcopy": 6394,
      "Ġsi": 6395,
      "riends": 6396,
      "Ġnoon": 6397,
      "Ġmethods": 6398,
      "abet": 6399,
      "An": 6400,
      "current": 6401,
      "ĠSqu": 6402,
      "Ġcalculates": 6403,
      "Ġprepared": 6404,
      "Ġapologized": 6405,
      "Ġvowels": 6406,
      "ĠDid": 6407,
      "Ġweighed": 6408,
      "Ġloose": 6409,
      "arch": 6410,
      "println": 6411,
      "Ġcontro": 6412,
      "Ġnaps": 6413,
      "Ġrecognized": 6414,
      "ĠĠĠĠĠĠĠĠĠ": 6415,
      "EST": 6416,
      "euo": 6417,
      "Ġpride": 6418,
      "Ġmodify": 6419,
      "Ġdatabase": 6420,
      "Count": 6421,
      "Ġyouth": 6422,
      "Ġswims": 6423,
      "Ġdraws": 6424,
      "lier": 6425,
      "ĠĠĠĠĠĠĠĠĠĠĠĠĠĠĠĠ": 6426,
      "Ġstudent": 6427,
      "elvet": 6428,
      "Ġgained": 6429,
      "Ġsiren": 6430,
      "Ġ30": 6431,
      "Ġpoking": 6432,
      "Ġphotos": 6433,
      "čĊ": 6434,
      "Ġwonders": 6435,
      "Ġtricked": 6436,
      "Ġcrashed": 6437,
      "Ġwanting": 6438,
      "rs": 6439,
      "Ġscrub": 6440,
      "Ġobe": 6441,
      "Ġopinion": 6442,
      "ays": 6443,
      "Ġzooming": 6444,
      "Ġvoid": 6445,
      "aset": 6446,
      "unnies": 6447,
      "Ġacting": 6448,
      "Ġscooped": 6449,
      "Ġowned": 6450,
      "Ġyelling": 6451,
      "ĠStop": 6452,
      "Ġgrinned": 6453,
      "ĠSlowly": 6454,
      "Ġawe": 6455,
      "Ġdoggy": 6456,
      "Ġpoems": 6457,
      "ĠBeep": 6458,
      "allow": 6459,
      "Ġhappiest": 6460,
      "train": 6461,
      "ogo": 6462,
      "ĠAlways": 6463,
      "Ġsneaked": 6464,
      "Ġachieve": 6465,
      "Ġfeature": 6466,
      "Ġtasks": 6467,
      "ĠLizzy": 6468,
      "Ġrequired": 6469,
      "Ġbunnies": 6470,
      "Ġanytime": 6471,
      "Ġsingle": 6472,
      "Ġsecrets": 6473,
      "ERE": 6474,
      "Ġstruck": 6475,
      "fit": 6476,
      "oys": 6477,
      "Ġopening": 6478,
      "Ġpedals": 6479,
      "Ġknelt": 6480,
      "Ġdecorated": 6481,
      "Ollie": 6482,
      "Ġ{'": 6483,
      "tem": 6484,
      "Ġupdate": 6485,
      "Ġlung": 6486,
      "Ġagreement": 6487,
      "Ġcustomer": 6488,
      "Ġcompany": 6489,
      "Ġhorns": 6490,
      "osity": 6491,
      "Ġlogs": 6492,
      "ization": 6493,
      "Ġtallest": 6494,
      "Ġfrost": 6495,
      "Ġdecides": 6496,
      "Have": 6497,
      "Id": 6498,
      "Ġseesaw": 6499,
      "file": 6500,
      "ĠCo": 6501,
      "Ġobey": 6502,
      "iment": 6503,
      "Ġ\"${": 6504,
      "Ġbehaved": 6505,
      "SELECT": 6506,
      "anted": 6507,
      "Ġbalancing": 6508,
      "oh": 6509,
      "Ġtugged": 6510,
      "Ġwoof": 6511,
      "zen": 6512,
      "Ġnp": 6513,
      "arth": 6514,
      "ulation": 6515,
      "pring": 6516,
      "Ġboom": 6517,
      "Ġbegin": 6518,
      "Ġslim": 6519,
      "Ġgoodnight": 6520,
      "Ġkeeper": 6521,
      "Ġsparkling": 6522,
      "Ġchirped": 6523,
      "raph": 6524,
      "Ġprecious": 6525,
      "Ġdecision": 6526,
      "mother": 6527,
      "ĠDe": 6528,
      "Ġpause": 6529,
      "instance": 6530,
      "table": 6531,
      "affes": 6532,
      "boo": 6533,
      "oid": 6534,
      "indy": 6535,
      "Ġtemp": 6536,
      "Ab": 6537,
      "Ġeffort": 6538,
      "Ġclaps": 6539,
      "Ġsnowballs": 6540,
      "ĠAm": 6541,
      "Ġspending": 6542,
      "go": 6543,
      "Ġourselves": 6544,
      "ĠRay": 6545,
      "fy": 6546,
      "type": 6547,
      "pos": 6548,
      "Ġgiraffes": 6549,
      "TH": 6550,
      "Ġwrites": 6551,
      "},": 6552,
      "Ġ25": 6553,
      "Ġ>>": 6554,
      "Ġkindly": 6555,
      "ena": 6556,
      "ĠKeep": 6557,
      "icles": 6558,
      "Ġspit": 6559,
      "ĠValueError": 6560,
      "PI": 6561,
      "omas": 6562,
      "ĠLike": 6563,
      "ppers": 6564,
      "Ġactor": 6565,
      "ĠSQL": 6566,
      "Ġtoss": 6567,
      "Ġbes": 6568,
      "pre": 6569,
      "Output": 6570,
      "Ġfrozen": 6571,
      "Ġpowers": 6572,
      "Ġhissed": 6573,
      "ĠCar": 6574,
      "Ġfrosting": 6575,
      "Ġplanets": 6576,
      "Ġdocker": 6577,
      "const": 6578,
      "Ġfiles": 6579,
      "Ġsurrounded": 6580,
      "Ġbuzzing": 6581,
      "Ġloaded": 6582,
      "Ġstruggled": 6583,
      "Ġmachines": 6584,
      "Ġinform": 6585,
      "alph": 6586,
      "values": 6587,
      "ĠSteve": 6588,
      "Sp": 6589,
      "Ġadmiring": 6590,
      "iggy": 6591,
      "Ġsweeties": 6592,
      "ĠVelvet": 6593,
      "Ġeight": 6594,
      "Ġslimy": 6595,
      "Ġtraveled": 6596,
      "Ġbrushed": 6597,
      "Ġbloomed": 6598,
      "Susie": 6599,
      "Ġresponse": 6600,
      "Ġearlier": 6601,
      "((": 6602,
      "Ġpolished": 6603,
      "));": 6604,
      "ĠZoe": 6605,
      "Ġneighbors": 6606,
      "contain": 6607,
      "Ġcomfy": 6608,
      "Ġpaintings": 6609,
      "Ġstaying": 6610,
      "var": 6611,
      "Ġchanges": 6612,
      "ception": 6613,
      "Ġseems": 6614,
      "Ġrubbing": 6615,
      "Ducky": 6616,
      "ms": 6617,
      "Ġcatches": 6618,
      "Ġrocking": 6619,
      "Ġpockets": 6620,
      "Ġpeel": 6621,
      "Ġthrilled": 6622,
      "Ġyesterday": 6623,
      "Ġbeside": 6624,
      "ĠAunt": 6625,
      "status": 6626,
      "Ah": 6627,
      "ĠMaggie": 6628,
      "Ġexact": 6629,
      "rem": 6630,
      "urry": 6631,
      "HERE": 6632,
      "isdom": 6633,
      "Ġreplaced": 6634,
      "Ġrust": 6635,
      "Ġfolding": 6636,
      "ww": 6637,
      "Ġruin": 6638,
      "struct": 6639,
      "Ġfrequency": 6640,
      "Ġmulti": 6641,
      "20": 6642,
      "new": 6643,
      "Ġcracked": 6644,
      "Ġexpression": 6645,
      "Ġhugging": 6646,
      "Ġcontrol": 6647,
      "Ġoptim": 6648,
      "TA": 6649,
      "Ġsalary": 6650,
      "sq": 6651,
      "Ġradishes": 6652,
      "ĠStitch": 6653,
      "Ġspraying": 6654,
      "Ġefficient": 6655,
      "Ġpriv": 6656,
      "Ġprotected": 6657,
      "Ġann": 6658,
      "Ġcircus": 6659,
      "Ġcompleted": 6660,
      "Ġloving": 6661,
      "ĠGreen": 6662,
      "Ġcuriosity": 6663,
      "ĠRachel": 6664,
      "Ġdemanded": 6665,
      "Int": 6666,
      "amie": 6667,
      "Ġstatus": 6668,
      "Run": 6669,
      "Ġgaze": 6670,
      "iders": 6671,
      "0000": 6672,
      "Ġzookeeper": 6673,
      "Ġhonk": 6674,
      "ĠDavid": 6675,
      "Ġhardly": 6676,
      "Ġpebbles": 6677,
      "edding": 6678,
      "Ġsting": 6679,
      "Ġstripes": 6680,
      "irm": 6681,
      "ĠPippa": 6682,
      "reshold": 6683,
      "CON": 6684,
      "Sometimes": 6685,
      "essage": 6686,
      "Thanks": 6687,
      "Ġinformation": 6688,
      "Ġpots": 6689,
      "Ġsplashes": 6690,
      "Ġpetted": 6691,
      "ĠUp": 6692,
      "Ġrequests": 6693,
      "Ġstare": 6694,
      "url": 6695,
      "Ġbelly": 6696,
      "Yummy": 6697,
      "Ġwhatever": 6698,
      "Ġcomfor": 6699,
      "Ġapologize": 6700,
      "pop": 6701,
      "Ġrocked": 6702,
      "Ġcomforted": 6703,
      "ades": 6704,
      "ĠBree": 6705,
      "root": 6706,
      "Ġerr": 6707,
      "Ġconse": 6708,
      "ĠPrint": 6709,
      "ĠJoy": 6710,
      "Ġribbons": 6711,
      "ĠBirdie": 6712,
      "ĠTest": 6713,
      "Ġconcaten": 6714,
      "example": 6715,
      "Ġreleased": 6716,
      "Ġcreating": 6717,
      "Ġstruggling": 6718,
      "Ġisinstance": 6719,
      "ST": 6720,
      "Ġbuildings": 6721,
      "Ġcubes": 6722,
      "Ġsteep": 6723,
      "Ġlargest": 6724,
      "During": 6725,
      "Ġgranted": 6726,
      "ius": 6727,
      "Ġroads": 6728,
      "Ġchases": 6729,
      "Ġbuckets": 6730,
      "Ġorganizing": 6731,
      "Ġbank": 6732,
      "Whiskers": 6733,
      "ndex": 6734,
      "Ġsmiley": 6735,
      "loe": 6736,
      "dam": 6737,
      "Ġdeser": 6738,
      "Ġdiving": 6739,
      "sorted": 6740,
      "Ġpurred": 6741,
      "Ġuppercase": 6742,
      "Ġgoals": 6743,
      "Ġsadness": 6744,
      "Ġcrumb": 6745,
      "Ġbackground": 6746,
      "Ġ===": 6747,
      "onding": 6748,
      "Ġwidth": 6749,
      "Ġheroes": 6750,
      "ĠSc": 6751,
      "ĠFrank": 6752,
      "lowers": 6753,
      "Ġsunlight": 6754,
      "Ġstudents": 6755,
      "Ġapplic": 6756,
      "Ġeagle": 6757,
      "ĠJe": 6758,
      "dev": 6759,
      "Ġdipped": 6760,
      "float": 6761,
      "Ġlied": 6762,
      "Ġpastels": 6763,
      "Ġsafer": 6764,
      "');": 6765,
      "Ġactions": 6766,
      "Ġma": 6767,
      "Ġdiscovery": 6768,
      "Ro": 6769,
      "ĠWater": 6770,
      "ĠMilly": 6771,
      "Ġargued": 6772,
      "eger": 6773,
      "Ġoperations": 6774,
      "dir": 6775,
      "ĠAbigail": 6776,
      "ĠChr": 6777,
      "AD": 6778,
      "ERT": 6779,
      "Ġcorresp": 6780,
      "Ġcuts": 6781,
      "Ġvillag": 6782,
      "ĠFind": 6783,
      "Ġpeered": 6784,
      "Ġfinal": 6785,
      "Ġtails": 6786,
      "ĠBouncy": 6787,
      "Ġparties": 6788,
      "ira": 6789,
      "Ġdragons": 6790,
      "matrix": 6791,
      "Ġbeard": 6792,
      "Ġsob": 6793,
      "Rex": 6794,
      "Ġinstruction": 6795,
      "ĠOther": 6796,
      "Ġwedding": 6797,
      "[:": 6798,
      "Ġflutter": 6799,
      "Ġleading": 6800,
      "book": 6801,
      "Ġfasc": 6802,
      "ĠWatch": 6803,
      "ĠRobby": 6804,
      "Ġpolishing": 6805,
      "ĠZero": 6806,
      "Ġcrabs": 6807,
      "ĠRemember": 6808,
      "Ġactually": 6809,
      "ĠGogo": 6810,
      "uke": 6811,
      "Ġchallenge": 6812,
      "Ġsausages": 6813,
      "Ġdragged": 6814,
      "Ġbottles": 6815,
      "Ġwiggled": 6816,
      "public": 6817,
      "json": 6818,
      "Ġteased": 6819,
      "Ġweeks": 6820,
      "total": 6821,
      "Ġarguing": 6822,
      "Ġrefres": 6823,
      "Ġclearing": 6824,
      "Ġtables": 6825,
      "Ġshirts": 6826,
      "fre": 6827,
      "Ġsled": 6828,
      "Ġconsider": 6829,
      "Ġroaring": 6830,
      "Ġgathering": 6831,
      "Ġteaches": 6832,
      "Ġaccess": 6833,
      "Ġcorresponding": 6834,
      "Ġrequested": 6835,
      "Ġairpl": 6836,
      "11": 6837,
      "Ġdestination": 6838,
      "--------": 6839,
      "Ġdecimal": 6840,
      "joyed": 6841,
      "Ġspiders": 6842,
      "Ġsuggest": 6843,
      "Ġlimes": 6844,
      "ĠNode": 6845,
      "ĠDare": 6846,
      "ĠConvert": 6847,
      "Ġoverjoyed": 6848,
      "artment": 6849,
      "Ġsquares": 6850,
      "Ġsighs": 6851,
      "avi": 6852,
      "Ġcuddle": 6853,
      "Ġsoaring": 6854,
      "ĠJess": 6855,
      "Ġvariables": 6856,
      "Ġtalent": 6857,
      "nie": 6858,
      "Ġdrives": 6859,
      "umble": 6860,
      "Ġsparkles": 6861,
      "join": 6862,
      "null": 6863,
      "ĠOlly": 6864,
      "ica": 6865,
      "iding": 6866,
      "ĠSplash": 6867,
      "Ġflags": 6868,
      "Ġgrandmother": 6869,
      "acy": 6870,
      "Ġpouring": 6871,
      "Ġfascin": 6872,
      "Ġaccom": 6873,
      "ĠSort": 6874,
      "dig": 6875,
      "Ġpretends": 6876,
      "ails": 6877,
      "Ġmane": 6878,
      "Ġpeppers": 6879,
      "Ġquarreling": 6880,
      "version": 6881,
      "Ġexactly": 6882,
      "ION": 6883,
      "Ġshivered": 6884,
      "Ġresponsible": 6885,
      "Ġonwards": 6886,
      "Ġstretching": 6887,
      "alary": 6888,
      "Ġdusty": 6889,
      "Ġdam": 6890,
      "ley": 6891,
      "Ġwins": 6892,
      "Johnny": 6893,
      "Ġcompare": 6894,
      "Ġwires": 6895,
      "bu": 6896,
      "Ġwondering": 6897,
      "no": 6898,
      "Ġdarker": 6899,
      "Ġinitial": 6900,
      "Ġvillagers": 6901,
      "Ġwherever": 6902,
      "Ġconditions": 6903,
      "da": 6904,
      "jam": 6905,
      "ana": 6906,
      "Ġexcl": 6907,
      "Ġcaut": 6908,
      "Ġrings": 6909,
      "Ġvalidate": 6910,
      "Tiny": 6911,
      "Ġfault": 6912,
      "Ġunited": 6913,
      "ĠKatie": 6914,
      "Ġinstructions": 6915,
      "Add": 6916,
      "gre": 6917,
      "Achoo": 6918,
      "ĠSw": 6919,
      "âĢĿ.": 6920,
      "Ġcreation": 6921,
      "iter": 6922,
      "ĠSpring": 6923,
      "ĠBeing": 6924,
      "tiest": 6925,
      "TAIN": 6926,
      "Ġbead": 6927,
      "ĠApp": 6928,
      "CONTAIN": 6929,
      "CONTAINER": 6930,
      "ĠEarth": 6931,
      "ĠEveryday": 6932,
      "TER": 6933,
      "Ġprettiest": 6934,
      "annah": 6935,
      "Ġalphabet": 6936,
      "Ġincluding": 6937,
      "Ġrealize": 6938,
      "Luna": 6939,
      "Ġdict": 6940,
      "ashed": 6941,
      "button": 6942,
      "Ġpenguins": 6943,
      "ĠAS": 6944,
      "Ġascending": 6945,
      "Value": 6946,
      "Sum": 6947,
      "Ġbedtime": 6948,
      "ĠWisdom": 6949,
      "Ġknights": 6950,
      "velop": 6951,
      "ertain": 6952,
      "ĠBecause": 6953,
      "Ġpatience": 6954,
      "Ġlearns": 6955,
      "inda": 6956,
      "Ġprivate": 6957,
      "Ġplayroom": 6958,
      "ives": 6959,
      "reverse": 6960,
      "Ġunic": 6961,
      "Rob": 6962,
      "Ġreply": 6963,
      "console": 6964,
      "backup": 6965,
      "sentence": 6966,
      "Ġgotten": 6967,
      "SON": 6968,
      "fl": 6969,
      "Ġnums": 6970,
      "Ġupdated": 6971,
      "Ġshrug": 6972,
      "Ġswap": 6973,
      "Ġreminder": 6974,
      "Ġaccompl": 6975,
      "Ġkites": 6976,
      "even": 6977,
      "eric": 6978,
      "Ġfears": 6979,
      "quences": 6980,
      "Ġpacking": 6981,
      "Ġtimer": 6982,
      "Ġinst": 6983,
      "order": 6984,
      "Ġmountains": 6985,
      "Ġvisiting": 6986,
      "Ġapplauded": 6987,
      ":-/": 6988,
      "search": 6989,
      "Ġscrubbed": 6990,
      "ĠAva": 6991,
      "Ġincluded": 6992,
      "Uh": 6993,
      "}\"": 6994,
      "rap": 6995,
      "Ġcrept": 6996,
      "onent": 6997,
      "Ġminimum": 6998,
      "Ġdataset": 6999,
      "container": 7000,
      "incess": 7001,
      "For": 7002,
      "ĠPut": 7003,
      "Ġpencils": 7004,
      "Ġsticking": 7005,
      "error": 7006,
      "enty": 7007,
      "Ġpassing": 7008,
      "Ġbaker": 7009,
      "Ġwound": 7010,
      "ĠFish": 7011,
      "Ġpeas": 7012,
      "inty": 7013,
      "Ġbackup": 7014,
      "ender": 7015,
      "PAT": 7016,
      "Grandpa": 7017,
      "ĠMath": 7018,
      "Ġjoking": 7019,
      "Ġawake": 7020,
      "rec": 7021,
      "Ġdigits": 7022,
      "Ġstaring": 7023,
      "Ġhealed": 7024,
      "Ġhitting": 7025,
      "umm": 7026,
      "aster": 7027,
      "Note": 7028,
      "ĠRem": 7029,
      "Ġscreaming": 7030,
      "score": 7031,
      "Ġartist": 7032,
      "ĠPo": 7033,
      "seek": 7034,
      "uckily": 7035,
      "ĠMoo": 7036,
      "ĠFriends": 7037,
      "Ġunicorn": 7038,
      "Col": 7039,
      "Ġintroduc": 7040,
      "Ġhelmets": 7041,
      "Ġheav": 7042,
      "Ġusers": 7043,
      "ĠLeave": 7044,
      "Ġscales": 7045,
      "TE": 7046,
      "ropri": 7047,
      "Ġchips": 7048,
      "rt": 7049,
      "Ġbrand": 7050,
      ")]": 7051,
      "Ġwasted": 7052,
      "ĠLou": 7053,
      "Ġtowels": 7054,
      "price": 7055,
      "Silly": 7056,
      "oming": 7057,
      "laire": 7058,
      "product": 7059,
      "Ġimproved": 7060,
      "Ġstatement": 7061,
      "ift": 7062,
      "Ġmasks": 7063,
      "Watch": 7064,
      "ordin": 7065,
      "ĠBehind": 7066,
      "ĠJan": 7067,
      "Ġoutdo": 7068,
      "Ġ\"\"": 7069,
      "Ġappend": 7070,
      "Ġcustomers": 7071,
      "Ġ11": 7072,
      "RA": 7073,
      "Ġlollipops": 7074,
      "Ġappropri": 7075,
      "REE": 7076,
      "Ġaccount": 7077,
      "Num": 7078,
      "Ġretri": 7079,
      "ĠSet": 7080,
      "Ġbalanced": 7081,
      "bly": 7082,
      "zes": 7083,
      "Ġguns": 7084,
      "Ġdied": 7085,
      "Ġseconds": 7086,
      "ĠHippy": 7087,
      "Ġrule": 7088,
      "Ġwhether": 7089,
      "Ġvideos": 7090,
      "Ġglitter": 7091,
      "Ġarrive": 7092,
      "Listen": 7093,
      "Ġremaining": 7094,
      "ners": 7095,
      "style": 7096,
      "Ġpracticing": 7097,
      "Ġweren": 7098,
      "uddles": 7099,
      "Ġstole": 7100,
      "Dave": 7101,
      "Ġperched": 7102,
      "Ġshelves": 7103,
      "Ġpred": 7104,
      "Ġfactorial": 7105,
      "Index": 7106,
      "Ġpumpkins": 7107,
      "Stay": 7108,
      "dist": 7109,
      "ĠCra": 7110,
      "Ġcandies": 7111,
      "://": 7112,
      "Ġbatteries": 7113,
      "ĠQuick": 7114,
      "Ġswoop": 7115,
      "Ġpromises": 7116,
      "Ġagrees": 7117,
      "Ġsnakes": 7118,
      "Ġarrays": 7119,
      "Ġprotecting": 7120,
      "Mar": 7121,
      "Ġchirping": 7122,
      "ĠStep": 7123,
      "Benny": 7124,
      "Mike": 7125,
      "Ġindices": 7126,
      "Fo": 7127,
      "Ġcrowd": 7128,
      "Ġparked": 7129,
      "Ġimages": 7130,
      "image": 7131,
      "Ġpatiently": 7132,
      ")\"": 7133,
      "mit": 7134,
      "Ġshoulders": 7135,
      "Ġdent": 7136,
      "getElement": 7137,
      "ĠLoop": 7138,
      "usan": 7139,
      "sequence": 7140,
      "Ġreaching": 7141,
      "Ġ50": 7142,
      "Ġblows": 7143,
      "Ġworkers": 7144,
      "Ġexamined": 7145,
      "Ġsubstring": 7146,
      "ically": 7147,
      "uly": 7148,
      "Ġencourag": 7149,
      "Ġapplication": 7150,
      "Ġneither": 7151,
      "Ġguest": 7152,
      "Ġairplane": 7153,
      "jamas": 7154,
      "Doggy": 7155,
      "Ġroses": 7156,
      "lict": 7157,
      "Ġlistens": 7158,
      "Ġconflict": 7159,
      "\"\"\"": 7160,
      "Miss": 7161,
      "Ġloading": 7162,
      "river": 7163,
      "ĠHoot": 7164,
      "ĠJSON": 7165,
      "Poppy": 7166,
      "Exc": 7167,
      "Ġadult": 7168,
      "aterial": 7169,
      "build": 7170,
      "ĠLove": 7171,
      "Bunny": 7172,
      "Ġbeads": 7173,
      "Ġbowls": 7174,
      "Ġbunch": 7175,
      "ĠBop": 7176,
      "ALERT": 7177,
      "Ġcrumbs": 7178,
      "Ġcause": 7179,
      "cakes": 7180,
      "Ġ''": 7181,
      "Ġcough": 7182,
      "ĠBrownie": 7183,
      "ĠCatty": 7184,
      "Ġproper": 7185,
      "Pete": 7186,
      "Ġdouble": 7187,
      "ĠBye": 7188,
      "ĠDesign": 7189,
      "cher": 7190,
      "Ġdolphins": 7191,
      "ody": 7192,
      "ĠSun": 7193,
      "Ġcans": 7194,
      "anta": 7195,
      "Ġreads": 7196,
      "Ġassign": 7197,
      "TERN": 7198,
      "ĠOl": 7199,
      "esome": 7200,
      "Ġlibraries": 7201,
      "Ġlimit": 7202,
      "Ġconsole": 7203,
      "Ġobserved": 7204,
      "Ġemployees": 7205,
      "Bad": 7206,
      "Ġht": 7207,
      "Ġalien": 7208,
      "ayla": 7209,
      "Ġapproach": 7210,
      "avas": 7211,
      "SS": 7212,
      "ĠBlink": 7213,
      "avascript": 7214,
      "George": 7215,
      "Ġcheering": 7216,
      "]]": 7217,
      "ators": 7218,
      "ilter": 7219,
      "Ġfilling": 7220,
      "ĠChew": 7221,
      "ĠJulie": 7222,
      "Ġ_": 7223,
      "Ġstumble": 7224,
      "PATTERN": 7225,
      "step": 7226,
      "ference": 7227,
      "Ġlevel": 7228,
      "athy": 7229,
      "Ġentire": 7230,
      "ĠCuddles": 7231,
      "ĠAPI": 7232,
      "Pat": 7233,
      "Ġclick": 7234,
      "Ġwrist": 7235,
      "ĠWorld": 7236,
      "Ġhealth": 7237,
      "ĠEnjoy": 7238,
      "Ġstern": 7239,
      "vin": 7240,
      "angled": 7241,
      "Ġrolls": 7242,
      "names": 7243,
      "Ġdirection": 7244,
      "ilo": 7245,
      "while": 7246,
      "you": 7247,
      "Ġmisses": 7248,
      "eath": 7249,
      "Ġseven": 7250,
      "Ġoccurrences": 7251,
      "Ġcurtains": 7252,
      "($": 7253,
      "Dog": 7254,
      "Chirpy": 7255,
      "Ġrainbows": 7256,
      "Ġrubs": 7257,
      "Ġcloses": 7258,
      "ĠPrincess": 7259,
      "uctantly": 7260,
      "Ġcenter": 7261,
      "Ġpatted": 7262,
      "Ġoutdoors": 7263,
      "Lola": 7264,
      "Ġpajamas": 7265,
      "Ġcomplaining": 7266,
      "Ġtune": 7267,
      "ĠSquirrel": 7268,
      "Paul": 7269,
      "Ġdrums": 7270,
      "ĠMouse": 7271,
      "Ġawesome": 7272,
      "Ġpuppet": 7273,
      "Ġbeneath": 7274,
      "HO": 7275,
      "using": 7276,
      "Ġpointer": 7277,
      "Ġfaced": 7278,
      "Ġwritten": 7279,
      "ĠBeth": 7280,
      "Ġgreet": 7281,
      "tract": 7282,
      "inf": 7283,
      "Ġappropriate": 7284,
      "aa": 7285,
      "Ġstored": 7286,
      "ĠSorry": 7287,
      "Ġrefuse": 7288,
      "ality": 7289,
      "Ġotherwise": 7290,
      "Ġrescued": 7291,
      "Ġsweat": 7292,
      "Ġminerals": 7293,
      "Ġperformed": 7294,
      "ĠBY": 7295,
      "ĠComple": 7296,
      "Ġmission": 7297,
      "Ġscra": 7298,
      "Great": 7299,
      "neath": 7300,
      "Ġabsol": 7301,
      "ĠDot": 7302,
      "Ġquacked": 7303,
      "eg": 7304,
      "ĠAbby": 7305,
      "Ġdoctors": 7306,
      "udent": 7307,
      "Ġcautious": 7308,
      "Ġda": 7309,
      "istle": 7310,
      "Ġcurly": 7311,
      "Ġ>>>": 7312,
      "child": 7313,
      "dies": 7314,
      "Ġjson": 7315,
      "Ġguys": 7316,
      "ĠThomas": 7317,
      "100": 7318,
      "Fine": 7319,
      "Ġvent": 7320,
      "Ġ},": 7321,
      "itted": 7322,
      "Ġduplicates": 7323,
      "ĠRemove": 7324,
      "Ġbecoming": 7325,
      "emory": 7326,
      "Ġpastries": 7327,
      "ĠOur": 7328,
      "Ġparameters": 7329,
      "primes": 7330,
      "Ġmeets": 7331,
      "Ġfont": 7332,
      "lled": 7333,
      "Ġpoliceman": 7334,
      "ae": 7335,
      "javascript": 7336,
      "Ġ18": 7337,
      "ATE": 7338,
      "Ġrockets": 7339,
      "the": 7340,
      "df": 7341,
      "Ġtitle": 7342,
      "Days": 7343,
      "Oops": 7344,
      "Ġfairies": 7345,
      "Ġcaused": 7346,
      "Ġpout": 7347,
      "quent": 7348,
      "Ġtractor": 7349,
      "Ġsituation": 7350,
      "rat": 7351,
      "Ġknowled": 7352,
      "Ġargument": 7353,
      "Ġblooming": 7354,
      "Ġknowledge": 7355,
      "ĠTwo": 7356,
      "Ġfarther": 7357,
      "Zoom": 7358,
      "Ġmerge": 7359,
      "Ġfirm": 7360,
      "Ġdesert": 7361,
      "ĠSad": 7362,
      "Ġtruly": 7363,
      "acob": 7364,
      "Ġcolumns": 7365,
      "Ġprinting": 7366,
      "Some": 7367,
      "ĠMon": 7368,
      "erson": 7369,
      "However": 7370,
      "Ġproperly": 7371,
      "Ġremembering": 7372,
      "Ġpaddle": 7373,
      "Ġlap": 7374,
      "ById": 7375,
      "Buzz": 7376,
      "Henry": 7377,
      "custom": 7378,
      "isting": 7379,
      "Ġteamwork": 7380,
      "unique": 7381,
      "zie": 7382,
      "Ġlibrarian": 7383,
      "Ġfascinated": 7384,
      "ele": 7385,
      "Ġhelpers": 7386,
      "Ġslam": 7387,
      "Ġwobbled": 7388,
      "Ġsurface": 7389,
      "Ġdots": 7390,
      "Ġextract": 7391,
      "Ġthro": 7392,
      "Ġrecording": 7393,
      "Ġsights": 7394,
      "cre": 7395,
      "Ġexec": 7396,
      "Ġusually": 7397,
      "Ġlinked": 7398,
      "ĠJilly": 7399,
      "Ġdigit": 7400,
      "run": 7401,
      "ĠFunction": 7402,
      "Ġprayer": 7403,
      "oneous": 7404,
      "Ġspong": 7405,
      "Ġmaterial": 7406,
      "kelly": 7407,
      "Ġpartic": 7408,
      "IMAGE": 7409,
      "sty": 7410,
      "Ġsupplies": 7411,
      "Ġavoid": 7412,
      "character": 7413,
      "Ġrip": 7414,
      "Ġcertain": 7415,
      "ĠAND": 7416,
      "Ġtraded": 7417,
      "eah": 7418,
      "ĠTree": 7419,
      "Ġstarfish": 7420,
      "hee": 7421,
      "Ġath": 7422,
      "ĠWelcome": 7423,
      "Ġpointy": 7424,
      "Ġinviting": 7425,
      "mid": 7426,
      "Ġeveryday": 7427,
      "Ġstays": 7428,
      "Ġneighbourhood": 7429,
      "remove": 7430,
      "inkle": 7431,
      "Ġvalued": 7432,
      "Ġprett": 7433,
      "format": 7434,
      "getElementById": 7435,
      "lt": 7436,
      "salary": 7437,
      "Ġdancers": 7438,
      "Ġornaments": 7439,
      "ĠAlly": 7440,
      "James": 7441,
      "AY": 7442,
      "htt": 7443,
      "cent": 7444,
      "Ġreluctantly": 7445,
      "Ġbare": 7446,
      "Ġsatisfied": 7447,
      "Ġprettier": 7448,
      "LD": 7449,
      "Ġleap": 7450,
      "Ġboolean": 7451,
      "ault": 7452,
      "pred": 7453,
      "Ġprogramming": 7454,
      "Ġsnowmen": 7455,
      "Ġdeal": 7456,
      "Ġlamb": 7457,
      "Ġsteady": 7458,
      "araway": 7459,
      "Ġiterates": 7460,
      "Ġthorn": 7461,
      "bl": 7462,
      "Ġchoo": 7463,
      "Ġrisk": 7464,
      "Ġglasses": 7465,
      "Ġfaraway": 7466,
      "Ġusual": 7467,
      "ĠFoxy": 7468,
      "[\"": 7469,
      "ification": 7470,
      "ĠSure": 7471,
      "antity": 7472,
      "Ġswooped": 7473,
      "ivity": 7474,
      "Ġprimes": 7475,
      "Ġforks": 7476,
      "Polly": 7477,
      "Ġ\")": 7478,
      "Ġcorrectly": 7479,
      "Ġinstr": 7480,
      "arter": 7481,
      "animal": 7482,
      "ĠJamie": 7483,
      "Ġsneezing": 7484,
      "Ġinsects": 7485,
      "iar": 7486,
      "Ġwinked": 7487,
      "Con": 7488,
      "Ġstem": 7489,
      "Ġchat": 7490,
      "Ġ**": 7491,
      "Ġthroat": 7492,
      "Ġsponge": 7493,
      "Ġgroups": 7494,
      "->": 7495,
      "util": 7496,
      "Ġ$(": 7497,
      "Ġbehavi": 7498,
      "Ġpans": 7499,
      "25": 7500,
      "FROM": 7501,
      "Ġconfident": 7502,
      "ĠSanta": 7503,
      "Ġsobbed": 7504,
      "Ġgems": 7505,
      "Ġgrowling": 7506,
      "first": 7507,
      "ĠChloe": 7508,
      "ĠJosh": 7509,
      "Ġlun": 7510,
      "Ġnoses": 7511,
      "hi": 7512,
      "Ġhomework": 7513,
      "average": 7514,
      "apple": 7515,
      "ĠStay": 7516,
      "Hold": 7517,
      "ĠWant": 7518,
      "Ġseparated": 7519,
      "ĠDizzy": 7520,
      "back": 7521,
      "code": 7522,
      "Ġscarves": 7523,
      "agull": 7524,
      "Ġyourselves": 7525,
      "RL": 7526,
      "range": 7527,
      "Charlie": 7528,
      "Ġsuperheroes": 7529,
      "ora": 7530,
      "Joey": 7531,
      "Tina": 7532,
      "Ġsmarter": 7533,
      "stop": 7534,
      "Node": 7535,
      "anation": 7536,
      "Ġwindy": 7537,
      "ĠKids": 7538,
      "Ġwarnings": 7539,
      "Ġchoices": 7540,
      "Ġnotes": 7541,
      "angles": 7542,
      "ĠĠĠĠĠĠ": 7543,
      "ido": 7544,
      "Ġunderneath": 7545,
      "Ġbeginning": 7546,
      "Ġge": 7547,
      "Ġkicks": 7548,
      "ctory": 7549,
      "Ġlabels": 7550,
      "Ġitchy": 7551,
      "Exception": 7552,
      "ances": 7553,
      "Ġjackets": 7554,
      "chn": 7555,
      "Ġident": 7556,
      "lection": 7557,
      "Ġreason": 7558,
      "Ġattrib": 7559,
      "Ġyounger": 7560,
      "ĠSkelly": 7561,
      "eries": 7562,
      "ĠSkip": 7563,
      "Ġstructures": 7564,
      "Ġuntie": 7565,
      "letter": 7566,
      "ĠDuck": 7567,
      "include": 7568,
      "etime": 7569,
      "Ġprincesses": 7570,
      "ho": 7571,
      "Ġbadge": 7572,
      "Those": 7573,
      "sv": 7574,
      "Yeah": 7575,
      "coon": 7576,
      "ouch": 7577,
      "ĠMix": 7578,
      "ĠHenny": 7579,
      "ĠĠĠĠĠĠĠĠĠĠĠĠĊ": 7580,
      "Our": 7581,
      "Ġgiggling": 7582,
      "Ġexists": 7583,
      "iles": 7584,
      "Ġorders": 7585,
      "Ġhandling": 7586,
      "Ġcovers": 7587,
      "usted": 7588,
      "ctuation": 7589,
      "Ġfirefighter": 7590,
      "sm": 7591,
      "Ġsource": 7592,
      "Ġparticular": 7593,
      "RES": 7594,
      "with": 7595,
      "exp": 7596,
      "Ġclowns": 7597,
      "Toby": 7598,
      "ĠAnt": 7599,
      "pite": 7600,
      "Ġropes": 7601,
      "vot": 7602,
      "though": 7603,
      "Ġbiting": 7604,
      "Ġsigned": 7605,
      "dictionary": 7606,
      "ĠUnfortunately": 7607,
      "oving": 7608,
      "address": 7609,
      "area": 7610,
      "Ġdar": 7611,
      "Ġonions": 7612,
      "Ġnull": 7613,
      "Danny": 7614,
      "Ġresul": 7615,
      "Ġdelivered": 7616,
      "Ġseagull": 7617,
      "Ġpaddled": 7618,
      "Ġwears": 7619,
      "learn": 7620,
      "Ġcomplained": 7621,
      "Ġtwirl": 7622,
      "Ġbuzzed": 7623,
      "ĠJones": 7624,
      "Ġawk": 7625,
      "Ġcommit": 7626,
      "Ġbumpy": 7627,
      "ĠAnne": 7628,
      "Mrs": 7629,
      "script": 7630,
      "Grace": 7631,
      "OT": 7632,
      "Ġpiggy": 7633,
      "Ġscen": 7634,
      "ippet": 7635,
      "Ġgrade": 7636,
      "Ġden": 7637,
      "99": 7638,
      "lings": 7639,
      "izer": 7640,
      "anes": 7641,
      "?\",": 7642,
      "Ġunf": 7643,
      "Ġdived": 7644,
      "down": 7645,
      "Unfortunately": 7646,
      "Ġtangled": 7647,
      "Ġstartled": 7648,
      "Ġleaning": 7649,
      "Roar": 7650,
      "123": 7651,
      "bric": 7652,
      "Ġslower": 7653,
      "Ġindic": 7654,
      "Que": 7655,
      "Ġfabric": 7656,
      "ky": 7657,
      "pen": 7658,
      "Ġintroduced": 7659,
      "Ġargs": 7660,
      "git": 7661,
      "Ġtypes": 7662,
      "Annie": 7663,
      "Ġpalindrome": 7664,
      "Ġrefreshed": 7665,
      "Ġvowed": 7666,
      "spec": 7667,
      "Ġpairs": 7668,
      "Ġnapkins": 7669,
      "Ġ\\": 7670,
      "45": 7671,
      "Ġtickled": 7672,
      "Ġpec": 7673,
      "Ġresulting": 7674,
      "tuce": 7675,
      "Ġguessing": 7676,
      "Shh": 7677,
      "Ġcous": 7678,
      "Ġyells": 7679,
      "Ġrecords": 7680,
      "Ġknocks": 7681,
      "action": 7682,
      "path": 7683,
      "Ġhides": 7684,
      "Ġspeaking": 7685,
      "Ġarrows": 7686,
      "Maggie": 7687,
      "ifier": 7688,
      "ĠWhistle": 7689,
      "ref": 7690,
      "Ġsnippet": 7691,
      "Ġwipes": 7692,
      "Ġmarked": 7693,
      "Ġplayers": 7694,
      "Ġlettuce": 7695,
      "ĠSusan": 7696,
      "chars": 7697,
      "Ġoption": 7698,
      "ĠQuack": 7699,
      "Ġcomplet": 7700,
      "idth": 7701,
      "ĠDodo": 7702,
      "ĠRover": 7703,
      "Ġcompetition": 7704,
      "Ġneare": 7705,
      "Example": 7706,
      "Ġseeker": 7707,
      "Ġtechn": 7708,
      "Ġsinger": 7709,
      "loc": 7710,
      "now": 7711,
      "ĠCount": 7712,
      "stron": 7713,
      "ĠCrab": 7714,
      "pace": 7715,
      "atur": 7716,
      "Ġfroze": 7717,
      "uggles": 7718,
      "Sophie": 7719,
      "ĠLion": 7720,
      "Ġjoked": 7721,
      "}\")": 7722,
      "Ġlocal": 7723,
      "upper": 7724,
      "Ġsqueal": 7725,
      "Ġexplorers": 7726,
      "Ġtoaster": 7727,
      "Ġ>&": 7728,
      "Ġhour": 7729,
      "Ġpraying": 7730,
      "Ġdiscovering": 7731,
      "Data": 7732,
      "ĠDara": 7733,
      "Excuse": 7734,
      "comp": 7735,
      "dat": 7736,
      "pts": 7737,
      "Ġpivot": 7738,
      "Ġadds": 7739,
      "Ġpaying": 7740,
      "Ġmushrooms": 7741,
      "ĠJeff": 7742,
      "message": 7743,
      "oad": 7744,
      "Com": 7745,
      "tle": 7746,
      "Ġsecure": 7747,
      "Ġknees": 7748,
      "ĠPaws": 7749,
      "ept": 7750,
      "Ġhider": 7751,
      "ĠAsh": 7752,
      "Ġwandering": 7753,
      "ordinates": 7754,
      "';": 7755,
      "brush": 7756,
      "Ġparameter": 7757,
      "Ġaccomplish": 7758,
      "Ġthreshold": 7759,
      "ĠWink": 7760,
      "Ġstung": 7761,
      "Ġ16": 7762,
      "replace": 7763,
      "Ġ-=": 7764,
      "Ġfeatures": 7765,
      "Ġbarely": 7766,
      "Ġnine": 7767,
      "Ġdances": 7768,
      "Ġmagnets": 7769,
      "ĠMatt": 7770,
      "Ġrestored": 7771,
      "Alex": 7772,
      "Ġastron": 7773,
      "ics": 7774,
      "Ġbehaving": 7775,
      "Ġabsolute": 7776,
      "Ġtipto": 7777,
      "Ġblocking": 7778,
      "ĠDee": 7779,
      "Ġmultiply": 7780,
      "tar": 7781,
      "Ġfact": 7782,
      "des": 7783,
      "oline": 7784,
      "Ġchecking": 7785,
      "Ġnecess": 7786,
      "Ġchefs": 7787,
      "Ġchuck": 7788,
      "Ġripe": 7789,
      "Ġgears": 7790,
      "Ġdelete": 7791,
      "ados": 7792,
      "alindrome": 7793,
      "Ġpandas": 7794,
      "WHERE": 7795,
      "++;": 7796,
      "isplay": 7797,
      "Ġhowever": 7798,
      "Teddy": 7799,
      "ĠPar": 7800,
      "Ġbravery": 7801,
      "Ġdesigned": 7802,
      "vow": 7803,
      "usive": 7804,
      "Ġrainy": 7805,
      "Ġjobs": 7806,
      "ĠSnuggles": 7807,
      "vant": 7808,
      "'])": 7809,
      "Ġpens": 7810,
      "===": 7811,
      "Ġsalty": 7812,
      "Ġwishing": 7813,
      "Big": 7814,
      "eras": 7815,
      "Ġventured": 7816,
      "Ġmatters": 7817,
      "part": 7818,
      "ĠBetsy": 7819,
      ">/": 7820,
      "Ġranger": 7821,
      "ĠZiggy": 7822,
      "Ġmuscle": 7823,
      "Ġdeserve": 7824,
      "Ġburst": 7825,
      "Ġdarkness": 7826,
      "Ġfailed": 7827,
      "Ġcommand": 7828,
      "raint": 7829,
      "Ġprevious": 7830,
      "Ġcobwebs": 7831,
      "Ġruining": 7832,
      "ĠFu": 7833,
      "(),": 7834,
      "*.": 7835,
      "Ġscur": 7836,
      "Ġvines": 7837,
      "DAY": 7838,
      "Ġsib": 7839,
      "Ġvalidation": 7840,
      "HOLD": 7841,
      "option": 7842,
      "Ġbasement": 7843,
      "Ġheavier": 7844,
      "ĠBuggy": 7845,
      "Ġends": 7846,
      "ictionaries": 7847,
      "ĠClaire": 7848,
      "Ġpolar": 7849,
      "RESHOLD": 7850,
      "Ġexha": 7851,
      "weight": 7852,
      "Ġscratches": 7853,
      "Ġfibonacci": 7854,
      "Ġmedian": 7855,
      "Tweet": 7856,
      "().": 7857,
      "THRESHOLD": 7858,
      "Ġlosing": 7859,
      "ophia": 7860,
      "Ġnecessary": 7861,
      "Ġmints": 7862,
      "Ġavocados": 7863,
      "Ġtwirling": 7864,
      "MAT": 7865,
      "ĠLinda": 7866,
      "uplicates": 7867,
      "ĠAdam": 7868,
      "Harry": 7869,
      "ĠDef": 7870,
      "Ġsilent": 7871,
      "FREE": 7872,
      "match": 7873,
      "epl": 7874,
      "ering": 7875,
      "agraph": 7876,
      "Ġunp": 7877,
      "Ġemployee": 7878,
      "iving": 7879,
      "Ġscurried": 7880,
      "Jerry": 7881,
      "Ġsunflowers": 7882,
      "RAN": 7883,
      "Ġrainco": 7884,
      "anguages": 7885,
      "ĠJenna": 7886,
      "LOAD": 7887,
      "Ġsan": 7888,
      "USAGE": 7889,
      "yes": 7890,
      "Ġswords": 7891,
      "keys": 7892,
      "Follow": 7893,
      "Ġinputs": 7894,
      "Ġrelief": 7895,
      "ĠLaser": 7896,
      "Ġconsequences": 7897,
      "Ġfiltered": 7898,
      "Ġchanging": 7899,
      "ORES": 7900,
      "Ġflames": 7901,
      "Ġwraps": 7902,
      "Ġnecklaces": 7903,
      "ĠLuke": 7904,
      "Ġtwice": 7905,
      "Ġgrows": 7906,
      "Ġlighter": 7907,
      "ĠTry": 7908,
      "ĠGrumpy": 7909,
      "Ġsnat": 7910,
      "Ġperforming": 7911,
      "Ġtricky": 7912,
      "Ġrotting": 7913,
      "Ġsewed": 7914,
      "Ġ\"===": 7915,
      "anana": 7916,
      "Ġactivities": 7917,
      "igning": 7918,
      "umbled": 7919,
      "rypt": 7920,
      "Ġrecipe": 7921,
      "Ġbows": 7922,
      "rate": 7923,
      "Ġ===\"": 7924,
      "Ġvowel": 7925,
      "Date": 7926,
      "Sub": 7927,
      "Ġraces": 7928,
      "15": 7929,
      "ĠMake": 7930,
      "Ġunpacked": 7931,
      "ĠLena": 7932,
      "ĠMod": 7933,
      "ĠFROM": 7934,
      "Ġtriangles": 7935,
      "Backup": 7936,
      "Ġstain": 7937,
      "Ġtires": 7938,
      "rance": 7939,
      "Beep": 7940,
      "TENT": 7941,
      "filter": 7942,
      "Ġpins": 7943,
      "Ġowners": 7944,
      "oll": 7945,
      "distance": 7946,
      "py": 7947,
      "><": 7948,
      "Ġbacked": 7949,
      "Ġbodies": 7950,
      "Ġpaths": 7951,
      "Ġbumps": 7952,
      "aly": 7953,
      "MATCH": 7954,
      "DAYS": 7955,
      "Ġties": 7956,
      "Cont": 7957,
      "calculate": 7958,
      "Ġwow": 7959,
      "isies": 7960,
      "Ġdecorating": 7961,
      "Ġpurr": 7962,
      "Ġallows": 7963,
      "Ġselect": 7964,
      "RETENT": 7965,
      "Ġcompletely": 7966,
      "RETENTION": 7967,
      "Ġbuying": 7968,
      "Ġdentist": 7969,
      "last": 7970,
      "Ġneedles": 7971,
      "Ġdesired": 7972,
      "Ġlifting": 7973,
      "Ġcautiously": 7974,
      "bird": 7975,
      "izzie": 7976,
      "Ġinterested": 7977,
      "Ġgenerated": 7978,
      "Ġathlete": 7979,
      "Ġopp": 7980,
      "DO": 7981,
      "ĠThose": 7982,
      "Ġencount": 7983,
      "Pe": 7984,
      "Ġflavor": 7985,
      "Ġannoy": 7986,
      "Ġdaisies": 7987,
      "Ġhesitated": 7988,
      "Ġfuzzy": 7989,
      "Ġgrowls": 7990,
      "Ġcrackers": 7991,
      "Ġcott": 7992,
      "MATCHES": 7993,
      "ĠâĢĺ": 7994,
      "agic": 7995,
      "Ġgrabbing": 7996,
      "Ġstomped": 7997,
      "mo": 7998,
      "Ġfigured": 7999,
      "ĠGoodbye": 8000,
      "Sc": 8001,
      "ĠFido": 8002,
      "Ġconver": 8003,
      "Ġrate": 8004,
      "ĠRolly": 8005,
      "Ġswans": 8006,
      "Ġgri": 8007,
      "asm": 8008,
      "Ġ('": 8009,
      "?'": 8010,
      "Ġwebs": 8011,
      "Ġexhausted": 8012,
      "Ġserver": 8013,
      "Ġsweets": 8014,
      "RANCH": 8015,
      "Gr": 8016,
      "Ġcheeks": 8017,
      ".,": 8018,
      "imens": 8019,
      "ĠCathy": 8020,
      "BRANCH": 8021,
      "Ġsklearn": 8022,
      "cer": 8023,
      "itches": 8024,
      "Ġborrowed": 8025,
      "Ġsuffering": 8026,
      "ĠJessie": 8027,
      "ĠNothing": 8028,
      "temperature": 8029,
      "33": 8030,
      "band": 8031,
      "mp": 8032,
      "vroom": 8033,
      "Ġfreed": 8034,
      "return": 8035,
      "Ġamong": 8036,
      "rink": 8037,
      "Ġbackward": 8038,
      "Ġforehead": 8039,
      "width": 8040,
      "Ġlungs": 8041,
      "aired": 8042,
      "fr": 8043,
      "column": 8044,
      "Ġbakery": 8045,
      "sage": 8046,
      "Ġaff": 8047,
      "DEST": 8048,
      "ĠMilo": 8049,
      "Ġdictionaries": 8050,
      "Lilly": 8051,
      "ĠComplete": 8052,
      "Ġchuckled": 8053,
      "May": 8054,
      "Ġdetermine": 8055,
      "rops": 8056,
      "Ġcolored": 8057,
      "elle": 8058,
      "process": 8059,
      "Ġproperty": 8060,
      "Ġswept": 8061,
      "ĠListen": 8062,
      "};": 8063,
      "Ġtapped": 8064,
      "Ġdisplayed": 8065,
      "Ġthud": 8066,
      "ĠCSS": 8067,
      "ĠOnly": 8068,
      "Ġtwinkling": 8069,
      "Ġnect": 8070,
      "ĠOtherwise": 8071,
      "Ġnectar": 8072,
      "ĠBall": 8073,
      "Ġmeals": 8074,
      "rosty": 8075,
      "Ġearn": 8076,
      "Ġfeast": 8077,
      "plication": 8078,
      "jects": 8079,
      "Ġdarling": 8080,
      "andle": 8081,
      "Ġ13": 8082,
      "Ġfires": 8083,
      "Ġworries": 8084,
      "Ġtunnels": 8085,
      "lephant": 8086,
      "Ġrepaired": 8087,
      "ĠTrust": 8088,
      "Ġsense": 8089,
      "ĠCopper": 8090,
      "this": 8091,
      "Ġver": 8092,
      "ĠHannah": 8093,
      "Ġstolen": 8094,
      "Ġbars": 8095,
      "Ġentrance": 8096,
      "ossible": 8097,
      "Ġpecked": 8098,
      "Ġchop": 8099,
      "Ġtesting": 8100,
      "Ġraind": 8101,
      "Sort": 8102,
      "ength": 8103,
      "Ġmailed": 8104,
      "ael": 8105,
      "Ġnests": 8106,
      "Ġwaiter": 8107,
      "Ġcuddly": 8108,
      "ĠChrist": 8109,
      "factor": 8110,
      "Ġhandles": 8111,
      "ĠNana": 8112,
      "Ġthrown": 8113,
      "Ġpeeking": 8114,
      "Ġrepresents": 8115,
      "AND": 8116,
      "arky": 8117,
      "ĠCara": 8118,
      "Ġplain": 8119,
      "Ġplenty": 8120,
      "Ġtoken": 8121,
      "Ġscores": 8122,
      "sqrt": 8123,
      "Ġslammed": 8124,
      "anner": 8125,
      "Ġforgets": 8126,
      "ĠBirthday": 8127,
      "Ġincreased": 8128,
      "ĠRain": 8129,
      "Expl": 8130,
      "armer": 8131,
      "Ġbudge": 8132,
      "Ġdetails": 8133,
      "Queen": 8134,
      "inner": 8135,
      "inct": 8136,
      "aren": 8137,
      "Ġfever": 8138,
      "ĠOliver": 8139,
      "ĠDefine": 8140,
      "Ġhandful": 8141,
      "Ġfilms": 8142,
      "Ġimpossible": 8143,
      "Ġdetermination": 8144,
      "mas": 8145,
      "Ġfeeding": 8146,
      "output": 8147,
      "Ġgenie": 8148,
      "ĠURL": 8149,
      "Ġlanguages": 8150,
      "Ġstool": 8151,
      "Ġincrement": 8152,
      "Ġpd": 8153,
      "Ġtalks": 8154,
      "iggie": 8155,
      "pose": 8156,
      "ĠPup": 8157,
      "Age": 8158,
      "anda": 8159,
      "ĠSuzie": 8160,
      "Ġclient": 8161,
      "Ġpassports": 8162,
      "Ġbaths": 8163,
      "Ġspikes": 8164,
      "Ġwobble": 8165,
      "token": 8166,
      "Ġerrors": 8167,
      "Ġsiblings": 8168,
      "boat": 8169,
      "Ġbuses": 8170,
      "ability": 8171,
      "Ġrecursion": 8172,
      "Ġspreading": 8173,
      "ĠTake": 8174,
      "Ġexpress": 8175,
      "ĠEl": 8176,
      "Ġarguments": 8177,
      "ĠSnap": 8178,
      "Ġenv": 8179,
      "Ġhtml": 8180,
      "fire": 8181,
      "iam": 8182,
      "Ġsty": 8183,
      "Ġwiping": 8184,
      "ĠPer": 8185,
      "Ġhonked": 8186,
      "Item": 8187,
      "ichael": 8188,
      "Whee": 8189,
      "]))": 8190,
      "nies": 8191,
      "Ġcowb": 8192,
      "Dan": 8193,
      "Ġgrep": 8194,
      "Ġtweet": 8195,
      "########": 8196,
      "reg": 8197,
      "Ġrecommended": 8198,
      "Ġhops": 8199,
      "etty": 8200,
      "ĠTwinkle": 8201,
      "ĠMan": 8202,
      "Ġsewing": 8203,
      "Ġdepartment": 8204,
      "retch": 8205,
      "Ġtwinkle": 8206,
      "Ġmodels": 8207,
      "Ġiteration": 8208,
      "ĠBloom": 8209,
      "Ġcamping": 8210,
      "ĠMira": 8211,
      "spe": 8212,
      "Ġvector": 8213,
      "Ġbas": 8214,
      "ibility": 8215,
      "Sunny": 8216,
      "state": 8217,
      "Ġcelebration": 8218,
      "Ġcash": 8219,
      "Ġliqu": 8220,
      "Ġseaw": 8221,
      "Ġpurch": 8222,
      "Ġignoring": 8223,
      "ype": 8224,
      "Ġbits": 8225,
      "Ġsquealed": 8226,
      "Ġsentiment": 8227,
      "immer": 8228,
      "Ġspat": 8229,
      "cope": 8230,
      "Ġsnatched": 8231,
      "\"))": 8232,
      "itched": 8233,
      "ron": 8234,
      "rig": 8235,
      "Ġsway": 8236,
      "ĠTra": 8237,
      "Rose": 8238,
      "inations": 8239,
      "Ġdollhouse": 8240,
      "Ġdirections": 8241,
      "ieve": 8242,
      "long": 8243,
      "Ġache": 8244,
      "Ġkings": 8245,
      "Ġshops": 8246,
      "aura": 8247,
      "Ġcelebrating": 8248,
      "ĠPeanut": 8249,
      "Ġfirefighters": 8250,
      "Ġshrinking": 8251,
      "rious": 8252,
      "Ġpancakes": 8253,
      "Ġleads": 8254,
      "ĠFile": 8255,
      "Ġkittens": 8256,
      "ively": 8257,
      "cuit": 8258,
      "ĠJacob": 8259,
      "ĠJessica": 8260,
      "ĠGina": 8261,
      "Ġdamage": 8262,
      "dep": 8263,
      "airy": 8264,
      "ording": 8265,
      "Ġattem": 8266,
      "Ġachieved": 8267,
      "yond": 8268,
      "Ġaction": 8269,
      "Ġgle": 8270,
      "Ġbeyond": 8271,
      "query": 8272,
      "valu": 8273,
      "tw": 8274,
      "Ġhus": 8275,
      "Ġtouches": 8276,
      "uration": 8277,
      "hog": 8278,
      "ĠHold": 8279,
      "ĠFrosty": 8280,
      "Ġrotten": 8281,
      "Ġsymbols": 8282,
      "Ġdropping": 8283,
      "ĠNina": 8284,
      "Ġhoriz": 8285,
      "Case": 8286,
      "Sandy": 8287,
      "ĠJon": 8288,
      "Ġplanning": 8289,
      "Ġwrapping": 8290,
      "ĠMel": 8291,
      "Ġcalmed": 8292,
      "years": 8293,
      "Length": 8294,
      "Ġseaweed": 8295,
      "Pipp": 8296,
      "Ġmerged": 8297,
      "Explanation": 8298,
      "Ġheading": 8299,
      "Ġtwisting": 8300,
      "Ġstroked": 8301,
      "50": 8302,
      "Ġoutfit": 8303,
      "yan": 8304,
      "Ġuntied": 8305,
      "ĠDevelop": 8306,
      "Ew": 8307,
      "Ġplayhouse": 8308,
      "Ġsupported": 8309,
      "content": 8310,
      "Ġpuppies": 8311,
      "Millie": 8312,
      "ĠWoof": 8313,
      "dec": 8314,
      "Ġscrews": 8315,
      "ployee": 8316,
      "Ġdirectory": 8317,
      "Ġassert": 8318,
      "Ġsale": 8319,
      "Ġblocked": 8320,
      "Ġastronaut": 8321,
      "Ġsomebody": 8322,
      "Ġliquid": 8323,
      "Ġaimed": 8324,
      "iversity": 8325,
      "Ġsuccessfully": 8326,
      "Ġwakes": 8327,
      "Ġsquish": 8328,
      "Ġ});": 8329,
      "Take": 8330,
      "di": 8331,
      "alys": 8332,
      "Ġposter": 8333,
      "Ġbracelets": 8334,
      "ingo": 8335,
      "alth": 8336,
      "âĢĶ": 8337,
      "alysis": 8338,
      "Ġvehicles": 8339,
      "Ġnearest": 8340,
      "cky": 8341,
      "Luckily": 8342,
      "ences": 8343,
      "Ġmarker": 8344,
      "lling": 8345,
      "Under": 8346,
      "Ġskunk": 8347,
      "Ġaccording": 8348,
      "Ġreflection": 8349,
      "Ġpennies": 8350,
      "ivery": 8351,
      "uppy": 8352,
      "Ġshoo": 8353,
      "Ġstopping": 8354,
      "Ġ{\"": 8355,
      "ĠFire": 8356,
      "Ġsnowfl": 8357,
      "ĠWithout": 8358,
      "ĠChristmas": 8359,
      "Ġlifts": 8360,
      "Car": 8361,
      "Ġtramp": 8362,
      "Ġsparks": 8363,
      "Ġfirefly": 8364,
      "Ġretrieve": 8365,
      "ammy": 8366,
      "rocess": 8367,
      "counts": 8368,
      "Ġmonths": 8369,
      "page": 8370,
      "target": 8371,
      "endy": 8372,
      "ication": 8373,
      "Jump": 8374,
      "Ġrewarded": 8375,
      "Numbers": 8376,
      "Ġversion": 8377,
      "Ġlink": 8378,
      "Ġclues": 8379,
      "Ġ(!": 8380,
      "Ġhusband": 8381,
      "Ġmes": 8382,
      "ession": 8383,
      "onse": 8384,
      "leaning": 8385,
      "Kate": 8386,
      "DE": 8387,
      "Tr": 8388,
      "cies": 8389,
      "Ġbecomes": 8390,
      "[-": 8391,
      "Ġrising": 8392,
      "Ġcousin": 8393,
      "gg": 8394,
      "Zip": 8395,
      "osen": 8396,
      "Ġhash": 8397,
      "Ġforgetting": 8398,
      "csv": 8399,
      "choice": 8400,
      "Ġpunctuation": 8401,
      "ĠSim": 8402,
      "Ġdod": 8403,
      "Ġimaginary": 8404,
      "Ġfocus": 8405,
      "ĠYesterday": 8406,
      "amount": 8407,
      "Ġchosen": 8408,
      "Ġspecies": 8409,
      "Ġdollars": 8410,
      "rigued": 8411,
      "Even": 8412,
      "oper": 8413,
      "cost": 8414,
      "Ġfart": 8415,
      "Ġcurr": 8416,
      "Ġtrampoline": 8417,
      "argest": 8418,
      "Ġstorekeeper": 8419,
      "Ġpouted": 8420,
      "ĠINT": 8421,
      "Ġsending": 8422,
      "Ġzebras": 8423,
      "oke": 8424,
      "Ġhedgehog": 8425,
      "trans": 8426,
      "ĠRollie": 8427,
      "ĠJay": 8428,
      "Ġpatients": 8429,
      "Ġcountryside": 8430,
      "Ġmesmer": 8431,
      "agram": 8432,
      "ĠKayla": 8433,
      "ĠQueen": 8434,
      "Ġpresses": 8435,
      "Ġrepeating": 8436,
      "Ġprob": 8437,
      "Ġfrowning": 8438,
      "Ġefficiently": 8439,
      "Ġ((": 8440,
      "off": 8441,
      "intersection": 8442,
      "ĠJulia": 8443,
      "driver": 8444,
      "Ġbeam": 8445,
      "Ġstreets": 8446,
      "ĠTara": 8447,
      "ĠBiggie": 8448,
      "map": 8449,
      "iti": 8450,
      "uthor": 8451,
      "Ġlengths": 8452,
      "Ġwhispers": 8453,
      "hens": 8454,
      "conn": 8455,
      "Ġslips": 8456,
      "Ġswimsuit": 8457,
      "._": 8458,
      "vest": 8459,
      "Ġwarmer": 8460,
      "Ġflapping": 8461,
      "Ġcompar": 8462,
      "ĠRobo": 8463,
      "Ġtiptoed": 8464,
      "iqu": 8465,
      "aged": 8466,
      "characters": 8467,
      "oring": 8468,
      "Ġregretted": 8469,
      "Ġexceed": 8470,
      "ĠPlay": 8471,
      "comple": 8472,
      "Ġlaying": 8473,
      "Ġrecursively": 8474,
      "Ġyelp": 8475,
      "Ġrains": 8476,
      "Ġ(`": 8477,
      "Ġeverybody": 8478,
      "Ġglued": 8479,
      "Ġcreations": 8480,
      "Ġfarthest": 8481,
      "api": 8482,
      "Ġparse": 8483,
      ".\"\"\"": 8484,
      "resp": 8485,
      "Ġrect": 8486,
      "Ġhearing": 8487,
      "cout": 8488,
      "Ġswir": 8489,
      "Ġcolder": 8490,
      "Ġshaped": 8491,
      "db": 8492,
      "Ġabs": 8493,
      "ĠElephant": 8494,
      "Ġaccur": 8495,
      "Ġexperien": 8496,
      "digit": 8497,
      "Soup": 8498,
      "ĠMoon": 8499,
      "Ġfins": 8500,
      "Ġradius": 8501,
      "top": 8502,
      "Ġrather": 8503,
      "ulty": 8504,
      "Ġcreativity": 8505,
      "Ġpopulation": 8506,
      "Ġfits": 8507,
      "Ġgross": 8508,
      "ĠID": 8509,
      "clean": 8510,
      "Ġcushions": 8511,
      "Ġrusty": 8512,
      "Get": 8513,
      "Ġstrongest": 8514,
      "\").": 8515,
      "]+": 8516,
      "flow": 8517,
      "illed": 8518,
      "ĠMikey": 8519,
      "Ġ\",": 8520,
      "uess": 8521,
      "stick": 8522,
      "vowels": 8523,
      "Always": 8524,
      "Ġdie": 8525,
      "ĠAng": 8526,
      "iece": 8527,
      "Ġtransform": 8528,
      "IZ": 8529,
      "quest": 8530,
      "Ġgracefully": 8531,
      "ibbit": 8532,
      "ĠSparky": 8533,
      "Ġdy": 8534,
      "Ġbells": 8535,
      "ĠLarry": 8536,
      "Ġindeed": 8537,
      "Ġconstraint": 8538,
      "ĠConstruct": 8539,
      "Ġguests": 8540,
      "AB": 8541,
      "Ġlending": 8542,
      "ĠChirp": 8543,
      "ential": 8544,
      "duplicates": 8545,
      "ĠRich": 8546,
      "Ġcashier": 8547,
      "Milly": 8548,
      "Ġdelivery": 8549,
      "Ġrequires": 8550,
      "Ġraincoat": 8551,
      "ĠSe": 8552,
      "Ġsniffs": 8553,
      "Ġsank": 8554,
      "gin": 8555,
      "Ġplans": 8556,
      "Ġtrembled": 8557,
      "Ġseasons": 8558,
      "idate": 8559,
      "ĠMissy": 8560,
      "Ġprocessing": 8561,
      "Ġwobbly": 8562,
      "raw": 8563,
      "Ġprof": 8564,
      "ca": 8565,
      "Color": 8566,
      "Ġadj": 8567,
      "Ġspells": 8568,
      "https": 8569,
      "IZE": 8570,
      "'],": 8571,
      "Ġdrawn": 8572,
      "Ġpurpose": 8573,
      "Ġbelts": 8574,
      "Bear": 8575,
      "Ġsurprising": 8576,
      "Ġcorners": 8577,
      "({": 8578,
      "Ġhopeful": 8579,
      "Bill": 8580,
      "ĠMat": 8581,
      "ĠSnowman": 8582,
      "Ġsens": 8583,
      "ĠEls": 8584,
      "fied": 8585,
      "ircle": 8586,
      "Ġsuitcase": 8587,
      "eds": 8588,
      "Ġvanilla": 8589,
      "ading": 8590,
      "Ġbackwards": 8591,
      "Ġunw": 8592,
      "Nina": 8593,
      "Ġspins": 8594,
      "Ġrounded": 8595,
      "Ġsuffered": 8596,
      "Ġflavors": 8597,
      "Ġ@": 8598,
      "Ġ\"))": 8599,
      "Ġund": 8600,
      "Ġslowed": 8601,
      "Ġpreparing": 8602,
      "Ġqueens": 8603,
      "Form": 8604,
      "Ġcoordinates": 8605,
      "Ġ(\"": 8606,
      "Quack": 8607,
      "'))": 8608,
      "java": 8609,
      "Ġstands": 8610,
      "Ġindicating": 8611,
      "Class": 8612,
      "Ġbehavior": 8613,
      "Ġcomparison": 8614,
      "height": 8615,
      "Ġinvalid": 8616,
      "Ġ\"$(": 8617,
      "LL": 8618,
      "Ġcapital": 8619,
      "Ġraindrops": 8620,
      "Ġforgiving": 8621,
      "Ġturtles": 8622,
      "view": 8623,
      "obody": 8624,
      "Ġraccoon": 8625,
      "ĠWoo": 8626,
      "ultip": 8627,
      "Ġpours": 8628,
      "Ġpops": 8629,
      "Ġaud": 8630,
      "ename": 8631,
      "gt": 8632,
      "Ġparagraph": 8633,
      "hew": 8634,
      "autiful": 8635,
      "Ġguy": 8636,
      "ula": 8637,
      "ĠĠĠĠĠĠĠĠĠĠĠĠĠĠĠĠĠĠĠĠĠĠĠ": 8638,
      "span": 8639,
      "Ġexclud": 8640,
      "ummies": 8641,
      "Ġproducts": 8642,
      "uzz": 8643,
      "Ġslices": 8644,
      "Ġ${": 8645,
      "Ġmanager": 8646,
      "Ġrobber": 8647,
      "Ġtying": 8648,
      "ets": 8649,
      "books": 8650,
      "customer": 8651,
      "iques": 8652,
      "Ġrepresentation": 8653,
      "Ġgit": 8654,
      "Ġev": 8655,
      "Table": 8656,
      "assert": 8657,
      "info": 8658,
      "Ġwilling": 8659,
      "Ġgeese": 8660,
      "Ġcalculated": 8661,
      "Play": 8662,
      "elia": 8663,
      "Vroom": 8664,
      "Ġwept": 8665,
      "Ġdrivers": 8666,
      "ĠBones": 8667,
      "Ġclicked": 8668,
      "ĠFuzzy": 8669,
      "ĠSophia": 8670,
      "Ġ19": 8671,
      "={": 8672,
      "Reg": 8673,
      "Ġencountered": 8674,
      "Ġsailboat": 8675,
      "abc": 8676,
      "fix": 8677,
      "push": 8678,
      "Ġmoo": 8679,
      "Ġhallway": 8680,
      "Ġimagining": 8681,
      "Ġ')": 8682,
      "Ġcoop": 8683,
      "Ġtalented": 8684,
      "Mine": 8685,
      "Ġgrip": 8686,
      "ĠJune": 8687,
      "Ġwidened": 8688,
      "Am": 8689,
      "ĠRobert": 8690,
      "ĠSpirit": 8691,
      "ĠInt": 8692,
      "Ġscored": 8693,
      "igers": 8694,
      "ifying": 8695,
      "Ġwatering": 8696,
      "ĠPam": 8697,
      "ĠBeaky": 8698,
      "Ġknots": 8699,
      "ĠIzzy": 8700,
      "memory": 8701,
      "Ġaside": 8702,
      "Ġdesigns": 8703,
      "allowed": 8704,
      "Ġsailors": 8705,
      "steps": 8706,
      "lish": 8707,
      "Ġsofter": 8708,
      "Ġtraining": 8709,
      "level": 8710,
      "Ġunsure": 8711,
      "Ġdefine": 8712,
      "Ġtipped": 8713,
      "imply": 8714,
      "Ġfigures": 8715,
      "Lulu": 8716,
      "nested": 8717,
      "Ġblinking": 8718,
      "ĠLizzie": 8719,
      "Ġtreehouse": 8720,
      "Ġpassen": 8721,
      "pat": 8722,
      "Ġstores": 8723,
      "Ġhorizon": 8724,
      "vered": 8725,
      "anged": 8726,
      "ĠArray": 8727,
      "fall": 8728,
      "Ġlarger": 8729,
      "uel": 8730,
      "alf": 8731,
      "urtle": 8732,
      "Ġovercome": 8733,
      "Ġborder": 8734,
      "Ġsqueak": 8735,
      "Ġpleasure": 8736,
      "Ġinsist": 8737,
      "TIM": 8738,
      "Ġdelivering": 8739,
      "Ġwhites": 8740,
      "Ġmultiplication": 8741,
      "Ġshown": 8742,
      "Ġhotter": 8743,
      "ĠStella": 8744,
      "Ġincludes": 8745,
      "Ġpupils": 8746,
      "Clara": 8747,
      "ighting": 8748,
      "Ġburrow": 8749,
      "Ġexception": 8750,
      "lied": 8751,
      "Ġsimply": 8752,
      "Ġangels": 8753,
      "Ġyum": 8754,
      "Ġcuriously": 8755,
      "Quick": 8756,
      "Ellie": 8757,
      "Moo": 8758,
      "ĠUsing": 8759,
      "ĠStretch": 8760,
      "Very": 8761,
      "ĠCindy": 8762,
      "ĠDoctor": 8763,
      "Ġrobots": 8764,
      "ĠRudy": 8765,
      "Total": 8766,
      "Ġtummies": 8767,
      "Ġtiss": 8768,
      "ashes": 8769,
      "Ġ14": 8770,
      "Ġthreads": 8771,
      "Ġpigeons": 8772,
      "Ġcells": 8773,
      "substring": 8774,
      "Jul": 8775,
      "Ġ40": 8776,
      "Ġrespond": 8777,
      "Maria": 8778,
      "Ruby": 8779,
      "anced": 8780,
      "Ġrumble": 8781,
      "Ġbandages": 8782,
      "Ġtossed": 8783,
      "oey": 8784,
      "Ġaccomplishment": 8785,
      "banana": 8786,
      "ironment": 8787,
      "Ġroars": 8788,
      "Ġcontainer": 8789,
      "Ġselected": 8790,
      "Ġdetect": 8791,
      "Ġtechniques": 8792,
      "]);": 8793,
      "Frank": 8794,
      "Ġgroceries": 8795,
      "position": 8796,
      "Ġmaterials": 8797,
      "Baby": 8798,
      "Put": 8799,
      "Ġtests": 8800,
      "Ġmerma": 8801,
      "Ġrout": 8802,
      "Ġfib": 8803,
      "param": 8804,
      "/$": 8805,
      "ID": 8806,
      "').": 8807,
      "\"></": 8808,
      "Ġnumpy": 8809,
      "David": 8810,
      "rehens": 8811,
      "Ġshift": 8812,
      "Dolly": 8813,
      "ĠJump": 8814,
      "OUNT": 8815,
      "Two": 8816,
      "UT": 8817,
      "ĠFarmer": 8818,
      "ĠPh": 8819,
      "Ġzipping": 8820,
      "awn": 8821,
      "vector": 8822,
      "Ġafterwards": 8823,
      "ĠNOT": 8824,
      "ivid": 8825,
      "ushing": 8826,
      "randint": 8827,
      "orter": 8828,
      "ĠMic": 8829,
      "Ġquantity": 8830,
      "ĠName": 8831,
      "Ġicing": 8832,
      "Ġblown": 8833,
      "Ġweekend": 8834,
      "kdir": 8835,
      "Ġprove": 8836,
      "!âĢĿ.": 8837,
      "64": 8838,
      "Ġmessages": 8839,
      "14": 8840,
      "ĠTia": 8841,
      "ĠTiti": 8842,
      "Ġsped": 8843,
      "obj": 8844,
      "Ġprintf": 8845,
      "Ġglee": 8846,
      "die": 8847,
      "ĠUpdate": 8848,
      "80": 8849,
      "IT": 8850,
      "Ġdip": 8851,
      "ctric": 8852,
      "ĠBeautiful": 8853,
      "disk": 8854,
      "Ġdecl": 8855,
      "Ġoccurrence": 8856,
      "Ġsurfboard": 8857,
      "Ġflipped": 8858,
      "Ġshovels": 8859,
      "Ġsports": 8860,
      "Ġmerry": 8861,
      "Ġchip": 8862,
      "ĠToot": 8863,
      "Ġsuits": 8864,
      "Like": 8865,
      "Ġremoving": 8866,
      "Ġmate": 8867,
      "AMP": 8868,
      "Ġdisturbing": 8869,
      "ĠAbbie": 8870,
      "Math": 8871,
      "odd": 8872,
      "Ġswallowed": 8873,
      "Ġcomprehens": 8874,
      "aty": 8875,
      "ening": 8876,
      "usty": 8877,
      "Ġmaker": 8878,
      "Ġsqueezing": 8879,
      "ĠStart": 8880,
      "cutive": 8881,
      "wk": 8882,
      "Ġjava": 8883,
      "ĠNumber": 8884,
      "patient": 8885,
      "Ġwaking": 8886,
      "Ġconstant": 8887,
      "Ġinner": 8888,
      "Ġintrigued": 8889,
      "Ġinsert": 8890,
      "Sad": 8891,
      "Tree": 8892,
      "Ġmarkers": 8893,
      "Ġencouraging": 8894,
      "Res": 8895,
      "Rec": 8896,
      "ĠBarky": 8897,
      "Ġcouple": 8898,
      "dire": 8899,
      "Ġpuff": 8900,
      "Ġhawk": 8901,
      "pecting": 8902,
      "rows": 8903,
      "Ġconcatenated": 8904,
      "Betty": 8905,
      "lle": 8906,
      "Ġrivers": 8907,
      "sl": 8908,
      "rypted": 8909,
      "BE": 8910,
      "upt": 8911,
      "Ġsolving": 8912,
      "orrect": 8913,
      "fibonacci": 8914,
      "fly": 8915,
      "stack": 8916,
      "Ġnodes": 8917,
      "ĠRon": 8918,
      "response": 8919,
      "utations": 8920,
      "ESTAMP": 8921,
      "zf": 8922,
      "Str": 8923,
      "Ġfamiliar": 8924,
      "std": 8925,
      "Spe": 8926,
      "palindrome": 8927,
      "Ġslipping": 8928,
      "Ġscrewdriver": 8929,
      "Ġtigers": 8930,
      "ĠEd": 8931,
      "Ġgardener": 8932,
      "ĠEmmy": 8933,
      "Ġsquishy": 8934,
      "onies": 8935,
      "ĠRyan": 8936,
      "Ġdepth": 8937,
      "Ġdefault": 8938,
      "iley": 8939,
      "Ġjars": 8940,
      "tx": 8941,
      "hel": 8942,
      "Ġposs": 8943,
      "Ġfrowns": 8944,
      "ĠSadly": 8945,
      "net": 8946,
      "www": 8947,
      "Ġfluttered": 8948,
      "Ribbit": 8949,
      "Ġtested": 8950,
      "everse": 8951,
      "cond": 8952,
      "Ġoperators": 8953,
      "Ġsprinkled": 8954,
      "city": 8955,
      "gz": 8956,
      "ĠWo": 8957,
      "Ġcreamy": 8958,
      "Ġsharks": 8959,
      "riangle": 8960,
      "Ġbru": 8961,
      "ĠKit": 8962,
      "Ġenvironment": 8963,
      "Ġgiggles": 8964,
      "Ġplot": 8965,
      "Ġ60": 8966,
      "Ġaudience": 8967,
      "ĠSl": 8968,
      "ĠLog": 8969,
      "Ġtighter": 8970,
      "Ġdivisor": 8971,
      "Ġtissue": 8972,
      "Ġfirmly": 8973,
      "Ġlies": 8974,
      "ĠIncre": 8975,
      "\")\"": 8976,
      "ĠAppend": 8977,
      "ilar": 8978,
      "ĠLaura": 8979,
      "Ġreturning": 8980,
      "ĠComp": 8981,
      "}}'": 8982,
      "adius": 8983,
      "dog": 8984,
      "mkdir": 8985,
      "Ġdp": 8986,
      "Ġbasic": 8987,
      "Ġmixture": 8988,
      "Ġthorns": 8989,
      "valuate": 8990,
      "Ġpolit": 8991,
      "TIMESTAMP": 8992,
      "Ġfunctionality": 8993,
      "icense": 8994,
      "Ġinstruments": 8995,
      "ĠBeautifulSoup": 8996,
      "ongrat": 8997,
      "Ġflip": 8998,
      "Ġenum": 8999,
      "Spike": 9000,
      "ĠTime": 9001,
      "Ġ*)": 9002,
      "Ġdrawers": 9003,
      "ongratul": 9004,
      "ĠNick": 9005,
      "Ġcloudy": 9006,
      "ĠZee": 9007,
      "Ġdisplays": 9008,
      "ĠPl": 9009,
      "Ġcrossing": 9010,
      "ĠUniversity": 9011,
      "Ġdaring": 9012,
      "Ġscient": 9013,
      "amples": 9014,
      "Ġcoloured": 9015,
      "Ġais": 9016,
      "Ġcateg": 9017,
      "Ġdynam": 9018,
      "Ġcategory": 9019,
      "earch": 9020,
      "undred": 9021,
      "tag": 9022,
      "ably": 9023,
      "Ġguide": 9024,
      "Ġmiles": 9025,
      "ĠSleep": 9026,
      "integer": 9027,
      "Ġpedaled": 9028,
      "post": 9029,
      "CORES": 9030,
      "addie": 9031,
      "01": 9032,
      "Write": 9033,
      "free": 9034,
      "Ġremoves": 9035,
      "urses": 9036,
      "Usage": 9037,
      "Ġyielded": 9038,
      "Guess": 9039,
      "Ġ'{": 9040,
      "Ġhaircuts": 9041,
      "math": 9042,
      "Ġfloats": 9043,
      "Ġerroneous": 9044,
      "Ġbackups": 9045,
      "mov": 9046,
      "Bang": 9047,
      "Ġponies": 9048,
      "ently": 9049,
      "Ġdisob": 9050,
      "Ġcrowns": 9051,
      "digits": 9052,
      "Su": 9053,
      "Ġtodd": 9054,
      "Ġneighbours": 9055,
      "hent": 9056,
      "omain": 9057,
      "ĠPatch": 9058,
      "Ġhangers": 9059,
      "Ġnervously": 9060,
      "Ġteams": 9061,
      "aven": 9062,
      "econd": 9063,
      "Zoomy": 9064,
      "Ġfills": 9065,
      "Ġpays": 9066,
      "Ġincreasing": 9067,
      "Integer": 9068,
      ":]": 9069,
      "Ġpeck": 9070,
      "Ġrespected": 9071,
      "bject": 9072,
      "eal": 9073,
      "erties": 9074,
      "ism": 9075,
      "negative": 9076,
      "Cleaning": 9077,
      "Ġnapped": 9078,
      "atitude": 9079,
      "Ġflight": 9080,
      "Ġcent": 9081,
      "Kim": 9082,
      "Ġmeaning": 9083,
      "Ġminded": 9084,
      "Ġlocation": 9085,
      "Bessie": 9086,
      "Ġhref": 9087,
      "EN": 9088,
      "Ġaim": 9089,
      "ĠChris": 9090,
      "78": 9091,
      "Boys": 9092,
      "Dear": 9093,
      "letters": 9094,
      "ĠTurtle": 9095,
      "addy": 9096,
      "iona": 9097,
      "zip": 9098,
      "ĠNear": 9099,
      "ndparent": 9100,
      "antha": 9101,
      "cription": 9102,
      "Ġconnection": 9103,
      "Ġbeeh": 9104,
      "ita": 9105,
      "Ġenthusi": 9106,
      "ĠWHERE": 9107,
      "ĠShow": 9108,
      "Ġsurfing": 9109,
      "over": 9110,
      "Ġshady": 9111,
      "arlings": 9112,
      "Ġdarlings": 9113,
      "Ġmagician": 9114,
      "square": 9115,
      "Ġenthusiasm": 9116,
      "());": 9117,
      "Ġwisely": 9118,
      ":\"": 9119,
      "Keep": 9120,
      "ĠTe": 9121,
      "second": 9122,
      "Ġstitches": 9123,
      "Ġthoughts": 9124,
      "Ġsails": 9125,
      "equ": 9126,
      "Ġlessons": 9127,
      "ursive": 9128,
      "umeric": 9129,
      "uster": 9130,
      "DER": 9131,
      "Ġcleaner": 9132,
      "Ġfactors": 9133,
      "Freddy": 9134,
      "Ġreminds": 9135,
      "Char": 9136,
      "ĠTweetie": 9137,
      "ilted": 9138,
      "ĠHello": 9139,
      "ilities": 9140,
      "cii": 9141,
      "MA": 9142,
      "ĠSoft": 9143,
      "Ġsurroundings": 9144,
      "hor": 9145,
      "Ġlim": 9146,
      "oni": 9147,
      "Ġspits": 9148,
      "tha": 9149,
      "Ġjoins": 9150,
      "Ġjoining": 9151,
      "Ġfleas": 9152,
      ".\");": 9153,
      "ango": 9154,
[...]
