{
  "version": "1.0",
  "truncation": null,
  "padding": null,
  "added_tokens": [
    {
      "id": 0,
      "content": "<PAD>",
      "single_word": false,
      "lstrip": false,
      "rstrip": false,
      "normalized": false,
      "special": true
    },
    {
      "id": 1,
      "content": "<UNK>",
      "single_word": false,
      "lstrip": false,
      "rstrip": false,
      "normalized": false,
      "special": true
    },
    {
      "id": 2,
      "content": "<BOS>",
      "single_word": false,
      "lstrip": false,
      "rstrip": false,
      "normalized": false,
      "special": true
    },
    {
      "id": 3,
      "content": "<EOS>",
      "single_word": false,
      "lstrip": false,
      "rstrip": false,
      "normalized": false,
      "special": true
    },
    {
      "id": 4,
      "content": "<|im_start|>",
      "single_word": false,
      "lstrip": false,
      "rstrip": false,
      "normalized": false,
      "special": true
    },
    {
      "id": 5,
      "content": "<|im_end|>",
      "single_word": false,
      "lstrip": false,
      "rstrip": false,
      "normalized": false,
      "special": true
    }
  ],
  "normalizer": null,
  "pre_tokenizer": {
    "type": "ByteLevel",
    "add_prefix_space": false,
    "trim_offsets": true,
    "use_regex": true
  },
  "post_processor": null,
  "decoder": {
    "type": "ByteLevel",
    "add_prefix_space": true,
    "trim_offsets": true,
    "use_regex": true
  },
  "model": {
    "type": "BPE",
    "dropout": null,
    "unk_token": "<UNK>",
    "continuing_subword_prefix": null,
    "end_of_word_suffix": null,
    "fuse_unk": false,
    "byte_fallback": false,
    "ignore_merges": false,
    "vocab": {
      "<PAD>": 0,
      "<UNK>": 1,
      "<BOS>": 2,
      "<EOS>": 3,
      "<|im_start|>": 4,
      "<|im_end|>": 5,
      "!": 6,
      "\"": 7,
      "#": 8,
      "$": 9,
      "%": 10,
      "&": 11,
      "'": 12,
      "(": 13,
      ")": 14,
      "*": 15,
      "+": 16,
      ",": 17,
      "-": 18,
      ".": 19,
      "/": 20,
      "0": 21,
      "1": 22,
      "2": 23,
      "3": 24,
      "4": 25,
      "5": 26,
      "6": 27,
      "7": 28,
      "8": 29,
      "9": 30,
      ":": 31,
      ";": 32,
      "<": 33,
      "=": 34,
      ">": 35,
      "?": 36,
      "@": 37,
      "A": 38,
      "B": 39,
      "C": 40,
      "D": 41,
      "E": 42,
      "F": 43,
      "G": 44,
      "H": 45,
      "I": 46,
      "J": 47,
      "K": 48,
      "L": 49,
      "M": 50,
      "N": 51,
      "O": 52,
      "P": 53,
      "Q": 54,
      "R": 55,
      "S": 56,
      "T": 57,
      "U": 58,
      "V": 59,
      "W": 60,
      "X": 61,
      "Y": 62,
      "Z": 63,
      "[": 64,
      "\\": 65,
      "]": 66,
      "^": 67,
      "_": 68,
      "`": 69,
      "a": 70,
      "b": 71,
      "c": 72,
      "d": 73,
      "e": 74,
      "f": 75,
      "g": 76,
      "h": 77,
      "i": 78,
      "j": 79,
      "k": 80,
      "l": 81,
      "m": 82,
      "n": 83,
      "o": 84,
      "p": 85,
      "q": 86,
      "r": 87,
      "s": 88,
      "t": 89,
      "u": 90,
      "v": 91,
      "w": 92,
      "x": 93,
      "y": 94,
      "z": 95,
      "{": 96,
      "|": 97,
      "}": 98,
      "~": 99,
      "¡": 100,
      "¢": 101,
      "£": 102,
      "¤": 103,
      "¥": 104,
      "¦": 105,
      "§": 106,
      "¨": 107,
      "©": 108,
      "ª": 109,
      "«": 110,
      "¬": 111,
      "®": 112,
      "¯": 113,
      "°": 114,
      "±": 115,
      "²": 116,
      "³": 117,
      "´": 118,
      "µ": 119,
      "¶": 120,
      "·": 121,
      "¸": 122,
      "¹": 123,
      "º": 124,
      "»": 125,
      "¼": 126,
      "½": 127,
      "¾": 128,
      "¿": 129,
      "Â": 130,
      "Ã": 131,
      "Ä": 132,
      "Å": 133,
      "Æ": 134,
      "Ç": 135,
      "È": 136,
      "É": 137,
      "Ê": 138,
      "Ë": 139,
      "Ì": 140,
      "Í": 141,
      "Î": 142,
      "Ï": 143,
      "Ð": 144,
      "Ñ": 145,
      "Ò": 146,
      "Ó": 147,
      "Ô": 148,
      "Õ": 149,
      "Ö": 150,
      "×": 151,
      "Ø": 152,
      "Ù": 153,
      "Ú": 154,
      "Û": 155,
      "Ü": 156,
      "Ý": 157,
      "à": 158,
      "á": 159,
      "â": 160,
      "ã": 161,
      "ä": 162,
      "å": 163,
      "æ": 164,
      "ç": 165,
      "è": 166,
      "é": 167,
      "ê": 168,
      "ë": 169,
      "ì": 170,
      "í": 171,
      "î": 172,
      "ï": 173,
      "ð": 174,
      "ñ": 175,
      "ò": 176,
      "ā": 177,
      "ĉ": 178,
      "Ċ": 179,
      "Č": 180,
      "ě": 181,
      "Ĝ": 182,
      "Ġ": 183,
      "Ģ": 184,
      "ģ": 185,
      "Ĥ": 186,
      "ĥ": 187,
      "Ħ": 188,
      "ħ": 189,
      "Ĩ": 190,
      "ĩ": 191,
      "Ī": 192,
      "ī": 193,
      "Ĭ": 194,
      "ĭ": 195,
      "Į": 196,
      "į": 197,
      "İ": 198,
      "ı": 199,
      "Ĳ": 200,
      "ĳ": 201,
      "Ĵ": 202,
      "ĵ": 203,
      "Ķ": 204,
      "ķ": 205,
      "ĸ": 206,
      "Ĺ": 207,
      "ĺ": 208,
      "Ļ": 209,
      "ļ": 210,
      "Ľ": 211,
      "ľ": 212,
      "Ŀ": 213,
      "ŀ": 214,
      "Ł": 215,
      "ł": 216,
      "Ń": 217,
      "Ġt": 218,
      "he": 219,
      "Ġa": 220,
      "in": 221,
      "Ġthe": 222,
      "er": 223,
      "on": 224,
      "re": 225,
      "Ġs": 226,
      "Ġ,": 227,
      "ed": 228,
      "Ġw": 229,
      "nd": 230,
      "Ġo": 231,
      "at": 232,
      "or": 233,
      "Ġc": 234,
      "en": 235,
      "Ġ.": 236,
      "it": 237,
      "Ġf": 238,
      "is": 239,
      "ar": 240,
      "es": 241,
      "ĠĠ": 242,
      "Ġb": 243,
      "Ġin": 244,
      "al": 245,
      "an": 246,
      "Ġof": 247,
      "ing": 248,
      "Ġp": 249,
      "as": 250,
      "Ġand": 251,
      "Ġto": 252,
      "ou": 253,
      "Ġm": 254,
      "ic": 255,
      "Ġd": 256,
      "le": 257,
      "ion": 258,
      "Ġh": 259,
      "ro": 260,
      "Ġre": 261,
      "st": 262,
      "Ġ\"": 263,
      "ent": 264,
      "ĠT": 265,
      "il": 266,
      "Ġe": 267,
      "Ġth": 268,
      "Ġl": 269,
      "ĠS": 270,
      "Ġn": 271,
      "Ġ1": 272,
      "am": 273,
      "om": 274,
      "ĠA": 275,
      "im": 276,
      "ct": 277,
      "el": 278,
      "ad": 279,
      "ĠC": 280,
      "Ġ@": 281,
      "et": 282,
      "Ġwas": 283,
      "ur": 284,
      "id": 285,
      "Ġon": 286,
      "ĠĠĠĠ": 287,
      "ly": 288,
      "Ġg": 289,
      "ĠM": 290,
      "Ġ'": 291,
      "ut": 292,
      "ac": 293,
      "ol": 294,
      "us": 295,
      "Ġfor": 296,
      "ot": 297,
      "ĠB": 298,
      "iv": 299,
      "ir": 300,
      "ig": 301,
      "Ġbe": 302,
      "ĠI": 303,
      "Ġst": 304,
      "ay": 305,
      "ĠThe": 306,
      "ow": 307,
      "ith": 308,
      "ers": 309,
      "-@": 310,
      "Ġ@-@": 311,
      "Ġas": 312,
      "ĠH": 313,
      "ch": 314,
      "ce": 315,
      "ation": 316,
      "Ġwith": 317,
      "un": 318,
      "Ġhe": 319,
      "Ġ2": 320,
      "Ġthat": 321,
      "ter": 322,
      "um": 323,
      "ĠP": 324,
      "Ġis": 325,
      "em": 326,
      "ul": 327,
      "ver": 328,
      "th": 329,
      "Ġal": 330,
      "ĠR": 331,
      "Ġwh": 332,
      "Ġcon": 333,
      "ra": 334,
      "Ġ(": 335,
      "ĠD": 336,
      "Ġby": 337,
      "Ġan": 338,
      "Ġit": 339,
      "ĠF": 340,
      "ĠW": 341,
      "od": 342,
      "ist": 343,
      "Ġat": 344,
      "ag": 345,
      "if": 346,
      "est": 347,
      "os": 348,
      "ĠL": 349,
      "ĠĠĠ": 350,
      "and": 351,
      "ĠG": 352,
      "rom": 353,
      "Ġ)": 354,
      "ri": 355,
      "ĠN": 356,
      "00": 357,
      "her": 358,
      "Ġv": 359,
      "av": 360,
      "Ġse": 361,
      "ain": 362,
      "art": 363,
      "Ġ19": 364,
      "pe": 365,
      "Ġde": 366,
      "ĠJ": 367,
      "Ġr": 368,
      "ate": 369,
      "Ġcom": 370,
      "ld": 371,
      "ĠE": 372,
      "Ġpro": 373,
      "Ġfrom": 374,
      "res": 375,
      "Ġex": 376,
      "Ġhis": 377,
      "ort": 378,
      "pt": 379,
      "qu": 380,
      "ber": 381,
      "ore": 382,
      "Ġsu": 383,
      "ĠO": 384,
      "ill": 385,
      "ab": 386,
      "ere": 387,
      "all": 388,
      "ew": 389,
      "op": 390,
      "igh": 391,
      "ant": 392,
      "Ġor": 393,
      "ame": 394,
      "se": 395,
      "Ġsh": 396,
      "oc": 397,
      "ak": 398,
      "ies": 399,
      "ment": 400,
      "ard": 401,
      "Ġch": 402,
      "pp": 403,
      "ud": 404,
      "ich": 405,
      "ess": 406,
      "Ġwere": 407,
      "ity": 408,
      "ĊĠĠĠĠ": 409,
      "ong": 410,
      "ive": 411,
      "Ġare": 412,
      "te": 413,
      "gh": 414,
      "Ġpl": 415,
      "ated": 416,
      "ction": 417,
      "ack": 418,
      "Ġy": 419,
      "ge": 420,
      "Ġk": 421,
      "our": 422,
      "Ġar": 423,
      "nt": 424,
      "ĠK": 425,
      "ĠU": 426,
      "ip": 427,
      "Ġle": 428,
      "Ġhad": 429,
      "ov": 430,
      "red": 431,
      "Ġnot": 432,
      "ord": 433,
      "ast": 434,
      "ĊĠĠĠ": 435,
      "Ġus": 436,
      "ĠIn": 437,
      "Ġ-": 438,
      "ould": 439,
      "Ġwhich": 440,
      "ally": 441,
      "Ġu": 442,
      "ough": 443,
      "ound": 444,
      "ass": 445,
      "ight": 446,
      "Ġâ": 447,
      "cl": 448,
      "per": 449,
      "ust": 450,
      "ary": 451,
      "ost": 452,
      "ell": 453,
      "ine": 454,
      "ian": 455,
      "Ġ=": 456,
      "ĠâĢ": 457,
      "ear": 458,
      "Ġ3": 459,
      "ue": 460,
      "pl": 461,
      "ave": 462,
      "ther": 463,
      "ĠSt": 464,
      "rit": 465,
      "ia": 466,
      "age": 467,
      "Ġun": 468,
      "end": 469,
      "ime": 470,
      "cc": 471,
      "|>": 472,
      "<|": 473,
      "Ġsc": 474,
      "ap": 475,
      "ub": 476,
      "ial": 477,
      "Ġcomp": 478,
      "Ġwhe": 479,
      "og": 480,
      "ure": 481,
      "Ġbut": 482,
      "out": 483,
      "Ġint": 484,
      "Ġcl": 485,
      "ition": 486,
      "irst": 487,
      "ide": 488,
      "so": 489,
      "Ġcont": 490,
      "ile": 491,
      "ous": 492,
      "ff": 493,
      "ie": 494,
      "fter": 495,
      "Ġad": 496,
      "ry": 497,
      "iz": 498,
      "ok": 499,
      "Ġher": 500,
      "orm": 501,
      "ĠCh": 502,
      "low": 503,
      "ult": 504,
      "ĠV": 505,
      "ind": 506,
      "ish": 507,
      "urn": 508,
      "Ġ200": 509,
      "ire": 510,
      "ru": 511,
      "int": 512,
      "wo": 513,
      "Ġ;": 514,
      "Ġfirst": 515,
      "Ġtheir": 516,
      "Ġres": 517,
      "ign": 518,
      "Ġ20": 519,
      "Ġits": 520,
      "ork": 521,
      "act": 522,
      "The": 523,
      "ome": 524,
      "Ġab": 525,
      "ond": 526,
      "ect": 527,
      "ĠHe": 528,
      "Ġalso": 529,
      "Ġhave": 530,
      "Ġ5": 531,
      "ran": 532,
      "ater": 533,
      "ach": 534,
      "ical": 535,
      "Ġ4": 536,
      "Ġper": 537,
      "hed": 538,
      "ount": 539,
      "Ġthis": 540,
      "Ġnum": 541,
      "du": 542,
      "Ġen": 543,
      "ib": 544,
      "mer": 545,
      "Ġone": 546,
      "Ġj": 547,
      "ence": 548,
      "ree": 549,
      "Ġ:": 550,
      "Ġtwo": 551,
      "own": 552,
      "Ġret": 553,
      "ex": 554,
      "Ġim": 555,
      "Ġwho": 556,
      "ice": 557,
      "Ġrec": 558,
      "Ġro": 559,
      "ĠTh": 560,
      "able": 561,
      "ke": 562,
      "Ġhas": 563,
      "ĠâĢĵ": 564,
      "ace": 565,
      "clud": 566,
      "Ġout": 567,
      "Ġdis": 568,
      "``": 569,
      "ase": 570,
      "ĊĠĠĠĠĠĠĠ": 571,
      "ĠIt": 572,
      "Ġup": 573,
      "Ġ$": 574,
      "Ġwe": 575,
      "one": 576,
      "Ġbec": 577,
      "Ġag": 578,
      "ory": 579,
      "uring": 580,
      "Ġ18": 581,
      "Ġpart": 582,
      "Ġ@.": 583,
      "Ġ@.@": 584,
      "Ġtime": 585,
      "Ġbeen": 586,
      "are": 587,
      "ations": 588,
      "##": 589,
      "ely": 590,
      "ress": 591,
      "Ġser": 592,
      "ance": 593,
      "Ġplay": 594,
      "Ġthey": 595,
      "port": 596,
      "Ġover": 597,
      "Ġdes": 598,
      "ark": 599,
      "Ġyear": 600,
      "ade": 601,
      "Ġ@,": 602,
      "Ġ@,@": 603,
      "ict": 604,
      "Ġman": 605,
      "--": 606,
      "ail": 607,
      "Ġ201": 608,
      "Ġall": 609,
      "Ġother": 610,
      "Ġafter": 611,
      "amp": 612,
      "Ġoff": 613,
      "ph": 614,
      "ens": 615,
      "Ġte": 616,
      "Ġinclud": 617,
      "Ġcan": 618,
      "Ġgo": 619,
      "ode": 620,
      "ions": 621,
      "Ġspe": 622,
      "ĠAl": 623,
      "ne": 624,
      "Ġpr": 625,
      "Ġshe": 626,
      "ĠY": 627,
      "ates": 628,
      "ng": 629,
      "ck": 630,
      "ick": 631,
      "Ġpre": 632,
      "ased": 633,
      "land": 634,
      "ring": 635,
      "Ġfil": 636,
      "Ġinto": 637,
      "we": 638,
      "Ġwould": 639,
      "Ġcomm": 640,
      "man": 641,
      "ced": 642,
      "form": 643,
      "oy": 644,
      "Ġ6": 645,
      "wn": 646,
      "Ġ/": 647,
      "cho": 648,
      "Ġsp": 649,
      "ang": 650,
      "ite": 651,
      "vel": 652,
      "Ġnew": 653,
      "Ġhim": 654,
      "Ġif": 655,
      "Ġev": 656,
      "ied": 657,
      "ve": 658,
      "Ġreturn": 659,
      "ors": 660,
      "nder": 661,
      "les": 662,
      "ash": 663,
      "ild": 664,
      "ces": 665,
      "Ġatt": 666,
      "ĊĠĠĠĠĠĠĠĠ": 667,
      "Ġgr": 668,
      "Ġne": 669,
      "start": 670,
      "rough": 671,
      "Ġchar": 672,
      "ward": 673,
      "ited": 674,
      "Ġ0": 675,
      "ake": 676,
      "ft": 677,
      "lement": 678,
      "Ġtr": 679,
      "fer": 680,
      "Ġmore": 681,
      "aw": 682,
      "ose": 683,
      "ons": 684,
      "ĊĠ": 685,
      "Ġ7": 686,
      "ĠUn": 687,
      "ĠSe": 688,
      "ĠRe": 689,
      "old": 690,
      "Ġ`": 691,
      "tern": 692,
      "ents": 693,
      "Ġthan": 694,
      "yst": 695,
      "Ġbet": 696,
      "Ġwork": 697,
      "Ġsec": 698,
      "Ġwhen": 699,
      "Ġfe": 700,
      "Ġnumber": 701,
      "Ġco": 702,
      "ath": 703,
      "Ġrem": 704,
      "ollow": 705,
      "att": 706,
      "Ġthem": 707,
      "In": 708,
      "inal": 709,
      "Ġ8": 710,
      "ember": 711,
      "rib": 712,
      "way": 713,
      "Ġme": 714,
      "aus": 715,
      "Ġso": 716,
      "Ġcol": 717,
      "ious": 718,
      "ating": 719,
      "ican": 720,
      "Ġthen": 721,
      "iss": 722,
      "Ġonly": 723,
      "ered": 724,
      "ubl": 725,
      "gr": 726,
      "Ġqu": 727,
      "ning": 728,
      "Ġapp": 729,
      "ob": 730,
      "Ġ[": 731,
      "put": 732,
      "ĠDe": 733,
      "ix": 734,
      "ystem": 735,
      "pr": 736,
      "oth": 737,
      "ween": 738,
      "Ġ9": 739,
      "ug": 740,
      "ock": 741,
      "ook": 742,
      "Ġfilm": 743,
      "ved": 744,
      "Ġcons": 745,
      ".<|": 746,
      "gan": 747,
      "ars": 748,
      "Ġagain": 749,
      "ss": 750,
      "fore": 751,
      "Ġsub": 752,
      "cted": 753,
      "Ġduring": 754,
      "Ġmost": 755,
      "Ġyou": 756,
      "ĠAr": 757,
      "Ġpo": 758,
      "Ġra": 759,
      "Ġbetween": 760,
      "ener": 761,
      "Ġ{": 762,
      "aid": 763,
      "Ġday": 764,
      "Ġend": 765,
      "Ġwhile": 766,
      "Ġpos": 767,
      "Ġwhere": 768,
      "Ġspec": 769,
      "Ġadd": 770,
      "ason": 771,
      "arg": 772,
      "Ġgame": 773,
      "orth": 774,
      "Ġfollow": 775,
      "Ġprodu": 776,
      "Ġacc": 777,
      "ript": 778,
      "Ġkn": 779,
      "Ġbu": 780,
      "Ġfun": 781,
      "Ġdef": 782,
      "Ġthrough": 783,
      "Ġabout": 784,
      "Ġunder": 785,
      "Ġear": 786,
      "Ġcharact": 787,
      "ific": 788,
      "hip": 789,
      "reat": 790,
      "ont": 791,
      "Ġthree": 792,
      "Ġdo": 793,
      "Ġfl": 794,
      "000": 795,
      "Ġcent": 796,
      "Ġind": 797,
      "ings": 798,
      "Ġinter": 799,
      "Ġ10": 800,
      "Ġ199": 801,
      "ans": 802,
      "iew": 803,
      "che": 804,
      "ational": 805,
      "Ġrele": 806,
      "Ġlater": 807,
      "Ġass": 808,
      "Ġsong": 809,
      "ood": 810,
      "Ġthere": 811,
      "orld": 812,
      "Ġset": 813,
      "ĠNew": 814,
      "ual": 815,
      "elf": 816,
      "Ġrel": 817,
      "ren": 818,
      "Ġsuch": 819,
      "ily": 820,
      "Ġform": 821,
      "very": 822,
      "Ġsecond": 823,
      "ax": 824,
      "ames": 825,
      "ever": 826,
      "Ġused": 827,
      "let": 828,
      "Ġreg": 829,
      "ular": 830,
      "Ġap": 831,
      "ll": 832,
      "itt": 833,
      "ject": 834,
      "ps": 835,
      "ike": 836,
      "Ġcall": 837,
      "ert": 838,
      "outh": 839,
      "Ġshould": 840,
      "ĠMar": 841,
      "Ġ\"$": 842,
      "Ġmade": 843,
      "Ġam": 844,
      "Ġmet": 845,
      "ĠThis": 846,
      "Ġtra": 847,
      "ics": 848,
      "```": 849,
      "bers": 850,
      "Ġsome": 851,
      "oh": 852,
      "Ġbefore": 853,
      "Ġact": 854,
      "ĠAmer": 855,
      "Ġmov": 856,
      "Ġcre": 857,
      "Ġpe": 858,
      "ĠShe": 859,
      "ived": 860,
      "ision": 861,
      "ins": 862,
      "ral": 863,
      "iel": 864,
      "ray": 865,
      "Ġrecord": 866,
      "Ġinc": 867,
      "Ġloc": 868,
      "Ġany": 869,
      "Ġinst": 870,
      "Ġent": 871,
      "Ġwrit": 872,
      "io": 873,
      "Ġimp": 874,
      "Ġem": 875,
      "Ġrev": 876,
      "als": 877,
      "Ġfour": 878,
      "Ġpubl": 879,
      "ished": 880,
      "ĠLe": 881,
      "ĠCom": 882,
      "Ġep": 883,
      "Ġlist": 884,
      "Ġ000": 885,
      "Ġac": 886,
      "bum": 887,
      "owever": 888,
      "der": 889,
      "Ġback": 890,
      "Ġsaid": 891,
      "Ġdec": 892,
      "Ġseason": 893,
      "ident": 894,
      "Ġfunction": 895,
      "Ġmus": 896,
      "ton": 897,
      "Ġsupp": 898,
      "ise": 899,
      "Ġval": 900,
      "Ġ]": 901,
      "Ġfound": 902,
      "Ġbl": 903,
      "Ġyears": 904,
      "hen": 905,
      "Ġhigh": 906,
      "Ġinv": 907,
      "oun": 908,
      "ank": 909,
      "Ġeach": 910,
      "Ġmin": 911,
      "Ġteam": 912,
      "Ġappe": 913,
      "Ġperform": 914,
      "Ġuse": 915,
      "####": 916,
      "Ġshow": 917,
      "up": 918,
      "Ġbeing": 919,
      "Ġsur": 920,
      "ures": 921,
      "Ġ<": 922,
      "ĊĠĠĠĠĠĠĠĠĠĠĠ": 923,
      "eng": 924,
      "Ġno": 925,
      "ause": 926,
      "Ġalbum": 927,
      "my": 928,
      "Ġdif": 929,
      "ĠOn": 930,
      "ek": 931,
      "rans": 932,
      "ired": 933,
      "ower": 934,
      "ep": 935,
      "son": 936,
      "ext": 937,
      "ained": 938,
      "ĠSh": 939,
      "Ġexper": 940,
      "Ġrun": 941,
      "Ġboth": 942,
      "ata": 943,
      "ey": 944,
      "Ġpres": 945,
      "Ġmod": 946,
      "other": 947,
      "air": 948,
      "ull": 949,
      "orn": 950,
      "Ġdire": 951,
      "Ġepis": 952,
      "Ġmain": 953,
      "Ġsm": 954,
      "ury": 955,
      "ten": 956,
      "velop": 957,
      "au": 958,
      "Ġmat": 959,
      "Ġob": 960,
      "Ġagainst": 961,
      "its": 962,
      "Ġlong": 963,
      "ince": 964,
      "ik": 965,
      "ty": 966,
      "Ġcount": 967,
      "ange": 968,
      "Ġ17": 969,
      "aj": 970,
      "()": 971,
      "Ġincluding": 972,
      "Ġsing": 973,
      "cept": 974,
      "ful": 975,
      "Ġprov": 976,
      "ier": 977,
      "Ġmon": 978,
      "ined": 979,
      "ale": 980,
      "erm": 981,
      "Ġsever": 982,
      "----": 983,
      "ather": 984,
      "Ġ12": 985,
      "Ġlead": 986,
      "Ġdid": 987,
      "Ġresult": 988,
      "ement": 989,
      "rop": 990,
      "Ġbecame": 991,
      "Ġwell": 992,
      "ised": 993,
      "ative": 994,
      "ines": 995,
      "ared": 996,
      "Ġop": 997,
      "ize": 998,
      "Ġ15": 999,
      "Ġcould": 1000,
      "sh": 1001,
      "ec": 1002,
      "ird": 1003,
      "Ġscript": 1004,
      "row": 1005,
      "ĠBrit": 1006,
      "ĠAn": 1007,
      "Ġstud": 1008,
      "ield": 1009,
      "az": 1010,
      "ĠAt": 1011,
      "ĠAd": 1012,
      "ĠâĢĶ": 1013,
      "..": 1014,
      "Ġpol": 1015,
      "ohn": 1016,
      "Ġstart": 1017,
      "Ġvar": 1018,
      "vern": 1019,
      "Ġseries": 1020,
      "Ġpass": 1021,
      "oup": 1022,
      "ities": 1023,
      "Ġclass": 1024,
      "ĠUnited": 1025,
      "ĠAmerican": 1026,
      "Ġexp": 1027,
      "ife": 1028,
      "ues": 1029,
      "ober": 1030,
      "led": 1031,
      "Ġgener": 1032,
      "Ġusing": 1033,
      "Ġdevelop": 1034,
      "Ġ}": 1035,
      "Ġwill": 1036,
      "Ġorig": 1037,
      "apt": 1038,
      "Ġgiv": 1039,
      "ivers": 1040,
      "ross": 1041,
      "ove": 1042,
      "Ġhand": 1043,
      "ink": 1044,
      "Ġcontin": 1045,
      "uch": 1046,
      "ley": 1047,
      "Ġ#": 1048,
      "de": 1049,
      "iet": 1050,
      "Ġ198": 1051,
      "Ġeff": 1052,
      "Ġfeat": 1053,
      "ron": 1054,
      "any": 1055,
      "ĠSc": 1056,
      "ution": 1057,
      "ided": 1058,
      "ouse": 1059,
      "ann": 1060,
      "iver": 1061,
      "Ġele": 1062,
      "imes": 1063,
      "Ġ194": 1064,
      "Ġmill": 1065,
      "Ġmany": 1066,
      "=\"": 1067,
      "ĠAs": 1068,
      "Ġrequ": 1069,
      "tend": 1070,
      "Ġcar": 1071,
      "Ġunt": 1072,
      "ĠEng": 1073,
      "get": 1074,
      "Ġbro": 1075,
      "Ġdist": 1076,
      "Ġoper": 1077,
      "ah": 1078,
      "Ġconst": 1079,
      "Ġcalled": 1080,
      "Ġair": 1081,
      "ible": 1082,
      "Ġpop": 1083,
      "ized": 1084,
      "Ġrece": 1085,
      "Ġship": 1086,
      "Ġ16": 1087,
      "Ġepisode": 1088,
      "ern": 1089,
      "cess": 1090,
      "Ġtrans": 1091,
      "Ġwar": 1092,
      "ĠThey": 1093,
      "ually": 1094,
      "Ġfollowing": 1095,
      "olog": 1096,
      "urre": 1097,
      "Ġelement": 1098,
      "ble": 1099,
      "gram": 1100,
      "Ġ+": 1101,
      "ccess": 1102,
      "Ġseveral": 1103,
      "Ġuntil": 1104,
      "ĠJohn": 1105,
      "Ġ11": 1106,
      "though": 1107,
      "ts": 1108,
      "oot": 1109,
      "Ġprev": 1110,
      "Ġmay": 1111,
      "Ġknown": 1112,
      "ĠInd": 1113,
      "aking": 1114,
      "Ġname": 1115,
      "Ġcharacter": 1116,
      "ĠWh": 1117,
      "Ġsign": 1118,
      "Ġlike": 1119,
      "ys": 1120,
      "erson": 1121,
      "ism": 1122,
      "ven": 1123,
      "ĠSp": 1124,
      "Ġthese": 1125,
      "Ġdesign": 1126,
      "app": 1127,
      "mp": 1128,
      "ople": 1129,
      "ued": 1130,
      ");": 1131,
      "Ġbegan": 1132,
      "iam": 1133,
      "amed": 1134,
      "Ġrep": 1135,
      "Ġown": 1136,
      "ĠZ": 1137,
      "ĠCl": 1138,
      "con": 1139,
      "yth": 1140,
      "Ġph": 1141,
      "Ġfind": 1142,
      "Ġdesc": 1143,
      "Ġinf": 1144,
      "==": 1145,
      "ĠAust": 1146,
      "Ġ197": 1147,
      "Ġpoint": 1148,
      "Ġest": 1149,
      "Ġbel": 1150,
      "Ġ196": 1151,
      "Ġart": 1152,
      "chool": 1153,
      "ets": 1154,
      "Ġdown": 1155,
      "Ġnear": 1156,
      "ĠGer": 1157,
      "ient": 1158,
      "Ġmusic": 1159,
      "ists": 1160,
      "Ġsame": 1161,
      "Ġsim": 1162,
      "cy": 1163,
      "ured": 1164,
      "Ġfin": 1165,
      "Ġstring": 1166,
      "Ġocc": 1167,
      "ially": 1168,
      "Ġreleased": 1169,
      "Ġearly": 1170,
      "Ġopen": 1171,
      "Ġins": 1172,
      "ric": 1173,
      "Ġcrit": 1174,
      "Ġmem": 1175,
      "Ġbased": 1176,
      "Ġsupport": 1177,
      "ner": 1178,
      "Ġprogram": 1179,
      "ĠAfter": 1180,
      "une": 1181,
      "ĠCon": 1182,
      "osed": 1183,
      "Ġalong": 1184,
      "ĠWar": 1185,
      "ĠUS": 1186,
      "Ġbecause": 1187,
      "ĠBl": 1188,
      "lex": 1189,
      "Ġdisc": 1190,
      "rid": 1191,
      "gg": 1192,
      "ĠMay": 1193,
      "Ġsystem": 1194,
      "eb": 1195,
      "Ġdep": 1196,
      "Ġdiffer": 1197,
      "Ġ%": 1198,
      "ĠCol": 1199,
      "Ġ13": 1200,
      "Ġaround": 1201,
      "Ġmillion": 1202,
      "Ġhead": 1203,
      "Ġsuccess": 1204,
      "vers": 1205,
      "ium": 1206,
      "Ġdr": 1207,
      "Ġaut": 1208,
      "und": 1209,
      "Ġallow": 1210,
      "Ġfam": 1211,
      "Ġconf": 1212,
      "Ġoffic": 1213,
      "err": 1214,
      "ract": 1215,
      "Ġbuild": 1216,
      "Ġext": 1217,
      "ER": 1218,
      "ility": 1219,
      "urrent": 1220,
      "ĠBritish": 1221,
      "ling": 1222,
      "Ġsmall": 1223,
      "Ġel": 1224,
      "arr": 1225,
      "ĠGerman": 1226,
      "Ġmil": 1227,
      "Ġpublic": 1228,
      "Ġconsid": 1229,
      "ajor": 1230,
      "Ġbo": 1231,
      "oad": 1232,
      "Ġ|": 1233,
      "Ġgu": 1234,
      "Ġhel": 1235,
      "Ġland": 1236,
      "Ġthough": 1237,
      "enn": 1238,
      "Ġstr": 1239,
      "aced": 1240,
      "ified": 1241,
      "Ġpeople": 1242,
      "Ġdirect": 1243,
      "Ġed": 1244,
      "Ġserv": 1245,
      "ĠBe": 1246,
      "els": 1247,
      "ret": 1248,
      "ĠFor": 1249,
      "Ġgovern": 1250,
      "Ġdescrib": 1251,
      "arch": 1252,
      "Ġgiven": 1253,
      "ĠAug": 1254,
      "ample": 1255,
      "Ġvers": 1256,
      "Ġtook": 1257,
      "Ã©": 1258,
      "com": 1259,
      "ages": 1260,
      "Ġdet": 1261,
      "ains": 1262,
      "ĠSept": 1263,
      "Ġattack": 1264,
      "user": 1265,
      "Ġlarg": 1266,
      "read": 1267,
      "Ġprom": 1268,
      "ĠSeptember": 1269,
      "aving": 1270,
      "Ġline": 1271,
      "Ġ--": 1272,
      "ĠAugust": 1273,
      "ĠHowever": 1274,
      "ery": 1275,
      "Ġ14": 1276,
      "ments": 1277,
      "erv": 1278,
      "ĠStates": 1279,
      "istant": 1280,
      "Ġbatt": 1281,
      "arge": 1282,
      "ĠĠĠĠĠĠĠĠ": 1283,
      "ĠWorld": 1284,
      "ute": 1285,
      "ctions": 1286,
      "Ġche": 1287,
      "Ġcommand": 1288,
      "You": 1289,
      "Ġty": 1290,
      "pect": 1291,
      "ĠJan": 1292,
      "wards": 1293,
      "ilt": 1294,
      "Ġfinal": 1295,
      "Ġ&": 1296,
      "ged": 1297,
      "Ġlast": 1298,
      "Ġstate": 1299,
      "Ġkm": 1300,
      "ĠJu": 1301,
      "ene": 1302,
      "Ġpar": 1303,
      "Ġweek": 1304,
      "pend": 1305,
      "Ġann": 1306,
      "Ġwin": 1307,
      "Ġhist": 1308,
      "ored": 1309,
      "Ġadv": 1310,
      "ĠQ": 1311,
      "Ġbash": 1312,
      "Ġleft": 1313,
      "dition": 1314,
      "omet": 1315,
      "ĠOct": 1316,
      "Ġsix": 1317,
      "Ġi": 1318,
      "ython": 1319,
      "ately": 1320,
      "ĠFran": 1321,
      "Ġnorth": 1322,
      "oss": 1323,
      "Ġ195": 1324,
      "Ġwhat": 1325,
      "Ġreceived": 1326,
      "Ġarea": 1327,
      "uss": 1328,
      "ĠIs": 1329,
      "ĠAustral": 1330,
      "ength": 1331,
      "ively": 1332,
      "ĠNov": 1333,
      "raft": 1334,
      "ants": 1335,
      "ruct": 1336,
      "ĠAll": 1337,
      "ott": 1338,
      "Ġreport": 1339,
      "Ġincre": 1340,
      "Ġ193": 1341,
      "med": 1342,
      "ison": 1343,
      "Ġarray": 1344,
      "ĠOctober": 1345,
      "Ġmake": 1346,
      "system": 1347,
      "Ġtri": 1348,
      "Ġvery": 1349,
      "Ġfive": 1350,
      "ording": 1351,
      "Ġorder": 1352,
      "):": 1353,
      "Ġjust": 1354,
      "urch": 1355,
      "Ġbre": 1356,
      "val": 1357,
      "Ġpartic": 1358,
      "Ġcity": 1359,
      "Ġconc": 1360,
      "Ġappro": 1361,
      "Ġlarge": 1362,
      "oint": 1363,
      "Ġaddition": 1364,
      "self": 1365,
      "Ġexpert": 1366,
      "Ġsum": 1367,
      "Ġmed": 1368,
      "ches": 1369,
      "Ġcontro": 1370,
      "Ġdiv": 1371,
      "Ġ191": 1372,
      "Ġref": 1373,
      "Ġbook": 1374,
      "Ġsingle": 1375,
      "ĠYork": 1376,
      "riend": 1377,
      "ĠCan": 1378,
      "rist": 1379,
      "Ġworld": 1380,
      "ina": 1381,
      "Ġ30": 1382,
      "Ġright": 1383,
      "Ġcentury": 1384,
      "bin": 1385,
      "ission": 1386,
      "Ġnamed": 1387,
      "Ġrest": 1388,
      "Ġsince": 1389,
      "echo": 1390,
      "empt": 1391,
      "ians": 1392,
      "Ġmajor": 1393,
      "hes": 1394,
      "ĠJune": 1395,
      "uc": 1396,
      "raph": 1397,
      "name": 1398,
      "play": 1399,
      "Ġexpl": 1400,
      "by": 1401,
      "atic": 1402,
      "Ġ100": 1403,
      "akes": 1404,
      "ĠNorth": 1405,
      "Ġband": 1406,
      "ym": 1407,
      "ords": 1408,
      "${": 1409,
      "Ġold": 1410,
      "Ġscripting": 1411,
      "Ġgre": 1412,
      "Ġsl": 1413,
      "ĠJuly": 1414,
      "ĠPro": 1415,
      "ting": 1416,
      "urs": 1417,
      "cul": 1418,
      "ĊĠĠĠĠĠ": 1419,
      "Ġeven": 1420,
      "gin": 1421,
      "assistant": 1422,
      "Ġmonth": 1423,
      "ional": 1424,
      "lish": 1425,
      "ĠNovember": 1426,
      "Ġ25": 1427,
      "hod": 1428,
      "ĠPr": 1429,
      "ĠCar": 1430,
      "ody": 1431,
      "Ġturn": 1432,
      "Ġcharacters": 1433,
      "ats": 1434,
      "Ġtrack": 1435,
      "Ġgroup": 1436,
      "ĠKing": 1437,
      "Ġcode": 1438,
      "Ġarr": 1439,
      "'s": 1440,
      "pril": 1441,
      "Ġposition": 1442,
      "ĊĊĠĠĠ": 1443,
      "iqu": 1444,
      "ural": 1445,
      "Ġanother": 1446,
      "ĠApril": 1447,
      "uary": 1448,
      "Ġwant": 1449,
      "uro": 1450,
      "ĠComm": 1451,
      "Ġmuch": 1452,
      "aim": 1453,
      "ĠPl": 1454,
      "over": 1455,
      "ĠMarch": 1456,
      "tt": 1457,
      "ales": 1458,
      "Ġplace": 1459,
      "Ġresp": 1460,
      "Ġthird": 1461,
      "rand": 1462,
      "Ġdifferent": 1463,
      "Ġway": 1464,
      "Ġevent": 1465,
      "Ġplayed": 1466,
      "Ġwithin": 1467,
      "Ġhome": 1468,
      "mber": 1469,
      "Ġcor": 1470,
      "ĠMan": 1471,
      "Ġvis": 1472,
      "Ġdue": 1473,
      "ives": 1474,
      "ĠWill": 1475,
      "bo": 1476,
      "Ġtit": 1477,
      "Ġport": 1478,
      "Ġfr": 1479,
      "par": 1480,
      "Ġlocal": 1481,
      "Ġnext": 1482,
      "Ġhelp": 1483,
      "ĠPh": 1484,
      "yn": 1485,
      "}\"": 1486,
      "Ġrepl": 1487,
      "rote": 1488,
      "ica": 1489,
      "Ġsouth": 1490,
      "Ġshort": 1491,
      "Ġnumbers": 1492,
      "Ġcr": 1493,
      "inc": 1494,
      "Ġperson": 1495,
      "alf": 1496,
      "Ġincluded": 1497,
      "Ġprevious": 1498,
      "Ġchild": 1499,
      "Ġschool": 1500,
      "Ġtot": 1501,
      "\",": 1502,
      "Ġ...": 1503,
      "ĠMc": 1504,
      "ittle": 1505,
      "avy": 1506,
      "Ġposs": 1507,
      "Ġcurrent": 1508,
      "ĠDece": 1509,
      "ience": 1510,
      "xt": 1511,
      "Ġmatch": 1512,
      "Ġget": 1513,
      "ator": 1514,
      "Ġterm": 1515,
      "ĠDecember": 1516,
      "Ġequ": 1517,
      "Ġpower": 1518,
      "Ġbuilt": 1519,
      "Ġtop": 1520,
      "ĠSouth": 1521,
      "Ġinput": 1522,
      "Ġnow": 1523,
      "Ġcolle": 1524,
      "urther": 1525,
      "ense": 1526,
      "ides": 1527,
      "ĠWe": 1528,
      "Ġsent": 1529,
      "On": 1530,
      "Ġneed": 1531,
      "ĠJanuary": 1532,
      "ploy": 1533,
      "ital": 1534,
      "Ġprint": 1535,
      "Ġtest": 1536,
      "Ġiss": 1537,
      "ĠBy": 1538,
      "ague": 1539,
      "ently": 1540,
      "Ġinit": 1541,
      "ĠIf": 1542,
      "Ġwrote": 1543,
      "ane": 1544,
      "Ġ192": 1545,
      "anc": 1546,
      "por": 1547,
      "Ġ\\": 1548,
      "Ġwon": 1549,
      "ĠGr": 1550,
      "Ġbest": 1551,
      "af": 1552,
      "Ġgovernment": 1553,
      "Ġoriginal": 1554,
      "Ġlife": 1555,
      "ead": 1556,
      "ball": 1557,
      "Ġecho": 1558,
      "ention": 1559,
      "Ġstory": 1560,
      "AT": 1561,
      "Ġkill": 1562,
      "num": 1563,
      "Ġcare": 1564,
      "ically": 1565,
      "Ġdem": 1566,
      "Ġeng": 1567,
      "Ġreview": 1568,
      "apan": 1569,
      "Ġdata": 1570,
      "ger": 1571,
      "Ġmen": 1572,
      "ĠGe": 1573,
      "Ġmid": 1574,
      "ister": 1575,
      "Ġcamp": 1576,
      "ĠBro": 1577,
      "Ġcour": 1578,
      "ĠYou": 1579,
      "aining": 1580,
      "Ġstill": 1581,
      "side": 1582,
      "Ġsol": 1583,
      "Ġattempt": 1584,
      "Ġav": 1585,
      "########": 1586,
      "ST": 1587,
      "Ġfamily": 1588,
      "ature": 1589,
      "Ġappear": 1590,
      "Ġfre": 1591,
      "Ġdeath": 1592,
      "alk": 1593,
      "ilar": 1594,
      "ched": 1595,
      "Ġmark": 1596,
      "ĠEd": 1597,
      "ached": 1598,
      "(\"": 1599,
      "ĠII": 1600,
      "Ġwithout": 1601,
      "ĠJapan": 1602,
      "Ġdescribed": 1603,
      "Ġled": 1604,
      "Ġ>": 1605,
      "ices": 1606,
      "ument": 1607,
      "Ġgun": 1608,
      "oman": 1609,
      "elt": 1610,
      "ness": 1611,
      "Ġtotal": 1612,
      "Ġthose": 1613,
      "Ġes": 1614,
      "ney": 1615,
      "ases": 1616,
      "iod": 1617,
      "hor": 1618,
      "ences": 1619,
      "Ġmar": 1620,
      "ĠBr": 1621,
      "Ġorgan": 1622,
      "ideo": 1623,
      "ask": 1624,
      "Ġsk": 1625,
      "yl": 1626,
      "Ġview": 1627,
      "Ġcap": 1628,
      "Ġeffect": 1629,
      "ior": 1630,
      "Ġ!": 1631,
      "ĠSte": 1632,
      "ms": 1633,
      "Ġfriend": 1634,
      "ON": 1635,
      "ining": 1636,
      "ĠEuro": 1637,
      "of": 1638,
      "Ġwater": 1639,
      "Ġsort": 1640,
      "Ġexample": 1641,
      "Ġopp": 1642,
      "iversity": 1643,
      "Ġbelie": 1644,
      "Ġdeb": 1645,
      "ĠX": 1646,
      "Ġversion": 1647,
      "sc": 1648,
      "Ġcame": 1649,
      "Ġgames": 1650,
      "ves": 1651,
      "ĠOr": 1652,
      "atch": 1653,
      "eter": 1654,
      "omin": 1655,
      "Ġcomplet": 1656,
      "Ġreal": 1657,
      "ipp": 1658,
      "lu": 1659,
      "Ġrange": 1660,
      "ival": 1661,
      "oci": 1662,
      "ĠÂ": 1663,
      "rench": 1664,
      "Ġsay": 1665,
      "Ġcapt": 1666,
      "augh": 1667,
      "ĠGu": 1668,
      "ĠAnd": 1669,
      "aken": 1670,
      "Ġdam": 1671,
      "Ġgreat": 1672,
      "Ġvalue": 1673,
      "ebru": 1674,
      "Ġdays": 1675,
      "Ġdest": 1676,
      "ĠHis": 1677,
      "ebruary": 1678,
      "aster": 1679,
      "iving": 1680,
      "ĠFebruary": 1681,
      "print": 1682,
      "ĠWhen": 1683,
      "ried": 1684,
      "Ġleg": 1685,
      "Ġmax": 1686,
      "Ġimport": 1687,
      "Ġread": 1688,
      "ĠTr": 1689,
      "na": 1690,
      "rodu": 1691,
      "Ġperiod": 1692,
      "Ġside": 1693,
      "oute": 1694,
      "Ġtake": 1695,
      "Ġspecies": 1696,
      "min": 1697,
      "Ġmethod": 1698,
      "Ġwind": 1699,
      "Ġpresent": 1700,
      "itive": 1701,
      "Ġheld": 1702,
      "ĠFl": 1703,
      "ested": 1704,
      "ify": 1705,
      "Ġstand": 1706,
      "Ġcaus": 1707,
      "uted": 1708,
      "--------": 1709,
      "Ġtem": 1710,
      "Ġmembers": 1711,
      "Ġpost": 1712,
      "tended": 1713,
      "Ġke": 1714,
      "Ġlate": 1715,
      "ĠChrist": 1716,
      "Ġrole": 1717,
      "Ġstat": 1718,
      "ĠNational": 1719,
      "Ġevery": 1720,
      "line": 1721,
      "Ġrelease": 1722,
      "Ġrepres": 1723,
      "Ġalthough": 1724,
      "ards": 1725,
      "ridge": 1726,
      "Ġsold": 1727,
      "Ġcal": 1728,
      "Ġ21": 1729,
      "Ġformer": 1730,
      "rican": 1731,
      "Ġless": 1732,
      "ĠTe": 1733,
      "ĠEurope": 1734,
      "hel": 1735,
      "St": 1736,
      "ĠFrench": 1737,
      "ĊĠĠ": 1738,
      "Ġwent": 1739,
      "ots": 1740,
      "Ġstorm": 1741,
      "Ġdel": 1742,
      "Ġlength": 1743,
      "oon": 1744,
      "lev": 1745,
      "Ġelements": 1746,
      "Ġstre": 1747,
      "Ġ*": 1748,
      "Ġestab": 1749,
      "ony": 1750,
      "Ġfew": 1751,
      "aged": 1752,
      "Ġtw": 1753,
      "Ġinclude": 1754,
      "Ġlevel": 1755,
      "vert": 1756,
      "Ġhum": 1757,
      "Ġhow": 1758,
      "Ġcomplex": 1759,
      "Ġbeh": 1760,
      "Ġcommon": 1761,
      "Ġ24": 1762,
      "Ġ2010": 1763,
      "ĠHer": 1764,
      "bs": 1765,
      "Ġste": 1766,
      "ency": 1767,
      "ances": 1768,
      "ĠĠĠĠĠĠĠ": 1769,
      "ĠPar": 1770,
      "Ġsimilar": 1771,
      "ush": 1772,
      "verage": 1773,
      "Ġprop": 1774,
      "Ġhig": 1775,
      "ops": 1776,
      "Ġhowever": 1777,
      "Ġvideo": 1778,
      "Ġfurther": 1779,
      "Ġlittle": 1780,
      "Ġpat": 1781,
      "ĠWest": 1782,
      "Ġoften": 1783,
      "inally": 1784,
      "Ġcontinued": 1785,
      "Ġfail": 1786,
      "Ġtown": 1787,
      "Ġpolit": 1788,
      "ĠOne": 1789,
      "Ġamong": 1790,
      "DI": 1791,
      "ĠCo": 1792,
      "Ġprocess": 1793,
      "ĠCal": 1794,
      ".\"": 1795,
      "reen": 1796,
      "ĠEx": 1797,
      "ĠMus": 1798,
      "yle": 1799,
      "Ġyour": 1800,
      "ler": 1801,
      "Ġerr": 1802,
      "Ġlook": 1803,
      "ropical": 1804,
      "Ġkey": 1805,
      "Ġmult": 1806,
      "ĠWilliam": 1807,
      "Ġsw": 1808,
      "itary": 1809,
      "=$": 1810,
      "chn": 1811,
      "pite": 1812,
      "arn": 1813,
      "Ġhaving": 1814,
      "uck": 1815,
      "Ġconsidered": 1816,
      "Ġjo": 1817,
      "Ġclaim": 1818,
      "Ġhalf": 1819,
      "iment": 1820,
      "ulation": 1821,
      "ham": 1822,
      "Ġ22": 1823,
      "sequ": 1824,
      "Ġ2008": 1825,
      "Ġ2009": 1826,
      "Ġchang": 1827,
      "to": 1828,
      "Ġarg": 1829,
      "Ġage": 1830,
      "Ġlim": 1831,
      "Ġhouse": 1832,
      "AR": 1833,
      "estern": 1834,
      "arm": 1835,
      "ese": 1836,
      "Ġlaw": 1837,
      "Ġmoved": 1838,
      "Ġmag": 1839,
      "Ġ\"${": 1840,
      "irl": 1841,
      "ĠThere": 1842,
      "Ġlow": 1843,
      "rie": 1844,
      "craft": 1845,
      "rem": 1846,
      "Ġ${": 1847,
      "Ġgood": 1848,
      "Ġ2011": 1849,
      "Ġplayer": 1850,
      "Ġself": 1851,
      "Ġrefer": 1852,
      "lect": 1853,
      "ĠAm": 1854,
      "ĠGeor": 1855,
      "ĠMe": 1856,
      "Ġfact": 1857,
      "ĠEngland": 1858,
      "IN": 1859,
      "ĠDuring": 1860,
      "omen": 1861,
      "string": 1862,
      "ster": 1863,
      "ruction": 1864,
      "work": 1865,
      "imum": 1866,
      "Ġinvol": 1867,
      "Ġperformance": 1868,
      "Ġsugg": 1869,
      "ox": 1870,
      "yr": 1871,
      "Ġsqu": 1872,
      "lete": 1873,
      "ering": 1874,
      "Ġant": 1875,
      "Ġstruct": 1876,
      "ĠNo": 1877,
      "gy": 1878,
      "Ġstrong": 1879,
      "ories": 1880,
      "Ġfore": 1881,
      "Ġsomet": 1882,
      "Ġsound": 1883,
      "Ġimplement": 1884,
      "Ġplan": 1885,
      "vent": 1886,
      "Ġbecome": 1887,
      "Ġcase": 1888,
      "ones": 1889,
      "ĠEnglish": 1890,
      "ĠMich": 1891,
      "Ġroad": 1892,
      "Ġ23": 1893,
      "ote": 1894,
      "Ġeast": 1895,
      "Ġgave": 1896,
      "Ġproduction": 1897,
      "raw": 1898,
      "Ġfield": 1899,
      "Ġwest": 1900,
      "Ġprof": 1901,
      "ĠEl": 1902,
      "Ġreturned": 1903,
      "Ġcle": 1904,
      "',": 1905,
      "Ġ2007": 1906,
      "Ġask": 1907,
      "Ġcommun": 1908,
      "ĠAng": 1909,
      "ĠCity": 1910,
      "Ġ50": 1911,
      "Ġrad": 1912,
      "co": 1913,
      "ization": 1914,
      "Ġdoes": 1915,
      "ĠHar": 1916,
      "Ġinstall": 1917,
      "Ġwritten": 1918,
      "Ġsaw": 1919,
      "rew": 1920,
      "ĠCount": 1921,
      "Ġrepresent": 1922,
      "ĠPark": 1923,
      "Ġspecial": 1924,
      "LE": 1925,
      "ĠDav": 1926,
      "Ġcast": 1927,
      "ape": 1928,
      "atter": 1929,
      "roy": 1930,
      "ondon": 1931,
      "pec": 1932,
      "Ġuser": 1933,
      "oll": 1934,
      "ĠGener": 1935,
      "ĠCent": 1936,
      "Ġhour": 1937,
      "Ġord": 1938,
      "set": 1939,
      "Ġclub": 1940,
      "ests": 1941,
      "Ġ==": 1942,
      "ograph": 1943,
      "ĠEn": 1944,
      "ai": 1945,
      "head": 1946,
      "ford": 1947,
      "Ġcountry": 1948,
      "ampions": 1949,
      "ression": 1950,
      "Ġinflu": 1951,
      "ĠLondon": 1952,
      "ung": 1953,
      "Ġfoot": 1954,
      "ĠMin": 1955,
      "Ġaff": 1956,
      "Ġtimes": 1957,
      "Ġannoun": 1958,
      "Ġcontrol": 1959,
      "Ġ2012": 1960,
      "ries": 1961,
      "Ġcheck": 1962,
      "Ġanim": 1963,
      "ising": 1964,
      "Ġenc": 1965,
      "ternational": 1966,
      "ĠAir": 1967,
      "Ġfelt": 1968,
      "str": 1969,
      "NA": 1970,
      "aces": 1971,
      "iction": 1972,
      "Ġfire": 1973,
      "ges": 1974,
      "Ġbr": 1975,
      "Ġtrad": 1976,
      "Ġ190": 1977,
      "ĠChar": 1978,
      "ĊĠĠĠĠĠĠĠĠĠĠĠĠĠĠĠ": 1979,
      "ology": 1980,
      "Ġnever": 1981,
      "iety": 1982,
      "aff": 1983,
      "Ġcompany": 1984,
      "ĠRiver": 1985,
      "Ġnon": 1986,
      "ither": 1987,
      "Ġdefe": 1988,
      "Ġmaking": 1989,
      "ĠSu": 1990,
      "Ġproject": 1991,
      "ae": 1992,
      "Ġsoc": 1993,
      "Ġdecl": 1994,
      "Ġlight": 1995,
      "ĠBar": 1996,
      "Ġtoo": 1997,
      "Ġla": 1998,
      "Ġvari": 1999,
      "ille": 2000,
      "Ġprote": 2001,
      "Ġaway": 2002,
      "Ġcover": 2003,
      "iter": 2004,
      "ĠCanad": 2005,
      "Ġmy": 2006,
      "Ġgl": 2007,
      "ĠUniversity": 2008,
      "Ġpublished": 2009,
      "Ġsee": 2010,
      "Ġlost": 2011,
      "ME": 2012,
      "Th": 2013,
      "Ġvict": 2014,
      "Ġservice": 2015,
      "used": 2016,
      "Ġide": 2017,
      "Ġyoung": 2018,
      "RE": 2019,
      "ama": 2020,
      "Ġparticular": 2021,
      "Ġauthor": 2022,
      "Ġexec": 2023,
      "Ġable": 2024,
      "text": 2025,
      "ctor": 2026,
      "ald": 2027,
      "Ġbuilding": 2028,
      "Ġoccur": 2029,
      "Ġproduced": 2030,
      "ple": 2031,
      "Ġreported": 2032,
      "ĠDiv": 2033,
      "umn": 2034,
      "log": 2035,
      "ressed": 2036,
      "ĠBatt": 2037,
      "rest": 2038,
      "))": 2039,
      "Ġupon": 2040,
      "Ġlet": 2041,
      "Ġstated": 2042,
      "Ġeas": 2043,
      "Ġobject": 2044,
      "ality": 2045,
      "key": 2046,
      "ably": 2047,
      "gor": 2048,
      "Ġdisplay": 2049,
      "def": 2050,
      "ming": 2051,
      "ique": 2052,
      "ĠHigh": 2053,
      "ccording": 2054,
      "oid": 2055,
      "ĠSm": 2056,
      "alt": 2057,
      "Ġrecorded": 2058,
      "levision": 2059,
      "Ġcreated": 2060,
      "Ġ40": 2061,
      "Ġcompet": 2062,
      "Ġput": 2063,
      "Ġ27": 2064,
      "Ġ28": 2065,
      "utes": 2066,
      "Ġtitle": 2067,
      "Ġhimself": 2068,
      "ĠJack": 2069,
      "ief": 2070,
      "====": 2071,
      "Ġsize": 2072,
      "angu": 2073,
      "Ġlo": 2074,
      "ways": 2075,
      "hing": 2076,
      "Ġpopular": 2077,
      "Ġnort": 2078,
      "Ġspecific": 2079,
      "ĠSw": 2080,
      "Ġtechn": 2081,
      "Ġships": 2082,
      "Ġbus": 2083,
      "Ġten": 2084,
      "iness": 2085,
      "Ġforces": 2086,
      "**": 2087,
      "iron": 2088,
      "ĠThese": 2089,
      "aign": 2090,
      "ustom": 2091,
      "ole": 2092,
      "Ġcross": 2093,
      "Ġ2006": 2094,
      "Ġground": 2095,
      "Ġaverage": 2096,
      "Ġhistory": 2097,
      "Ġz": 2098,
      "ensive": 2099,
      "Ġwanted": 2100,
      "Ġfather": 2101,
      "osp": 2102,
      "Ġstarted": 2103,
      "Ġdevelopment": 2104,
      "ift": 2105,
      "be": 2106,
      "alth": 2107,
      "istr": 2108,
      "ington": 2109,
      "ault": 2110,
      "Ġaircraft": 2111,
      "ĠAss": 2112,
      "Ġgen": 2113,
      "aul": 2114,
      "for": 2115,
      "iting": 2116,
      "cent": 2117,
      "ems": 2118,
      "Ġsuccessful": 2119,
      "ffic": 2120,
      "bash": 2121,
      "Ġfeatures": 2122,
      "aut": 2123,
      "Ġtoget": 2124,
      "Ġtogether": 2125,
      "date": 2126,
      "Ġcareer": 2127,
      "ĠGo": 2128,
      "ava": 2129,
      "Ġmilitary": 2130,
      "Ġsongs": 2131,
      "Ġpress": 2132,
      "Ġfight": 2133,
      "Ġ26": 2134,
      "dom": 2135,
      "day": 2136,
      "ĠStre": 2137,
      "Ġchart": 2138,
      "test": 2139,
      "fic": 2140,
      "Ġacross": 2141,
      "Ġhapp": 2142,
      "arent": 2143,
      "Ġinte": 2144,
      "cer": 2145,
      "Ġcop": 2146,
      "oyal": 2147,
      "outher": 2148,
      "here": 2149,
      "Ġcritic": 2150,
      "Ġbattle": 2151,
      "aint": 2152,
      "Ġmust": 2153,
      "Ġ//": 2154,
      "amb": 2155,
      "Ġproble": 2156,
      "ĠDes": 2157,
      "Ġmonths": 2158,
      "RO": 2159,
      "ĠAustralia": 2160,
      "oe": 2161,
      "Ġfile": 2162,
      "ĠAf": 2163,
      "Ġdestroy": 2164,
      "Ġident": 2165,
      "urrican": 2166,
      "Ġintrodu": 2167,
      "Ġ2013": 2168,
      "ication": 2169,
      "Ġarch": 2170,
      "Ġchildren": 2171,
      "Ġopt": 2172,
      "Ġcondition": 2173,
      "cle": 2174,
      "ĠCor": 2175,
      "eder": 2176,
      "den": 2177,
      "Ġsignific": 2178,
      "ped": 2179,
      "outhern": 2180,
      "Ġcut": 2181,
      "aur": 2182,
      "Ġremained": 2183,
      "Ġmultip": 2184,
      "Ġleast": 2185,
      "Ġfav": 2186,
      "ĠAb": 2187,
      "Ġreached": 2188,
      "Ġimpro": 2189,
      "Ġinform": 2190,
      "ĠComp": 2191,
      "itted": 2192,
      "DIR": 2193,
      "Ġstar": 2194,
      "Ġcreate": 2195,
      "Ġcir": 2196,
      "Ġnational": 2197,
      "most": 2198,
      "Ġfull": 2199,
      "//": 2200,
      "Ġvarious": 2201,
      "Ġfiles": 2202,
      "Ġmom": 2203,
      "Ġdeveloped": 2204,
      "ampionship": 2205,
      "oice": 2206,
      "ule": 2207,
      "Ġforce": 2208,
      "Ġfollowed": 2209,
      "10": 2210,
      "Ġdied": 2211,
      "Ġ189": 2212,
      "ĠArmy": 2213,
      "ĠPres": 2214,
      "ĠGeneral": 2215,
      "ĠPol": 2216,
      "Ġnight": 2217,
      "Ġseen": 2218,
      "Ġinstead": 2219,
      "Ġexist": 2220,
      "ius": 2221,
      "Ġemploy": 2222,
      "word": 2223,
      "ertain": 2224,
      "Ġcalcul": 2225,
      "Ġthought": 2226,
      "ĠSec": 2227,
      "Ġrelations": 2228,
      "Ġft": 2229,
      "Ġelse": 2230,
      "Ġdecided": 2231,
      "ser": 2232,
      "Ġpra": 2233,
      "Ġrock": 2234,
      "Ġelect": 2235,
      "sp": 2236,
      "ĠState": 2237,
      "Ġson": 2238,
      "pper": 2239,
      "ana": 2240,
      "Ġprim": 2241,
      "Ġhistor": 2242,
      "Ġsuper": 2243,
      "emb": 2244,
      "Ġfront": 2245,
      "python": 2246,
      "ĠWith": 2247,
      "Ġneg": 2248,
      "Ġred": 2249,
      "Ġrevers": 2250,
      "Ġtour": 2251,
      "Ġofficial": 2252,
      "Ġsit": 2253,
      "ĠAlthough": 2254,
      "hest": 2255,
      "Ċĉ": 2256,
      "lands": 2257,
      "less": 2258,
      "eth": 2259,
      "field": 2260,
      "Ġcampaign": 2261,
      "ĠJames": 2262,
      "ened": 2263,
      "ĠNe": 2264,
      "Ġprovided": 2265,
      "Ġeight": 2266,
      "hern": 2267,
      "Ġredu": 2268,
      "Ġword": 2269,
      "add": 2270,
      "Ġbegin": 2271,
      "reg": 2272,
      "ael": 2273,
      "Ġvol": 2274,
      "Ġens": 2275,
      "omb": 2276,
      "acy": 2277,
      "ounter": 2278,
      "ett": 2279,
      "ĠGl": 2280,
      "Ġconv": 2281,
      "Ġnoted": 2282,
      "Ġproper": 2283,
      "oved": 2284,
      "Ġplaying": 2285,
      "Ġannounced": 2286,
      "ĠDivision": 2287,
      "Ġlik": 2288,
      "Ġknow": 2289,
      "Ġbreak": 2290,
      "Ġtro": 2291,
      "cast": 2292,
      "Ġareas": 2293,
      "ĠEar": 2294,
      "ĠChe": 2295,
      "Ġrank": 2296,
      "Ġlog": 2297,
      "Ġarm": 2298,
      "ĠLeague": 2299,
      "Ġcost": 2300,
      "Ġperformed": 2301,
      "Ġblack": 2302,
      "Ġmeet": 2303,
      "Ġhandle": 2304,
      "ĠAmerica": 2305,
      "ris": 2306,
      "imately": 2307,
      "Ġagre": 2308,
      "Ġ29": 2309,
      "Ġsepar": 2310,
      "Ġbecom": 2311,
      "tr": 2312,
      "Ġplayers": 2313,
      "view": 2314,
      "Ġpoints": 2315,
      "Ġbig": 2316,
      "dir": 2317,
      "Ġadded": 2318,
      "Ġbase": 2319,
      "Ġtelevision": 2320,
      "Ġball": 2321,
      "Ġstation": 2322,
      "ĠWhile": 2323,
      "opt": 2324,
      "ibr": 2325,
      "Ġonce": 2326,
      "iff": 2327,
      "bor": 2328,
      "Ġlarger": 2329,
      "ceed": 2330,
      "ĠâĢĻ": 2331,
      "urricane": 2332,
      "elling": 2333,
      "Ġlangu": 2334,
      "Ġsignificant": 2335,
      "olution": 2336,
      "__": 2337,
      "ĠJapanese": 2338,
      "Ġtyp": 2339,
      "ĠRuss": 2340,
      "ocal": 2341,
      "ĠSim": 2342,
      "iber": 2343,
      "Ġserved": 2344,
      "Ġtaken": 2345,
      "ĠRoad": 2346,
      "ficult": 2347,
      "Ġmanag": 2348,
      "Ġmer": 2349,
      "Ġstyle": 2350,
      "Ġearl": 2351,
      "ze": 2352,
      "Ġpolitical": 2353,
      "cript": 2354,
      "ĠStreet": 2355,
      "ators": 2356,
      "Ġactiv": 2357,
      "Ġprime": 2358,
      "ĠTo": 2359,
      "ĠReg": 2360,
      "Ġpositive": 2361,
      "Ġbody": 2362,
      "Ġbas": 2363,
      "Ġwriting": 2364,
      "Ġcoll": 2365,
      "</": 2366,
      "Ġround": 2367,
      "ĠMor": 2368,
      "Ġerror": 2369,
      "Ġaud": 2370,
      "abor": 2371,
      "idence": 2372,
      "Ġtable": 2373,
      "Ġadditional": 2374,
      "Ġdou": 2375,
      "gorith": 2376,
      "ential": 2377,
      "Ġpred": 2378,
      "Ġthroughout": 2379,
      "Ġtext": 2380,
      "Ġimportant": 2381,
      "Ġentire": 2382,
      "Ġmiss": 2383,
      "Ġ2005": 2384,
      "Ġmess": 2385,
      "Ġseven": 2386,
      "AS": 2387,
      "ĠCounty": 2388,
      "ĠEm": 2389,
      "Ġkilled": 2390,
      "unt": 2391,
      "lished": 2392,
      "Ġcomb": 2393,
      "Ġtype": 2394,
      "ara": 2395,
      "cing": 2396,
      "ĠPer": 2397,
      "Ġappl": 2398,
      "reek": 2399,
      "unction": 2400,
      "ĠEast": 2401,
      "ivid": 2402,
      "ĠSer": 2403,
      "pped": 2404,
      "rain": 2405,
      "Ġtropical": 2406,
      "Ġdifficult": 2407,
      "Ġhy": 2408,
      "reate": 2409,
      "back": 2410,
      "ades": 2411,
      "Ġfem": 2412,
      "Ġpri": 2413,
      "Ġcult": 2414,
      "Ġtre": 2415,
      "ee": 2416,
      "nding": 2417,
      "ource": 2418,
      "Ġhold": 2419,
      "Ġmember": 2420,
      "Ġfle": 2421,
      "Ġspace": 2422,
      "Ġappeared": 2423,
      "enced": 2424,
      "urg": 2425,
      "iers": 2426,
      "publ": 2427,
      "Ġ2014": 2428,
      "Ġclos": 2429,
      "ĠAccording": 2430,
      "ĠMad": 2431,
      "Ġcy": 2432,
      "Ġwhite": 2433,
      "Ġcoast": 2434,
      "Ġestablished": 2435,
      "ream": 2436,
      "Ġbroad": 2437,
      "ought": 2438,
      "Ġmm": 2439,
      "Ġquick": 2440,
      "Ġalgorith": 2441,
      "Ġroute": 2442,
      "Ġcur": 2443,
      "Ġgeneral": 2444,
      "ĊĠĠĠĠĊĠĠĠ": 2445,
      "Ġmiles": 2446,
      "ĠPe": 2447,
      "ĠBill": 2448,
      "unk": 2449,
      "igned": 2450,
      "Ġallowed": 2451,
      "list": 2452,
      "ĠGeorge": 2453,
      "ĠHen": 2454,
      "aps": 2455,
      "ĠRober": 2456,
      "cil": 2457,
      "dle": 2458,
      "pro": 2459,
      "Ġgrow": 2460,
      "ĠMon": 2461,
      "Ġcaused": 2462,
      "ĠVal": 2463,
      "DE": 2464,
      "arget": 2465,
      "Ġaward": 2466,
      "Ġeventually": 2467,
      "aval": 2468,
      "ogn": 2469,
      "Ġtry": 2470,
      "Ġwords": 2471,
      "OR": 2472,
      "ĠPhil": 2473,
      "omm": 2474,
      "Ġpossible": 2475,
      "Ġavail": 2476,
      "epend": 2477,
      "Ġfrequ": 2478,
      "asing": 2479,
      "aries": 2480,
      "ells": 2481,
      "50": 2482,
      "Ġrace": 2483,
      "Ġpriv": 2484,
      "chie": 2485,
      "ĠAustralian": 2486,
      "Ġfar": 2487,
      "rap": 2488,
      "Ġwomen": 2489,
      "Ġrespect": 2490,
      "Ġdoc": 2491,
      "Ġlocated": 2492,
      "Ġpopulation": 2493,
      "Ġsubsequ": 2494,
      "Ġcomplexity": 2495,
      "Ġdev": 2496,
      "Ġhost": 2497,
      "lin": 2498,
      "ament": 2499,
      "ror": 2500,
      "pected": 2501,
      "Ġopened": 2502,
      "ĠQu": 2503,
      "artment": 2504,
      "Ġaccess": 2505,
      "odes": 2506,
      "rought": 2507,
      "Ġfeet": 2508,
      "Ġeither": 2509,
      "Ġaction": 2510,
      "Ġgirl": 2511,
      "Ġlargest": 2512,
      "osition": 2513,
      "ĠPython": 2514,
      "board": 2515,
      "ements": 2516,
      "Ġcompleted": 2517,
      "omp": 2518,
      "Ġformed": 2519,
      "ĠThom": 2520,
      "ivil": 2521,
      "Ġsequ": 2522,
      "Ġrequire": 2523,
      "Ġrequired": 2524,
      "Ġtradition": 2525,
      "\":": 2526,
      "ĠPart": 2527,
      "medi": 2528,
      "Ġbehind": 2529,
      "ope": 2530,
      "Ġexcept": 2531,
      "Ġlower": 2532,
      "Ġ500": 2533,
      "nect": 2534,
      "Ġmodern": 2535,
      "Ġstri": 2536,
      "ĠSqu": 2537,
      "Ġfall": 2538,
      "men": 2539,
      "Ġfac": 2540,
      "Ġleading": 2541,
      "Ġmaximum": 2542,
      "oph": 2543,
      "Ġcomment": 2544,
      "Ġnov": 2545,
      "After": 2546,
      "Ġhuman": 2547,
      "ĠDavid": 2548,
      "Ġworks": 2549,
      "Ġmix": 2550,
      "rag": 2551,
      "Ġothers": 2552,
      "umb": 2553,
      "ĠRich": 2554,
      "Ġesc": 2555,
      "Ġwid": 2556,
      "Ġbrother": 2557,
      "Ġloss": 2558,
      "file": 2559,
      "urb": 2560,
      "Ġrather": 2561,
      "emy": 2562,
      "alse": 2563,
      "ned": 2564,
      "Ġworked": 2565,
      "ĠBo": 2566,
      "oud": 2567,
      "Ġenv": 2568,
      "fi": 2569,
      "uel": 2570,
      "Ġabove": 2571,
      "br": 2572,
      "20": 2573,
      "Ġhighest": 2574,
      "Ġtakes": 2575,
      "oring": 2576,
      "Ġ31": 2577,
      "Ġstop": 2578,
      "ĠRoyal": 2579,
      "Ġassoci": 2580,
      "Ġsuff": 2581,
      "Ġvalid": 2582,
      "Ġclose": 2583,
      "oney": 2584,
      "Ġpark": 2585,
      "Ġaccept": 2586,
      "Ġcrew": 2587,
      "ination": 2588,
      "Ġ188": 2589,
      "ditionally": 2590,
      "To": 2591,
      "tain": 2592,
      "ĠHouse": 2593,
      "itch": 2594,
      "Ġstage": 2595,
      "ĠOut": 2596,
      "Ġmot": 2597,
      "uk": 2598,
      "conom": 2599,
      "Ġpract": 2600,
      "Ġprovide": 2601,
      "Ġmor": 2602,
      "Ġmount": 2603,
      "Ġindivid": 2604,
      "Ġasked": 2605,
      "Ġworking": 2606,
      "Ġinj": 2607,
      "Ġmater": 2608,
      "Ġbar": 2609,
      "\")": 2610,
      "Ġsett": 2611,
      "ĠPort": 2612,
      "etwork": 2613,
      "Ġmodel": 2614,
      "Ġsearch": 2615,
      "cher": 2616,
      "Ġparty": 2617,
      "Ġheavy": 2618,
      "Ġfree": 2619,
      "Ġsurv": 2620,
      "oted": 2621,
      "ellow": 2622,
      "ving": 2623,
      "istic": 2624,
      "Ġsite": 2625,
      "Ġrelationship": 2626,
      "Ġregular": 2627,
      "ĠBut": 2628,
      "ification": 2629,
      "Ġdate": 2630,
      "ready": 2631,
      "Ġconsist": 2632,
      "Ġlive": 2633,
      "stit": 2634,
      "count": 2635,
      "face": 2636,
      "Ġguns": 2637,
      "ĠItal": 2638,
      "ĠMed": 2639,
      "data": 2640,
      "ĠIndian": 2641,
      "Ġsele": 2642,
      "Ġever": 2643,
      "ĠSch": 2644,
      "ays": 2645,
      "Here": 2646,
      "iding": 2647,
      "Ġlack": 2648,
      "wood": 2649,
      "ĠBlack": 2650,
      "ump": 2651,
      "era": 2652,
      "ĠSan": 2653,
      "ĠÃ": 2654,
      "Ġreb": 2655,
      "bert": 2656,
      "Ġruns": 2657,
      "Ġfriends": 2658,
      "ores": 2659,
      "ĠDr": 2660,
      "Ġcustom": 2661,
      "Ġreach": 2662,
      "Ġweeks": 2663,
      "Ġavailable": 2664,
      "Ġvill": 2665,
      "Ġ186": 2666,
      "Ġfif": 2667,
      "Ġkeep": 2668,
      "Ġhit": 2669,
      "go": 2670,
      "Ġalmost": 2671,
      "sec": 2672,
      "itar": 2673,
      "Ġfourth": 2674,
      "Ġter": 2675,
      "aves": 2676,
      "Ġ2004": 2677,
      "Ġbrought": 2678,
      "ĠFrance": 2679,
      "Ġoriginally": 2680,
      "me": 2681,
      "Ġtowards": 2682,
      "off": 2683,
      "Ġhard": 2684,
      "Ġalgorithm": 2685,
      "Ġgoal": 2686,
      "Ġmother": 2687,
      "Ġpeak": 2688,
      "ouncil": 2689,
      "Ġplaced": 2690,
      "iles": 2691,
      "Ã¡": 2692,
      "Ġscored": 2693,
      "uation": 2694,
      "Ġroom": 2695,
      "ĠRec": 2696,
      "Ġreve": 2697,
      "Ġdamage": 2698,
      "Ġvalues": 2699,
      "Ġindividual": 2700,
      "ams": 2701,
      "ids": 2702,
      "Ġlaun": 2703,
      "Ġ2015": 2704,
      "Ġalready": 2705,
      "ĠTom": 2706,
      "Ġeffort": 2707,
      "ateg": 2708,
      "ĠSchool": 2709,
      "#!": 2710,
      "Ġborn": 2711,
      "ĠRed": 2712,
      "Ġengine": 2713,
      "ground": 2714,
      "conf": 2715,
      "Ġinterest": 2716,
      "Ġconstruction": 2717,
      "Ġve": 2718,
      "sk": 2719,
      "ude": 2720,
      "Ġmi": 2721,
      "ume": 2722,
      "Ġinvest": 2723,
      "Ġappoint": 2724,
      "Ġindic": 2725,
      "ĠMichael": 2726,
      "Ġdone": 2727,
      "Ġtraining": 2728,
      "Ġregion": 2729,
      "Ġachie": 2730,
      "Ġsoon": 2731,
      "Ġchange": 2732,
      "Ġscene": 2733,
      "Ġdro": 2734,
      "Ġaccount": 2735,
      "),": 2736,
      "ĠNor": 2737,
      "];": 2738,
      "Ġlink": 2739,
      "ĠWash": 2740,
      "ĠRobert": 2741,
      "FI": 2742,
      "ĠAct": 2743,
      "Ġking": 2744,
      "ills": 2745,
      "Ġfi": 2746,
      "Ġstructure": 2747,
      "oor": 2748,
      "Ġce": 2749,
      "Ġmean": 2750,
      "aper": 2751,
      "Ġbetter": 2752,
      "Ġfeatured": 2753,
      "Ġoutside": 2754,
      "Ġpie": 2755,
      "ma": 2756,
      "Ġrecogn": 2757,
      "Ġbusiness": 2758,
      "Ġ2000": 2759,
      "Ġindust": 2760,
      "Ġrul": 2761,
      "Ġhours": 2762,
      "Ġrunning": 2763,
      "Ġrespons": 2764,
      "ĠBest": 2765,
      "Ġmove": 2766,
      "azine": 2767,
      "utive": 2768,
      "now": 2769,
      "#!/": 2770,
      "iol": 2771,
      "ights": 2772,
      "Ġtroops": 2773,
      "onse": 2774,
      "Ġcritics": 2775,
      "Ġprofess": 2776,
      "Ġmaterial": 2777,
      "Ġestim": 2778,
      "Ġaccording": 2779,
      "ios": 2780,
      "ĠHenry": 2781,
      "Ġ187": 2782,
      "icle": 2783,
      "Ġproduct": 2784,
      "Ġjoined": 2785,
      "Ġscen": 2786,
      "Ġgenerally": 2787,
      "Ġreplaced": 2788,
      "=$(": 2789,
      "ability": 2790,
      "Ġwife": 2791,
      "orial": 2792,
      "ĠVir": 2793,
      "Ġeconom": 2794,
      "Ġpassed": 2795,
      "antic": 2796,
      "ĠFirst": 2797,
      "ĠBen": 2798,
      "ĠImp": 2799,
      "ĠQue": 2800,
      "find": 2801,
      "ĠPresident": 2802,
      "Ġevents": 2803,
      "Ġcontains": 2804,
      "BC": 2805,
      "Ġfinished": 2806,
      "Ġrail": 2807,
      "Ġcolumn": 2808,
      "Ġarmy": 2809,
      "Ġpot": 2810,
      "Ġfeel": 2811,
      "::": 2812,
      "Ġsym": 2813,
      "Ġmass": 2814,
      "Ġsex": 2815,
      "Ġoffice": 2816,
      "Ġfig": 2817,
      "Ġblock": 2818,
      "ference": 2819,
      "Ġdesigned": 2820,
      "hile": 2821,
      "Ġfoc": 2822,
      "ĠWashington": 2823,
      "Ġhon": 2824,
      "ĠHol": 2825,
      "ourn": 2826,
      "uild": 2827,
      "ino": 2828,
      "ĠAdditionally": 2829,
      "ological": 2830,
      "overed": 2831,
      "adron": 2832,
      "Ġgrad": 2833,
      "Ġscore": 2834,
      "Ġpercent": 2835,
      "Ġbelieved": 2836,
      "ĠPaul": 2837,
      "Ġminutes": 2838,
      "ĠCour": 2839,
      "Ġhor": 2840,
      "uff": 2841,
      "Ġlanguage": 2842,
      "erous": 2843,
      "ollowing": 2844,
      "ranch": 2845,
      "################": 2846,
      "Ġparticip": 2847,
      "gress": 2848,
      "Ġcontain": 2849,
      "ĠBel": 2850,
      "Ġinvolved": 2851,
      "ĠOther": 2852,
      "gen": 2853,
      "Ġopening": 2854,
      "aring": 2855,
      "Ġmultiple": 2856,
      "Ġdu": 2857,
      "Ġdeterm": 2858,
      "ĠColle": 2859,
      "rict": 2860,
      "airs": 2861,
      "Ġrow": 2862,
      "ĠAngel": 2863,
      "Ġfund": 2864,
      "aled": 2865,
      "ĠTim": 2866,
      "Ġisland": 2867,
      "Ġvictory": 2868,
      "Ġtold": 2869,
      "ula": 2870,
      "Ġuses": 2871,
      "Ġexc": 2872,
      "Ġfailed": 2873,
      "ville": 2874,
      "Ġmph": 2875,
      "stand": 2876,
      "Ġspeed": 2877,
      "CE": 2878,
      "Ġcondu": 2879,
      "ĠCro": 2880,
      "Ġsaying": 2881,
      "pass": 2882,
      "Ġstru": 2883,
      "ributed": 2884,
      "ection": 2885,
      "Ġ2003": 2886,
      "Ġquest": 2887,
      "ĠMet": 2888,
      "west": 2889,
      "ĠRes": 2890,
      "fall": 2891,
      "ool": 2892,
      "Ġdon": 2893,
      "AL": 2894,
      "ĠHall": 2895,
      "ci": 2896,
      "itte": 2897,
      "ION": 2898,
      "Ġoutput": 2899,
      "ĠKe": 2900,
      "Ġpresident": 2901,
      "Ġinsp": 2902,
      "ĊĊĠ": 2903,
      "Ġinitially": 2904,
      "ĠMary": 2905,
      "Ġsubject": 2906,
      "Ġmeas": 2907,
      "Ġcourt": 2908,
      "ites": 2909,
      "Ġbird": 2910,
      "Ġpur": 2911,
      "Ġinitial": 2912,
      "ĠLa": 2913,
      "Ġtravel": 2914,
      "Ġabs": 2915,
      "search": 2916,
      "Ġflow": 2917,
      "ĠHam": 2918,
      "Ġshot": 2919,
      "Ġill": 2920,
      "Ġoperations": 2921,
      "Ġthreat": 2922,
      "ĠGreat": 2923,
      "ĠSome": 2924,
      "Ġamount": 2925,
      "ĠBattle": 2926,
      "Ġearlier": 2927,
      "asion": 2928,
      "Ġ60": 2929,
      "Ġlove": 2930,
      ").": 2931,
      "Ġnomin": 2932,
      "ĠRoman": 2933,
      "Ġboy": 2934,
      "Ġincreased": 2935,
      "}/": 2936,
      "Ġtaking": 2937,
      "ilities": 2938,
      "ĠMy": 2939,
      "ux": 2940,
      "ĠSam": 2941,
      "plic": 2942,
      "Ar": 2943,
      "ĠPlay": 2944,
      "Ġcome": 2945,
      "ĠEuropean": 2946,
      "uture": 2947,
      "Ġparticularly": 2948,
      "Ġregard": 2949,
      "Ġgoing": 2950,
      "Ġturned": 2951,
      "Ġapproach": 2952,
      "ishing": 2953,
      "ĠWil": 2954,
      "clus": 2955,
      "Ġstore": 2956,
      "Ġsouthern": 2957,
      "Ġwall": 2958,
      "Ġdig": 2959,
      "ico": 2960,
      "Ġitself": 2961,
      "ibility": 2962,
      "inn": 2963,
      "ĠMac": 2964,
      "Ġhom": 2965,
      "ĠJe": 2966,
      "Ġgreater": 2967,
      "anned": 2968,
      "Ġslow": 2969,
      "Ġconsider": 2970,
      "Ġfeature": 2971,
      "Ġanal": 2972,
      "Ġsocial": 2973,
      "ĠRepubl": 2974,
      "Ġcommer": 2975,
      "ables": 2976,
      "Ġdocument": 2977,
      "ĠMal": 2978,
      "Ġforced": 2979,
      "atural": 2980,
      "oups": 2981,
      "Ġinformation": 2982,
      "Ġissue": 2983,
      "Ġ&&": 2984,
      "ago": 2985,
      "Ġended": 2986,
      "ander": 2987,
      "This": 2988,
      "CT": 2989,
      "Ġx": 2990,
      "irm": 2991,
      "lying": 2992,
      "oul": 2993,
      "antry": 2994,
      "Ġtarget": 2995,
      "Ġimmedi": 2996,
      "Ġcontract": 2997,
      "ĠMart": 2998,
      "Ġpast": 2999,
      "Ġunits": 3000,
      "ĠDan": 3001,
      "ET": 3002,
      "OT": 3003,
      "Ġdirector": 3004,
      "Ġhighway": 3005,
      "Ġprivate": 3006,
      "ware": 3007,
      "ĠÂ°": 3008,
      "Ġlab": 3009,
      "hib": 3010,
      "ironment": 3011,
      "Ġordered": 3012,
      "Ġbill": 3013,
      "Ġpers": 3014,
      "Ġindex": 3015,
      "('": 3016,
      "ĠDon": 3017,
      "++": 3018,
      "Ġtrue": 3019,
      "AN": 3020,
      "Ġenough": 3021,
      "Ġwat": 3022,
      "Ġran": 3023,
      "rian": 3024,
      "ĠScott": 3025,
      "Ġpraised": 3026,
      "Ex": 3027,
      "Ġstudio": 3028,
      "load": 3029,
      "ĠAtl": 3030,
      "Ġexit": 3031,
      "Ġcat": 3032,
      "iforn": 3033,
      "Ġdat": 3034,
      "ailed": 3035,
      "Ġbeginning": 3036,
      "cial": 3037,
      "Ġprevent": 3038,
      "ĠNavy": 3039,
      "Ġphys": 3040,
      "irth": 3041,
      "ĠDis": 3042,
      "Ġnorthern": 3043,
      "Ġey": 3044,
      "Ġcentral": 3045,
      "Ġthink": 3046,
      "Ġalways": 3047,
      "sel": 3048,
      "Ġprob": 3049,
      "Ġstudy": 3050,
      "heast": 3051,
      "ĠLou": 3052,
      "order": 3053,
      "ources": 3054,
      "ĠCup": 3055,
      "Ġscreen": 3056,
      "Ġremaining": 3057,
      "ĠAnt": 3058,
      "ĠBer": 3059,
      "Ġappearance": 3060,
      "Ġindepend": 3061,
      "Ġ2001": 3062,
      "ĠStar": 3063,
      "ĠKingdom": 3064,
      "elled": 3065,
      "ises": 3066,
      "ĠGame": 3067,
      "Ġgive": 3068,
      "down": 3069,
      "ĠChampionship": 3070,
      "Ġsomething": 3071,
      "aughter": 3072,
      "Ġcred": 3073,
      "Ġpay": 3074,
      "Ġresponse": 3075,
      "ĠMag": 3076,
      "Ġ?": 3077,
      "oke": 3078,
      "Ġhurricane": 3079,
      "Ġsigned": 3080,
      "Ġnovel": 3081,
      "Ġ];": 3082,
      "inary": 3083,
      "itor": 3084,
      "Ġsection": 3085,
      "Ġreturns": 3086,
      "ĠPal": 3087,
      "Ġrelig": 3088,
      "Ġparts": 3089,
      "Ġchurch": 3090,
      "ĠWhite": 3091,
      "ership": 3092,
      "rect": 3093,
      "ĠBay": 3094,
      "arily": 3095,
      "Ġspent": 3096,
      "ocr": 3097,
      "Ġwhose": 3098,
      "Ġclear": 3099,
      "Ġsat": 3100,
      "Ġlines": 3101,
      "Ġchanges": 3102,
      "Ġcomplete": 3103,
      "Ġmessage": 3104,
      "ports": 3105,
      "ĠCaliforn": 3106,
      "ĠSmith": 3107,
      "Ġstudents": 3108,
      "Ġmight": 3109,
      "ĠCharles": 3110,
      "ĠMid": 3111,
      "uments": 3112,
      "lo": 3113,
      "Ġ35": 3114,
      "mon": 3115,
      "ĠChurch": 3116,
      "Ġshows": 3117,
      "Ġpreviously": 3118,
      "Ġcertain": 3119,
      "ĠCanada": 3120,
      "anced": 3121,
      "Ġstates": 3122,
      "ĠAg": 3123,
      "Ġeduc": 3124,
      "CH": 3125,
      "Ġidea": 3126,
      "ks": 3127,
      "ĠThomas": 3128,
      "Ġrain": 3129,
      "ĠVirgin": 3130,
      "ĠSing": 3131,
      "aker": 3132,
      "Ġwinds": 3133,
      "Ġcases": 3134,
      "12": 3135,
      "Ġquickly": 3136,
      "As": 3137,
      "icket": 3138,
      "ittee": 3139,
      "Ġcycl": 3140,
      "round": 3141,
      "leg": 3142,
      "ĠMcC": 3143,
      "Ġhous": 3144,
      "osing": 3145,
      "Ġdefend": 3146,
      "Ġlay": 3147,
      "Ġsy": 3148,
      "ĠCalifornia": 3149,
      "Ġtreat": 3150,
      "Ġsil": 3151,
      "ĠStud": 3152,
      "'t": 3153,
      "Ġ2002": 3154,
      "Ġcenter": 3155,
      "ĠRock": 3156,
      "ĠMusic": 3157,
      "ĠSen": 3158,
      "Ġnames": 3159,
      "rab": 3160,
      "ĠMil": 3161,
      "----------------": 3162,
      "ĠUnion": 3163,
      "itz": 3164,
      "ples": 3165,
      "net": 3166,
      "Ġren": 3167,
      "size": 3168,
      "anks": 3169,
      "Ġreviews": 3170,
      "Ġgroups": 3171,
      "ube": 3172,
      "ĠSk": 3173,
      "Ġstreng": 3174,
      "ĠIsland": 3175,
      "IT": 3176,
      "arter": 3177,
      "mar": 3178,
      "Ġcru": 3179,
      "Ġnine": 3180,
      "col": 3181,
      "Ġfilms": 3182,
      "ĠAlex": 3183,
      "Ġpurch": 3184,
      "ĠGod": 3185,
      "atin": 3186,
      "Ġsal": 3187,
      "rite": 3188,
      "Ġfuture": 3189,
      "Ġsea": 3190,
      "Ġupper": 3191,
      "Ġcolor": 3192,
      "ĠBrown": 3193,
      "://": 3194,
      "py": 3195,
      "urt": 3196,
      "Ġletter": 3197,
      "ĠTwo": 3198,
      "Ġfootball": 3199,
      "ĠCourt": 3200,
      "Ġfood": 3201,
      "edy": 3202,
      "Ġdirected": 3203,
      "ari": 3204,
      "ĠCong": 3205,
      "Ġtransfer": 3206,
      "Ġinterview": 3207,
      "hold": 3208,
      "ls": 3209,
      "Ġgot": 3210,
      "PAT": 3211,
      "ails": 3212,
      "Ġdespite": 3213,
      "ĠRichard": 3214,
      "ĠAssoci": 3215,
      "ĠCompany": 3216,
      "Ġparent": 3217,
      "Ġentered": 3218,
      "Ġ00": 3219,
      "not": 3220,
      "Ġ80": 3221,
      "Ġconnect": 3222,
      "Ġremain": 3223,
      "ĠInternational": 3224,
      "Ġbi": 3225,
      "Ġprior": 3226,
      "inst": 3227,
      "Ġhop": 3228,
      "Ġphot": 3229,
      "ĠDo": 3230,
      "isl": 3231,
      "ida": 3232,
      "ols": 3233,
      "Ġviol": 3234,
      "inct": 3235,
      "ĠAward": 3236,
      "ĠÂ£": 3237,
      "dev": 3238,
      "Ġlibr": 3239,
      "II": 3240,
      "ĠTimes": 3241,
      "ĠVict": 3242,
      "ĠSl": 3243,
      "Ġ1990": 3244,
      "ĠIndia": 3245,
      "Ġiter": 3246,
      "ĠGermany": 3247,
      "Ġmach": 3248,
      "Ġrecording": 3249,
      "ĠThat": 3250,
      "case": 3251,
      "Ġdebut": 3252,
      "ministr": 3253,
      "pecially": 3254,
      "ken": 3255,
      "ĠFil": 3256,
      "Ġarrived": 3257,
      "ĠUp": 3258,
      "ĠFrom": 3259,
      "alion": 3260,
      "Ġinternational": 3261,
      "time": 3262,
      "ows": 3263,
      "Ġunique": 3264,
      "Ġ[[": 3265,
      "Ġstep": 3266,
      "OU": 3267,
      "ĠTest": 3268,
      "Ġpoor": 3269,
      "rief": 3270,
      "EN": 3271,
      "ĠChristian": 3272,
      "asons": 3273,
      "ging": 3274,
      "By": 3275,
      "Ġclaimed": 3276,
      "Ġnetwork": 3277,
      "ĠMount": 3278,
      "ĠGovern": 3279,
      "change": 3280,
      "Ġdeal": 3281,
      "action": 3282,
      "Ġflag": 3283,
      "Ġgold": 3284,
      "Ġoccup": 3285,
      "Ġintroduced": 3286,
      "Ġwhether": 3287,
      "Ġwhom": 3288,
      "Ġ32": 3289,
      "ension": 3290,
      "Ġbeg": 3291,
      "ny": 3292,
      "Ġsometimes": 3293,
      "aught": 3294,
      "Ġvariable": 3295,
      "su": 3296,
      "ĠPeter": 3297,
      "Ġpen": 3298,
      "Ġespecially": 3299,
      "Ġloop": 3300,
      "ĠUK": 3301,
      "Ġusually": 3302,
      "Ġprot": 3303,
      "ml": 3304,
      "Ġconditions": 3305,
      "teen": 3306,
      "Ġfort": 3307,
      "Ġrating": 3308,
      "ĠLily": 3309,
      "Ġbridge": 3310,
      "ession": 3311,
      "Ġdecision": 3312,
      "Ġbring": 3313,
      "ĠSov": 3314,
      "ĠDespite": 3315,
      "ĠMark": 3316,
      "Ġ||": 3317,
      "ully": 3318,
      "Ġdraw": 3319,
      "ĠMer": 3320,
      "ĠDu": 3321,
      "gers": 3322,
      "rep": 3323,
      "berg": 3324,
      "Ġmoney": 3325,
      "Ġleague": 3326,
      "Ġpath": 3327,
      "Ġlearn": 3328,
      "Ġevidence": 3329,
      "ĠHill": 3330,
      "nings": 3331,
      "ĠMex": 3332,
      "anish": 3333,
      "Ġprem": 3334,
      "Ġsaf": 3335,
      "Ġbur": 3336,
      "Ġdeep": 3337,
      "Ġcourse": 3338,
      "Ġwood": 3339,
      "ĠSoviet": 3340,
      "Ġincrease": 3341,
      "ĠGold": 3342,
      "Ġtemper": 3343,
      "ties": 3344,
      "ĠNY": 3345,
      "ĠImplement": 3346,
      "ĠWestern": 3347,
      "iled": 3348,
      "Ġdouble": 3349,
      "Ġstatus": 3350,
      "Ġsus": 3351,
      "Ġhappy": 3352,
      "Ġadm": 3353,
      "Ġ36": 3354,
      "igr": 3355,
      "que": 3356,
      "Ġproblem": 3357,
      "Ġoverall": 3358,
      "porary": 3359,
      "Al": 3360,
      "ĠCollege": 3361,
      "atory": 3362,
      "Ġincludes": 3363,
      "Ġagreed": 3364,
      "chan": 3365,
      "ĠGrand": 3366,
      "ĊĠĠĠĠĠĠĠĠĠĠĠĠĠĠĠĠ": 3367,
      "Ġhigher": 3368,
      "Ġapprox": 3369,
      "Ġradio": 3370,
      "van": 3371,
      "Ġfemale": 3372,
      "Ġwestern": 3373,
      "ĠAc": 3374,
      "Ġimplementation": 3375,
      "Ġdiscuss": 3376,
      "ception": 3377,
      "onna": 3378,
      "Ġwalk": 3379,
      "Ġsurface": 3380,
      "Ġmusical": 3381,
      "ulf": 3382,
      "ĠRoute": 3383,
      "ĠBra": 3384,
      "Ġcarried": 3385,
      "lict": 3386,
      "Ġcivil": 3387,
      "igan": 3388,
      "bed": 3389,
      "Ġlimited": 3390,
      "ĠDep": 3391,
      "Ġstay": 3392,
      "Ġenvironment": 3393,
      "ĠForce": 3394,
      "Ġtree": 3395,
      "Ġclim": 3396,
      "Ġmagazine": 3397,
      "incip": 3398,
      "Ġpersonal": 3399,
      "ien": 3400,
      "Ġnecess": 3401,
      "Ġdivision": 3402,
      "Ġpack": 3403,
      "Ġ1970": 3404,
      "ĠSystem": 3405,
      "acing": 3406,
      "Ġcommunity": 3407,
      "liam": 3408,
      "Ġjob": 3409,
      "Ġliter": 3410,
      "Ġelection": 3411,
      "Ġlonger": 3412,
      "Ġsuggested": 3413,
      "eum": 3414,
      "ĠJava": 3415,
      "ocker": 3416,
      "Ġminor": 3417,
      "inter": 3418,
      "Ġflood": 3419,
      "right": 3420,
      "ands": 3421,
      "Ġestimated": 3422,
      "ĠBritain": 3423,
      "ĠArt": 3424,
      "Ġmarket": 3425,
      "Ġpattern": 3426,
      "icles": 3427,
      "Ġsurround": 3428,
      "Ġden": 3429,
      "SE": 3430,
      "rix": 3431,
      "Ġarran": 3432,
      "cending": 3433,
      "icy": 3434,
      "Ġpil": 3435,
      "Ġ45": 3436,
      "type": 3437,
      "Ġdefeated": 3438,
      "plit": 3439,
      "Ġeastern": 3440,
      "Ġ1980": 3441,
      "ĠHot": 3442,
      "Ġbecoming": 3443,
      "thing": 3444,
      "Ġfavor": 3445,
      "irt": 3446,
      "Ġpolice": 3447,
      "ston": 3448,
      "liament": 3449,
      "Ġder": 3450,
      "ĠDem": 3451,
      "oftext": 3452,
      "Ġour": 3453,
      "endoftext": 3454,
      "rd": 3455,
      "rror": 3456,
      "Ġhelped": 3457,
      "Ġtask": 3458,
      "Ġconcern": 3459,
      "hem": 3460,
      "Ġperm": 3461,
      "Ġacqu": 3462,
      "itting": 3463,
      "ĠCr": 3464,
      "Ġbox": 3465,
      "ĠPac": 3466,
      "Ġshoot": 3467,
      "bour": 3468,
      "Ġdark": 3469,
      "Ġbrief": 3470,
      "!\"": 3471,
      "Ġoperation": 3472,
      "ĠDay": 3473,
      "Ġriver": 3474,
      "verse": 3475,
      "Ġbomb": 3476,
      "itect": 3477,
      "ĠRob": 3478,
      "Ġtax": 3479,
      "Ġpressure": 3480,
      "Ġlatter": 3481,
      "ĠPat": 3482,
      "ĠIm": 3483,
      "Ġlyr": 3484,
      "Ġteams": 3485,
      "ĠSoc": 3486,
      "ĠTra": 3487,
      "='": 3488,
      "Ġsupported": 3489,
      "iven": 3490,
      "enth": 3491,
      "Ġcommercial": 3492,
      "ected": 3493,
      "Ġrelated": 3494,
      "ĠVictor": 3495,
      "dd": 3496,
      "atively": 3497,
      "Ġinvestig": 3498,
      "iser": 3499,
      "ournal": 3500,
      "Ġleaving": 3501,
      "Ġbow": 3502,
      "Ġsummer": 3503,
      "At": 3504,
      "uth": 3505,
      "Ġcompared": 3506,
      "Ġneeded": 3507,
      "Ġprison": 3508,
      "Ġexperience": 3509,
      "Ġappointed": 3510,
      "Ġrights": 3511,
      "rupt": 3512,
      "Ġincor": 3513,
      "Ġemer": 3514,
      "ires": 3515,
      "Ġdestroyed": 3516,
      "Ġcm": 3517,
      "Ġincreasing": 3518,
      "ĠMill": 3519,
      "Ġpage": 3520,
      "Ġsmaller": 3521,
      "AF": 3522,
      "ĠLos": 3523,
      "Ġchall": 3524,
      "Ġepisodes": 3525,
      "Ġwinning": 3526,
      "Ġcommission": 3527,
      "rown": 3528,
      "ĠMont": 3529,
      "sum": 3530,
      "Ġconcert": 3531,
      "ĠFrank": 3532,
      "Ġdepend": 3533,
      "izing": 3534,
      "Ġsorted": 3535,
      "ructed": 3536,
      "Ġequal": 3537,
      "sy": 3538,
      "ederal": 3539,
      "Ġlocation": 3540,
      "Ġstaff": 3541,
      "Ġrid": 3542,
      "ography": 3543,
      "ha": 3544,
      "urity": 3545,
      "Ġwrite": 3546,
      "Ġscenes": 3547,
      "Ġkil": 3548,
      "imal": 3549,
      "':": 3550,
      "Ġwide": 3551,
      "Ġchanged": 3552,
      "')": 3553,
      "Ġcapital": 3554,
      "Ġfleet": 3555,
      "Ġbroadcast": 3556,
      "Ġ1999": 3557,
      "Ġresults": 3558,
      "Ġrepe": 3559,
      "Ġeffic": 3560,
      "ĠSy": 3561,
      "Ġnorm": 3562,
      "Ġeffects": 3563,
      "tained": 3564,
      "Ġconvert": 3565,
      "Ġcontr": 3566,
      "Ġproposed": 3567,
      "Ġface": 3568,
      "Ġinside": 3569,
      "Ġintended": 3570,
      "asy": 3571,
      "ĠChic": 3572,
      "iral": 3573,
      "Ġdaughter": 3574,
      "ena": 3575,
      "ropri": 3576,
      "Ġstudent": 3577,
      "ĠVirginia": 3578,
      "arrison": 3579,
      "30": 3580,
      "Ġsn": 3581,
      "Ġmiddle": 3582,
      "Ġdi": 3583,
      "Ġadapt": 3584,
      "Ġvoice": 3585,
      "Ġterrit": 3586,
      "Ġstars": 3587,
      "Ġwriter": 3588,
      "asc": 3589,
      "Ġterms": 3590,
      "ounds": 3591,
      "ees": 3592,
      "ĊĊĠĠĠĠĠĠĠ": 3593,
      "Ġtrib": 3594,
      "ipe": 3595,
      "Ġestablish": 3596,
      "ĠZe": 3597,
      "Ġanti": 3598,
      "ĠSpanish": 3599,
      "nes": 3600,
      "Ġcirc": 3601,
      "igade": 3602,
      "Ġ70": 3603,
      "inese": 3604,
      "atives": 3605,
      "],": 3606,
      "MA": 3607,
      "ĠLu": 3608,
      "Ġnegative": 3609,
      "Ġguitar": 3610,
      "izes": 3611,
      "Ġmedia": 3612,
      "nel": 3613,
      "Ġreally": 3614,
      "ĠSuper": 3615,
      "tar": 3616,
      "Ġjud": 3617,
      "Ġassist": 3618,
      "Ġcreat": 3619,
      "ili": 3620,
      "Ġnearly": 3621,
      "lymp": 3622,
      "Ġrate": 3623,
      "ously": 3624,
      "NAME": 3625,
      "Ġforward": 3626,
      "aded": 3627,
      "ĠJackson": 3628,
      "mod": 3629,
      "ero": 3630,
      "Ġliving": 3631,
      "can": 3632,
      "ĠTex": 3633,
      "Ġremoved": 3634,
      "Ġaddress": 3635,
      "ĠLouis": 3636,
      "fact": 3637,
      "Ġmarried": 3638,
      "ĠParty": 3639,
      "ĠOlymp": 3640,
      "ga": 3641,
      "ĠFle": 3642,
      "Ġselected": 3643,
      "Ġmovement": 3644,
      "Ġinfluence": 3645,
      "Ġresearch": 3646,
      "ĠJust": 3647,
      "ĠFlor": 3648,
      "Ġcounter": 3649,
      "Ġremains": 3650,
      "ÃŃ": 3651,
      "ĠAssociation": 3652,
      "length": 3653,
      "Ġintens": 3654,
      "Ġboard": 3655,
      "Ġlived": 3656,
      "wer": 3657,
      "Ġrecords": 3658,
      "value": 3659,
      "inent": 3660,
      "Ġ184": 3661,
      "Ġ1960": 3662,
      "Ġawarded": 3663,
      "idents": 3664,
      "Ġmeans": 3665,
      "pid": 3666,
      "Ġexpected": 3667,
      "Ġdead": 3668,
      "selves": 3669,
      "Ġcountries": 3670,
      "Ġsource": 3671,
      "rey": 3672,
      "Ġtried": 3673,
      "uing": 3674,
      "Ġnatural": 3675,
      "ils": 3676,
      "ĠYear": 3677,
      "zz": 3678,
      "Ġthemselves": 3679,
      "path": 3680,
      "vey": 3681,
      "Ġsquare": 3682,
      "pty": 3683,
      "erve": 3684,
      "Ġapproximately": 3685,
      "ĠChinese": 3686,
      "========": 3687,
      "olic": 3688,
      "ĠChicago": 3689,
      "Ġcaptured": 3690,
      "Ġwithd": 3691,
      "String": 3692,
      "isions": 3693,
      "Ġcontinue": 3694,
      "=\"$": 3695,
      "Ġfifth": 3696,
      "ĠCouncil": 3697,
      "ĠKh": 3698,
      "Ġappears": 3699,
      "Ġ300": 3700,
      "Ġplanned": 3701,
      "ĠGreen": 3702,
      "oo": 3703,
      "Ġ90": 3704,
      "Ġrespectively": 3705,
      "Ġdepart": 3706,
      "Ġconcept": 3707,
      "Ġbooks": 3708,
      "ij": 3709,
      "Ġmakes": 3710,
      "Ġissues": 3711,
      "Ġthings": 3712,
      "itions": 3713,
      "Ġconclud": 3714,
      "Ġfans": 3715,
      "Ġkind": 3716,
      "Ġang": 3717,
      "ĠCast": 3718,
      "ĠSal": 3719,
      "ĠCont": 3720,
      "resp": 3721,
      "ĠInf": 3722,
      "Ġdeg": 3723,
      "Ġdemon": 3724,
      "Ġobser": 3725,
      "isk": 3726,
      "enty": 3727,
      "Ġexam": 3728,
      "ĠAp": 3729,
      "Ġcontent": 3730,
      "iring": 3731,
      "Ġvia": 3732,
      "`.": 3733,
      "Ġimmediately": 3734,
      "Ġwoman": 3735,
      "Ã¶": 3736,
      "Ġcopies": 3737,
      "Ġthus": 3738,
      "oura": 3739,
      "Ġmanager": 3740,
      "Ġcarry": 3741,
      "Ġmostly": 3742,
      "cis": 3743,
      "Ġraised": 3744,
      "aches": 3745,
      "olk": 3746,
      "ening": 3747,
      "anded": 3748,
      "ĠClub": 3749,
      "ache": 3750,
      "Ġleave": 3751,
      "ĠAwards": 3752,
      "ternal": 3753,
      "Ġtracks": 3754,
      "Ġult": 3755,
      "ĠIr": 3756,
      "Ġfell": 3757,
      "sole": 3758,
      "ĠEnter": 3759,
      "VER": 3760,
      "Ġvisit": 3761,
      "Ġassociated": 3762,
      "Ġprobably": 3763,
      "Ġbad": 3764,
      "inated": 3765,
      "Ġpal": 3766,
      "ĠEmp": 3767,
      "Ġensure": 3768,
      "Ġresulting": 3769,
      "Ġ185": 3770,
      "Ġstandard": 3771,
      "Ch": 3772,
      "joy": 3773,
      "Ġservices": 3774,
      "Ġ1998": 3775,
      "lease": 3776,
      "ĠBur": 3777,
      "Ġseparate": 3778,
      "cont": 3779,
      "ĠBillboard": 3780,
      "Ġleader": 3781,
      "ait": 3782,
      "Ġmechan": 3783,
      "Ġbirth": 3784,
      "ĠEdward": 3785,
      "aily": 3786,
      "Ġextended": 3787,
      "Ġreverse": 3788,
      "PI": 3789,
      "Ġstarting": 3790,
      "sort": 3791,
      "use": 3792,
      "Ġ37": 3793,
      "Ġrequirements": 3794,
      "Ġhealth": 3795,
      "Ġattend": 3796,
      "ĠMo": 3797,
      "Ġlikely": 3798,
      "Ġweap": 3799,
      "rica": 3800,
      "ĠPacific": 3801,
      "Ġaltern": 3802,
      "Ġsoldiers": 3803,
      "Ġmention": 3804,
      "Ġfunctions": 3805,
      "Ġpain": 3806,
      "ospital": 3807,
      "Ġheav": 3808,
      "umber": 3809,
      "Ġshell": 3810,
      "Ġbelow": 3811,
      "ĠKore": 3812,
      "Ġstrings": 3813,
      "Ġsecret": 3814,
      "bit": 3815,
      "ĠHow": 3816,
      "Ġdiss": 3817,
      "Ġplant": 3818,
      "ĠSecond": 3819,
      "Ġcalculate": 3820,
      "Ġfocus": 3821,
      "Ġcand": 3822,
      "Ġmixed": 3823,
      "Ġ75": 3824,
      "onent": 3825,
      "vin": 3826,
      "Ġproblems": 3827,
      "ervice": 3828,
      "Ġsolution": 3829,
      "Ġquarter": 3830,
      "sen": 3831,
      "Ġissued": 3832,
      "ĠSong": 3833,
      "arsh": 3834,
      "stant": 3835,
      "Ġcause": 3836,
      "ĠJohnson": 3837,
      "ront": 3838,
      "Ġpurp": 3839,
      "ergy": 3840,
      "Ġgra": 3841,
      "Ġsuffered": 3842,
      "Ã¼": 3843,
      "Ġportray": 3844,
      "lim": 3845,
      "Ġbuildings": 3846,
      "usr": 3847,
      "Ġcele": 3848,
      "\">": 3849,
      "Ġinters": 3850,
      "ĠBig": 3851,
      "Ġmatches": 3852,
      "Ġ+=": 3853,
      "Ġfast": 3854,
      "isc": 3855,
      "Ġtransport": 3856,
      "Ġminute": 3857,
      "Ġarchitect": 3858,
      "ĠStep": 3859,
      "Ġbreed": 3860,
      "Ġcorrect": 3861,
      "Ġpromot": 3862,
      "while": 3863,
      "ares": 3864,
      "ĠSun": 3865,
      "Ġpick": 3866,
      "astern": 3867,
      "Ġpair": 3868,
      "Ġgoals": 3869,
      "During": 3870,
      "roll": 3871,
      "ĠHist": 3872,
      "ros": 3873,
      "Ġextra": 3874,
      "Ġoccurred": 3875,
      "Ġfinally": 3876,
      "Ġvillage": 3877,
      "Ġproducer": 3878,
      "ĠScot": 3879,
      "Ġofficers": 3880,
      "ĠLake": 3881,
      "Ġ<<": 3882,
      "Ġsuggest": 3883,
      "();": 3884,
      "Ġassigned": 3885,
      "Ġund": 3886,
      "Ġcompan": 3887,
      "ria": 3888,
      "var": 3889,
      "Ġoffered": 3890,
      "Ġsubsequently": 3891,
      "Ġbattles": 3892,
      "Ġnode": 3893,
      "Ġbackground": 3894,
      "ĠJim": 3895,
      "Re": 3896,
      "Ġattacks": 3897,
      "ĠCongress": 3898,
      "hood": 3899,
      "ĠAtlantic": 3900,
      "ado": 3901,
      "Ġload": 3902,
      "function": 3903,
      "Ġlyrics": 3904,
      "Ġmemory": 3905,
      "Error": 3906,
      "Ġdirectly": 3907,
      "ĠMost": 3908,
      "ĠJew": 3909,
      "Ġplans": 3910,
      "Ġsales": 3911,
      "Ġwhole": 3912,
      "rial": 3913,
      "Ġmajority": 3914,
      "Ġtor": 3915,
      "bury": 3916,
      "iation": 3917,
      "Ġrout": 3918,
      "Ġgrand": 3919,
      "Ġadministr": 3920,
      "Ġsem": 3921,
      "enc": 3922,
      "well": 3923,
      "Ġrand": 3924,
      "input": 3925,
      "Ġenter": 3926,
      "light": 3927,
      "64": 3928,
      "Ġyet": 3929,
      "Ġquestion": 3930,
      "Ġcolon": 3931,
      "SS": 3932,
      "11": 3933,
      "Ġmeeting": 3934,
      "Ġimm": 3935,
      "Ġinstr": 3936,
      "Ġ1997": 3937,
      "Ġmoving": 3938,
      "win": 3939,
      "ĠFlorida": 3940,
      "ML": 3941,
      "Ġbene": 3942,
      "riage": 3943,
      "ĠOver": 3944,
      "Ġplat": 3945,
      "Ġer": 3946,
      "abase": 3947,
      "Ġdom": 3948,
      "Ġenjoy": 3949,
      "Ġtons": 3950,
      "cean": 3951,
      "ship": 3952,
      "import": 3953,
      "ĠFort": 3954,
      "icted": 3955,
      "ĠFollowing": 3956,
      "ying": 3957,
      "tmp": 3958,
      "Ġpow": 3959,
      "lib": 3960,
      "Ġavoid": 3961,
      "Ġcompl": 3962,
      "Ġmur": 3963,
      "ĠSo": 3964,
      "Ġquery": 3965,
      "Ġunit": 3966,
      "burg": 3967,
      "ĠQueen": 3968,
      "ĠSea": 3969,
      "Ġranked": 3970,
      "ĠMr": 3971,
      "Ġtalk": 3972,
      "Ġdiscovered": 3973,
      "Ġprincip": 3974,
      "Ġprofessional": 3975,
      "Ġadopt": 3976,
      "Ġ33": 3977,
      "Ġtrain": 3978,
      "Ġempty": 3979,
      "Ġprimary": 3980,
      "Ġactive": 3981,
      "Ġ34": 3982,
      "Ġver": 3983,
      "Ġveh": 3984,
      "Ġfinanc": 3985,
      "utions": 3986,
      "ĠEarth": 3987,
      "Ġdamaged": 3988,
      "Ġrevealed": 3989,
      "ĠRo": 3990,
      "Ġshown": 3991,
      "Ġanc": 3992,
      "umed": 3993,
      "abit": 3994,
      "ĠTexas": 3995,
      "Ġnature": 3996,
      "ĠInter": 3997,
      "Ġreason": 3998,
      "ĠLove": 3999,
      "ĠOper": 4000,
      "ĠTown": 4001,
      "lor": 4002,
      "ĠTor": 4003,
      "Ã³": 4004,
      "Ġdog": 4005,
      "ĠPet": 4006,
      "ĠChina": 4007,
      "Ġcomposed": 4008,
      "Ġsched": 4009,
      "ider": 4010,
      "Ġability": 4011,
      "Ġlen": 4012,
      "adium": 4013,
      "Ġtouch": 4014,
      "Ġcontrib": 4015,
      "itude": 4016,
      "`,": 4017,
      "Ġflight": 4018,
      "ĠEv": 4019,
      "ĠIts": 4020,
      "ĠOld": 4021,
      "ĠLord": 4022,
      "Ġrandom": 4023,
      "ĠCanadian": 4024,
      "ady": 4025,
      "Ġnumerous": 4026,
      "ustr": 4027,
      "Ġproperty": 4028,
      "oms": 4029,
      "ĠCenter": 4030,
      "met": 4031,
      "Ġdomin": 4032,
      "agon": 4033,
      "Name": 4034,
      "ĠAngeles": 4035,
      "ĠAfrica": 4036,
      "SC": 4037,
      "ĠSpe": 4038,
      "iest": 4039,
      "number": 4040,
      "Ġlaunched": 4041,
      "Ġallows": 4042,
      "FILE": 4043,
      "Ġinspired": 4044,
      "env": 4045,
      "ucle": 4046,
      "Ġpotential": 4047,
      "Ġattempted": 4048,
      "Ġscient": 4049,
      "Ġimage": 4050,
      "Ġclosed": 4051,
      "Ġslight": 4052,
      "Ġhere": 4053,
      "chester": 4054,
      "ĠKn": 4055,
      "ĠCle": 4056,
      "Ġ38": 4057,
      "aland": 4058,
      "array": 4059,
      "MS": 4060,
      "ĠLaw": 4061,
      "omer": 4062,
      "Ġsays": 4063,
      "gar": 4064,
      "ĠEr": 4065,
      "het": 4066,
      "ĠTV": 4067,
      "Ġaccomp": 4068,
      "ãĥ": 4069,
      "Ġattacked": 4070,
      "uries": 4071,
      "Ġimpact": 4072,
      "Ġgrant": 4073,
      "ĠRussian": 4074,
      "Ġcritical": 4075,
      "dict": 4076,
      "It": 4077,
      "Once": 4078,
      "Ġsch": 4079,
      "Ġconflict": 4080,
      "ĠWood": 4081,
      "estival": 4082,
      "ĠBoy": 4083,
      "Ġallowing": 4084,
      "ortun": 4085,
      "ĠRail": 4086,
      "ĠSquadron": 4087,
      "shire": 4088,
      "uated": 4089,
      "Ġcontact": 4090,
      "Ġcoach": 4091,
      "ĠTrans": 4092,
      "Ġcelebr": 4093,
      "ĠBow": 4094,
      "Ġemb": 4095,
      "ĠTre": 4096,
      "oper": 4097,
      "Ġforest": 4098,
      "Ġreferred": 4099,
      "Ġhot": 4100,
      "Ġunable": 4101,
      "ĠFrancis": 4102,
      "index": 4103,
      "****": 4104,
      "AC": 4105,
      "ĠIII": 4106,
      "Ġheart": 4107,
      "Ġyards": 4108,
      "ĠCentral": 4109,
      "Ġkept": 4110,
      "ĠCarol": 4111,
      "Ġsen": 4112,
      "ipped": 4113,
      "wise": 4114,
      "Ġneigh": 4115,
      "ĠKent": 4116,
      "ĠMel": 4117,
      "ĠHighway": 4118,
      "Ġsequence": 4119,
      "Ġdyn": 4120,
      "VD": 4121,
      "Ġdeclared": 4122,
      "Ġresulted": 4123,
      "version": 4124,
      "gl": 4125,
      "ype": 4126,
      "Ġwatch": 4127,
      "Ġbit": 4128,
      "ĠLater": 4129,
      "Ġsymb": 4130,
      "ĠBoth": 4131,
      "Ġelected": 4132,
      "Ġdefeat": 4133,
      "Ġearned": 4134,
      "ĠTer": 4135,
      "Write": 4136,
      "Ġfill": 4137,
      "Ġpositions": 4138,
      "Ġmeaning": 4139,
      "Ġtrade": 4140,
      "Ġcovered": 4141,
      "Ġqual": 4142,
      "Ġlisted": 4143,
      "Ġsister": 4144,
      "Ġthr": 4145,
      "Ġindustry": 4146,
      "itation": 4147,
      "reme": 4148,
      "ĠUnder": 4149,
      "NT": 4150,
      "house": 4151,
      "Ġrefused": 4152,
      "Ġsinger": 4153,
      "Ġdistance": 4154,
      "max": 4155,
      "ĠFinal": 4156,
      "Ġremove": 4157,
      "Ġcommented": 4158,
      "ĠMax": 4159,
      "Ġtraditional": 4160,
      "Ġlargely": 4161,
      "Ġappropri": 4162,
      "ĠGreek": 4163,
      "Ġmale": 4164,
      "ĠTur": 4165,
      "ĠMartin": 4166,
      "Ġadj": 4167,
      "Ġ1950": 4168,
      "fect": 4169,
      "Ġcer": 4170,
      "Ġpaint": 4171,
      "oses": 4172,
      "Ġ1995": 4173,
      "oly": 4174,
      "Ġrecomm": 4175,
      "mark": 4176,
      "Ġmission": 4177,
      "otal": 4178,
      "acher": 4179,
      "ĠEmpire": 4180,
      "ategory": 4181,
      "Ġattention": 4182,
      "Ġmeant": 4183,
      "ĠBob": 4184,
      "Ġplot": 4185,
      "Ġwor": 4186,
      "alle": 4187,
      "An": 4188,
      "andon": 4189,
      "config": 4190,
      "ĠMiss": 4191,
      "arters": 4192,
      "Ġproduce": 4193,
      "Ġaudience": 4194,
      "Ġpit": 4195,
      "enant": 4196,
      "ĊĊ": 4197,
      "Ġdemonstr": 4198,
      "Ġ2016": 4199,
      "Ġroy": 4200,
      "Ġcomput": 4201,
      "Ġlegisl": 4202,
      "ĠMur": 4203,
      "Ġnecessary": 4204,
      "Ġgiving": 4205,
      "ulated": 4206,
      "Ġwebs": 4207,
      "25": 4208,
      "ech": 4209,
      "ram": 4210,
      "Ġmovie": 4211,
      "Ġnewsp": 4212,
      "hips": 4213,
      "ĠApp": 4214,
      "valid": 4215,
      "ighter": 4216,
      "ĠSir": 4217,
      "ĠDef": 4218,
      "Ġ1996": 4219,
      "Ġlevels": 4220,
      "ĠItalian": 4221,
      "ĠBet": 4222,
      "Ġartist": 4223,
      "Ġfighting": 4224,
      "fl": 4225,
      "aging": 4226,
      "cel": 4227,
      "Ġdirectory": 4228,
      "div": 4229,
      "ĠCorps": 4230,
      "ĠOl": 4231,
      "ĠOff": 4232,
      "Ġ49": 4233,
      "bre": 4234,
      "ĠCons": 4235,
      "Ġshowed": 4236,
      "Ġcoup": 4237,
      "null": 4238,
      "Ġmethods": 4239,
      "aped": 4240,
      "Ġcho": 4241,
      "HO": 4242,
      "Ġcontem": 4243,
      "undred": 4244,
      "Ġprec": 4245,
      "Ġanimals": 4246,
      "Ġblood": 4247,
      "Ġofficer": 4248,
      "ya": 4249,
      "ĠRev": 4250,
      "ĠDVD": 4251,
      "Ġending": 4252,
      "ĠMany": 4253,
      "ĠCamp": 4254,
      "Ġdistinct": 4255,
      "Ġdepression": 4256,
      "Ġcas": 4257,
      "Ġseem": 4258,
      "Ġdra": 4259,
      "ĠPenn": 4260,
      "Ġpiece": 4261,
      "Ġprep": 4262,
      "ĠViet": 4263,
      "ĠDel": 4264,
      "ID": 4265,
      "ĠRad": 4266,
      "Ġmachine": 4267,
      "ĠGroup": 4268,
      "osen": 4269,
      "Ġshare": 4270,
      "Ġprompt": 4271,
      "respond": 4272,
      "Ġ180": 4273,
      "Ġnearby": 4274,
      "Ġcommander": 4275,
      "Ġreligious": 4276,
      "Ġserious": 4277,
      "Ġbecomes": 4278,
      "Ġ1994": 4279,
      "Ġvoc": 4280,
      "ht": 4281,
      "Ġcollection": 4282,
      "Ġefficient": 4283,
      "Ġut": 4284,
      "ka": 4285,
      "Ġseconds": 4286,
      "Ġ]];": 4287,
      "PATH": 4288,
      "Ġrequest": 4289,
      "onic": 4290,
      "Ġtheat": 4291,
      "Ġconstit": 4292,
      "osh": 4293,
      "Ġhighly": 4294,
      "ĠCath": 4295,
      "Ġattempts": 4296,
      "Ġprotect": 4297,
      "Ġkilomet": 4298,
      "Ġpun": 4299,
      "ĠTour": 4300,
      "ĠWales": 4301,
      "ĠAfrican": 4302,
      "ĠTime": 4303,
      "ĠJose": 4304,
      "Ġincorpor": 4305,
      "ani": 4306,
      "Ġ1940": 4307,
      "Ġobs": 4308,
      "Ġtheme": 4309,
      "ounded": 4310,
      "track": 4311,
      "Ġfix": 4312,
      "Ġparam": 4313,
      "wide": 4314,
      "Ġdirection": 4315,
      "overs": 4316,
      "Ġconstructed": 4317,
      "road": 4318,
      "ended": 4319,
      "ĠCreate": 4320,
      "ĠRet": 4321,
      "Ġrapid": 4322,
      "ysis": 4323,
      "80": 4324,
      "Ġstra": 4325,
      "Ġdraft": 4326,
      "ona": 4327,
      "ĠOtt": 4328,
      "Ġcontinues": 4329,
      "ceeded": 4330,
      "ĠHere": 4331,
      "pre": 4332,
      "Ġcompetition": 4333,
      "Ġenergy": 4334,
      "odies": 4335,
      "ĠDemocr": 4336,
      "Ġcontroll": 4337,
      "QL": 4338,
      "Ġabandon": 4339,
      "inson": 4340,
      "Ċĉĉ": 4341,
      "like": 4342,
      "class": 4343,
      "sub": 4344,
      "ĠUse": 4345,
      "utch": 4346,
      "Ġcandid": 4347,
      ")\"": 4348,
      "Ġblue": 4349,
      "ĠOutput": 4350,
      "iences": 4351,
      "Ġdistrict": 4352,
      "iced": 4353,
      "Ġreduced": 4354,
      "ttps": 4355,
      "Ġannual": 4356,
      "iant": 4357,
      "iance": 4358,
      "ether": 4359,
      "more": 4360,
      "ĠBre": 4361,
      "Ġcorrespond": 4362,
      "Ġpractice": 4363,
      "Ġadult": 4364,
      "ĠMinister": 4365,
      "ef": 4366,
      "Ġmorning": 4367,
      "Ġdut": 4368,
      "ĠNort": 4369,
      "Ġ400": 4370,
      "Ġid": 4371,
      "antasy": 4372,
      "ibly": 4373,
      "rypt": 4374,
      "Ġstating": 4375,
      "Ġcentre": 4376,
      "Ġeducation": 4377,
      "Ġsle": 4378,
      "ĠMass": 4379,
      "inet": 4380,
      "arrow": 4381,
      "Ġsides": 4382,
      "Ġcombin": 4383,
      "Ġpresented": 4384,
      "ĠĠĠĠĠĠĠĠĠĠĠĠĠĠĠĠ": 4385,
      "ingu": 4386,
      "rier": 4387,
      "host": 4388,
      "Ġlot": 4389,
      "Ġroyal": 4390,
      "Ġchief": 4391,
      "ictionary": 4392,
      "ogue": 4393,
      "ih": 4394,
      "ĠLong": 4395,
      "ias": 4396,
      "ste": 4397,
      "Ġaccepted": 4398,
      "ĠMichigan": 4399,
      "Ġge": 4400,
      "Ġcannot": 4401,
      "Ġcombat": 4402,
      "Ġdropped": 4403,
      "Ġbehav": 4404,
      "da": 4405,
      "ello": 4406,
      "Ġupdate": 4407,
      "standing": 4408,
      "Ġresponsible": 4409,
      "Ġmanaged": 4410,
      "Ġwear": 4411,
      "Ġconsec": 4412,
      "Ġattended": 4413,
      "Ġinteger": 4414,
      "Ġsevent": 4415,
      "MP": 4416,
      "When": 4417,
      "isher": 4418,
      "Ġdidn": 4419,
      "vement": 4420,
      "ĠZealand": 4421,
      "Ġhar": 4422,
      "astic": 4423,
      "Ġtwenty": 4424,
      "Ġbal": 4425,
      "Ġmetal": 4426,
      "AD": 4427,
      "enge": 4428,
      "url": 4429,
      "band": 4430,
      "ĠDepartment": 4431,
      "Ġusers": 4432,
      "Ġhorse": 4433,
      "Ġadvance": 4434,
      "Ġtypes": 4435,
      "do": 4436,
      "ĠOx": 4437,
      "ishop": 4438,
      "Ġreversed": 4439,
      "LI": 4440,
      "rug": 4441,
      "ĠAcad": 4442,
      "Ġformat": 4443,
      "Ġthick": 4444,
      "Ġ1992": 4445,
      "claim": 4446,
      "force": 4447,
      "icated": 4448,
      "ĠAnother": 4449,
      "Ġforms": 4450,
      "irmed": 4451,
      "Ġconne": 4452,
      "ĠFox": 4453,
      "ifying": 4454,
      "Ġreference": 4455,
      "Ġcam": 4456,
      "()`": 4457,
      "Ġyard": 4458,
      "ĠMexico": 4459,
      "mit": 4460,
      "ply": 4461,
      "Ġamb": 4462,
      "ean": 4463,
      "nown": 4464,
      "\";": 4465,
      "ini": 4466,
      "Ġexpress": 4467,
      "ĠDou": 4468,
      "Ġdism": 4469,
      "Ġusage": 4470,
      "TE": 4471,
      "Ġbank": 4472,
      "Ġ1930": 4473,
      "Ġborder": 4474,
      "/$": 4475,
      "ĠSince": 4476,
      "stitute": 4477,
      "Ġedition": 4478,
      "ĠHaw": 4479,
      "Ġnucle": 4480,
      "Ġrare": 4481,
      "ieut": 4482,
      "atus": 4483,
      "Ġlegal": 4484,
      "Ġfarm": 4485,
      "ĠSum": 4486,
      "writ": 4487,
      "Ġcalling": 4488,
      "Ġpresence": 4489,
      "ĠMem": 4490,
      "arden": 4491,
      "run": 4492,
      "Äĩ": 4493,
      "Ġ39": 4494,
      "ĠMore": 4495,
      "ĠHel": 4496,
      "Ġprogress": 4497,
      "Ġstrength": 4498,
      "One": 4499,
      "ĠFore": 4500,
      "Ġwing": 4501,
      "Ġ64": 4502,
      "Ġtrying": 4503,
      "olf": 4504,
      "Ġobjects": 4505,
      "Ġvariety": 4506,
      "Ġschools": 4507,
      "Ġnation": 4508,
      "Ġ183": 4509,
      "Ġlimit": 4510,
      "point": 4511,
      "Ġlongest": 4512,
      "icense": 4513,
      "irit": 4514,
      "ĠMatt": 4515,
      "fil": 4516,
      "rm": 4517,
      "Ġcollege": 4518,
      "Ġplatform": 4519,
      "Ġpurs": 4520,
      "Ġdance": 4521,
      "Ġsoft": 4522,
      "Ġhouses": 4523,
      "ĠInst": 4524,
      "Ġmarked": 4525,
      "ĠWall": 4526,
      "Ġefforts": 4527,
      "Ġvot": 4528,
      "ĠVer": 4529,
      "tters": 4530,
      "Ġtim": 4531,
      "Ġparents": 4532,
      "illery": 4533,
      "])": 4534,
      "icip": 4535,
      "ĠTeam": 4536,
      "fully": 4537,
      "ĠMa": 4538,
      "Ġbegins": 4539,
      "Ġfalse": 4540,
      "Ġcontrovers": 4541,
      "RI": 4542,
      "Ġlooked": 4543,
      "Ġ179": 4544,
      "cd": 4545,
      "Ġquality": 4546,
      "FA": 4547,
      "ita": 4548,
      "Ġonto": 4549,
      "then": 4550,
      "rome": 4551,
      "Ġjoin": 4552,
      "Ġscience": 4553,
      "Ġcontaining": 4554,
      "LO": 4555,
      "Ġweight": 4556,
      "Ġhandling": 4557,
      "embly": 4558,
      "ada": 4559,
      "Ġcastle": 4560,
      "Ġfollows": 4561,
      "Ġmarriage": 4562,
      "Ġforeign": 4563,
      "Ġinches": 4564,
      "Ġaw": 4565,
      "Ġschol": 4566,
      "ersey": 4567,
      "60": 4568,
      "ĠTheir": 4569,
      "isation": 4570,
      "uration": 4571,
      "ĠCapt": 4572,
      "Ġdrum": 4573,
      "ervation": 4574,
      "ĠScotland": 4575,
      "ĠFilm": 4576,
      "Ġcyclone": 4577,
      "ĠCreek": 4578,
      "Ġ1991": 4579,
      "Ġoil": 4580,
      "Ġdatabase": 4581,
      "Ġtraffic": 4582,
      "Ġded": 4583,
      "Ġcerem": 4584,
      "ĠMadonna": 4585,
      "15": 4586,
      "ĠAdd": 4587,
      "istry": 4588,
      "ĠJones": 4589,
      "Ġ1993": 4590,
      "Ġflo": 4591,
      "ĠSar": 4592,
      "clude": 4593,
      "tered": 4594,
      "Ġrule": 4595,
      "Ġheard": 4596,
      "Ġperformances": 4597,
      "annel": 4598,
      "=${": 4599,
      "Ġhundred": 4600,
      "rc": 4601,
      "ette": 4602,
      "peror": 4603,
      "Ġsuppl": 4604,
      "Ġchampionship": 4605,
      "Ġnotes": 4606,
      "Ġitems": 4607,
      "ĠInfantry": 4608,
      "olt": 4609,
      "Ġarrest": 4610,
      "ieutenant": 4611,
      "Ġstrugg": 4612,
      "Ġeconomic": 4613,
      "error": 4614,
      "ĠChris": 4615,
      "ĠBost": 4616,
      "aling": 4617,
      "Ġactually": 4618,
      "Ġbound": 4619,
      "ours": 4620,
      "Ġcontrast": 4621,
      "itable": 4622,
      "sw": 4623,
      "ĠPan": 4624,
      "icro": 4625,
      "Ġactions": 4626,
      "Ġtransl": 4627,
      "Ġencounter": 4628,
      "odd": 4629,
      "uit": 4630,
      "Ġ47": 4631,
      "ĠSimps": 4632,
      "Ġunivers": 4633,
      "Ġdivided": 4634,
      "Ġconducted": 4635,
      "bl": 4636,
      "ĠAdm": 4637,
      "gypt": 4638,
      "oes": 4639,
      "json": 4640,
      "ĠStone": 4641,
      "Ġthrow": 4642,
      "Ġrespond": 4643,
      "Ġsteps": 4644,
      "Ġtoday": 4645,
      "Ġsurpr": 4646,
      "ĠWal": 4647,
      "Ġscale": 4648,
      "Ġcompar": 4649,
      "Ġmind": 4650,
      "PT": 4651,
      "Ġsystems": 4652,
      "ĠSecret": 4653,
      "Ġgraph": 4654,
      "Ġportion": 4655,
      "Ġstories": 4656,
      "ĠMod": 4657,
      "acity": 4658,
      "Ġweather": 4659,
      "Ġviewers": 4660,
      "ager": 4661,
      "ĠHung": 4662,
      "Ġtransferred": 4663,
      "ĠArch": 4664,
      "ĠWilliams": 4665,
      "Ġseg": 4666,
      "Ġmetres": 4667,
      "iques": 4668,
      "Åį": 4669,
      "venue": 4670,
      "Ġupd": 4671,
      "Ġroot": 4672,
      "ĠKenn": 4673,
      "Ġenemy": 4674,
      "Ġinstalled": 4675,
      "Ġsed": 4676,
      "Ġrecurs": 4677,
      "Ġstructures": 4678,
      "Ġgreen": 4679,
      "udd": 4680,
      "Ġowned": 4681,
      "Ġexhib": 4682,
      "ĠAnn": 4683,
      "Ġbeat": 4684,
      "Pr": 4685,
      "Ġapplication": 4686,
      "Ġfinancial": 4687,
      "thur": 4688,
      "Ġdisp": 4689,
      "Ġpull": 4690,
      "ĠCross": 4691,
      "Ġreject": 4692,
      "Ġrelatively": 4693,
      "ecause": 4694,
      "Ġpeaked": 4695,
      "ellig": 4696,
      "ĠParliament": 4697,
      "ĠNews": 4698,
      "Ġscoring": 4699,
      "Ġindependent": 4700,
      "Ġcreating": 4701,
      "Ġcombined": 4702,
      "Ġprimarily": 4703,
      "Ġlibrary": 4704,
      "Ġhands": 4705,
      "Ġwebsite": 4706,
      "box": 4707,
      "alled": 4708,
      "Ġbroke": 4709,
      "Ġpassing": 4710,
      "ĠCheck": 4711,
      "Ġfigure": 4712,
      "Ġheight": 4713,
      "Ġcaptain": 4714,
      "itiz": 4715,
      "Ġpict": 4716,
      "ĠRecords": 4717,
      "ruit": 4718,
      "ĠShow": 4719,
      "ĠLatin": 4720,
      "ĠEgypt": 4721,
      "Ġ1942": 4722,
      "Ġfounded": 4723,
      "local": 4724,
      "ĠIre": 4725,
      "ĠDar": 4726,
      "range": 4727,
      "Ġorders": 4728,
      "no": 4729,
      "Ġcoming": 4730,
      "ĠConf": 4731,
      "CA": 4732,
      "Ġconcluded": 4733,
      "Ġletters": 4734,
      "olved": 4735,
      "etc": 4736,
      "Ġcell": 4737,
      "ivity": 4738,
      "ĠWind": 4739,
      "Ġpowerful": 4740,
      "ww": 4741,
      "Ġice": 4742,
      "Ġobserved": 4743,
      "Ġversions": 4744,
      "Ġjournal": 4745,
      "Ġpaid": 4746,
      "ĠStan": 4747,
      "rence": 4748,
      "Ġconfig": 4749,
      "Ġintegers": 4750,
      "ĠEach": 4751,
      "ĠCommittee": 4752,
      "Ġsituation": 4753,
      "Ġslightly": 4754,
      "uge": 4755,
      "ĠOh": 4756,
      "Ġgreatest": 4757,
      "onents": 4758,
      "Ġlabel": 4759,
      "ications": 4760,
      "ĠSociety": 4761,
      "Ġopportun": 4762,
      "Create": 4763,
      "Ġcausing": 4764,
      "Ġcorn": 4765,
      "=\"${": 4766,
      "ĠRepublican": 4767,
      "Ġfederal": 4768,
      "Ġ44": 4769,
      "ented": 4770,
      "Ġappropriate": 4771,
      "16": 4772,
      "ĠPri": 4773,
      "ĠGames": 4774,
      "Ġtitled": 4775,
      "hat": 4776,
      "Ġtourn": 4777,
      "Ġbott": 4778,
      "Ġ55": 4779,
      "Ġfeed": 4780,
      "Ġvisited": 4781,
      "git": 4782,
      "Ġwriters": 4783,
      "build": 4784,
      "jo": 4785,
      "ograp": 4786,
      "Ġess": 4787,
      "Ġolder": 4788,
      "ky": 4789,
      "Ġvocal": 4790,
      "illa": 4791,
      "ĠFour": 4792,
      "ĠJer": 4793,
      "ĠAv": 4794,
      "entr": 4795,
      "Ġdoll": 4796,
      "Ġcollabor": 4797,
      "Ġvocals": 4798,
      "IL": 4799,
      "Ġfeaturing": 4800,
      "ĠBoston": 4801,
      "Ġweaken": 4802,
      "Ġinch": 4803,
      "Ġcompanies": 4804,
      "ĠFoot": 4805,
      "ĠSat": 4806,
      "ĠPrince": 4807,
      "Ġrepresented": 4808,
      "Ġpasseng": 4809,
      "ĠSouthern": 4810,
      "Ġclean": 4811,
      "pret": 4812,
      "Ġdistrib": 4813,
      "ĠAdmiral": 4814,
      "known": 4815,
      "Ġcert": 4816,
      "Ġpremi": 4817,
      "Ġchoice": 4818,
      "Ġdoub": 4819,
      "Con": 4820,
      "ĠBook": 4821,
      "Ġrough": 4822,
      "Ġcompletely": 4823,
      "Ġdelet": 4824,
      "Ġdeploy": 4825,
      "ĠTri": 4826,
      "Ġdoing": 4827,
      "ĠFre": 4828,
      "Ġrecent": 4829,
      "Ġselling": 4830,
      "Ġacting": 4831,
      "Ġselect": 4832,
      "Ġ150": 4833,
      "imens": 4834,
      "Ġ<=": 4835,
      "Ġpsy": 4836,
      "ĠGar": 4837,
      "ĠGeorg": 4838,
      "earch": 4839,
      "eu": 4840,
      "Ġnews": 4841,
      "td": 4842,
      "Ġactor": 4843,
      "Ġsets": 4844,
      "osaur": 4845,
      "ips": 4846,
      "ĠLine": 4847,
      "Ġ48": 4848,
      "Ġplays": 4849,
      "Ġpoet": 4850,
      "prime": 4851,
      "ĠChief": 4852,
      "Ġple": 4853,
      "ql": 4854,
      "ĠCamb": 4855,
      "ĠOxford": 4856,
      "ĠAut": 4857,
      "rol": 4858,
      "ĠSwed": 4859,
      "mas": 4860,
      "ĠOp": 4861,
      "19": 4862,
      "Ġtail": 4863,
      "Ġsubsequent": 4864,
      "*.": 4865,
      "ĠVietn": 4866,
      "Ġsuc": 4867,
      "itan": 4868,
      "Ġinnings": 4869,
      "imate": 4870,
      "Ġcalls": 4871,
      "Ġultimately": 4872,
      "Ġtorped": 4873,
      "Ġactivity": 4874,
      "ulations": 4875,
      "eway": 4876,
      "char": 4877,
      "Ġ1944": 4878,
      "ĠNot": 4879,
      "Ġexplained": 4880,
      "Ġadding": 4881,
      "Ġpolicy": 4882,
      "Ġwaters": 4883,
      "ĠCommission": 4884,
      "ĠCap": 4885,
      "ota": 4886,
      "script": 4887,
      "perial": 4888,
      "Ġcities": 4889,
      "Ġsources": 4890,
      "Ġthous": 4891,
      "ĠTw": 4892,
      "aine": 4893,
      "za": 4894,
      "Ġroll": 4895,
      "Ġmainly": 4896,
      "anna": 4897,
      "Ġsetting": 4898,
      "Ġir": 4899,
      "ĠParis": 4900,
      "Ġtrial": 4901,
      "Ġstatement": 4902,
      "ĠBridge": 4903,
      "Ġwidely": 4904,
      "ĠHor": 4905,
      "umes": 4906,
      "Ġdesignated": 4907,
      "Ġelectric": 4908,
      "rel": 4909,
      "Ġsought": 4910,
      "Ġalongside": 4911,
      "ns": 4912,
      "Ġ42": 4913,
      "ĠManchester": 4914,
      "iny": 4915,
      "aming": 4916,
      "Ġreform": 4917,
      "Ġbatter": 4918,
      "ĠBBC": 4919,
      "Ġhus": 4920,
      "Ġculture": 4921,
      "ĠDire": 4922,
      "Ġunc": 4923,
      "Ġstruck": 4924,
      "ĠInit": 4925,
      "Ġbom": 4926,
      "ĠFred": 4927,
      "Ġconsecutive": 4928,
      "Ġtag": 4929,
      "ĠJeff": 4930,
      "ĠStephen": 4931,
      "Ġtrees": 4932,
      "ĠSil": 4933,
      "ety": 4934,
      "arian": 4935,
      "Ġdise": 4936,
      "ĠColumb": 4937,
      "Ġreturning": 4938,
      "ĠSol": 4939,
      "oti": 4940,
      "ĠDen": 4941,
      "Ġnormal": 4942,
      "Ġprovides": 4943,
      "Ġserve": 4944,
      "body": 4945,
      "ala": 4946,
      "Ġinfluenced": 4947,
      "Ġtend": 4948,
      "inem": 4949,
      "Ġreaching": 4950,
      "Ġign": 4951,
      "resh": 4952,
      "Ġsociety": 4953,
      "Ġvess": 4954,
      "Ġsens": 4955,
      "Ġgenerate": 4956,
      "Ġwinter": 4957,
      "ĠGra": 4958,
      "result": 4959,
      "ĠJoseph": 4960,
      "root": 4961,
      "Ġofficials": 4962,
      "ĠHarrison": 4963,
      "cers": 4964,
      "ĠCaptain": 4965,
      "Ġknew": 4966,
      "Ġpeace": 4967,
      "ĠAcademy": 4968,
      "Ġnortheast": 4969,
      "ĠPubl": 4970,
      "ĠCroat": 4971,
      "Ġmis": 4972,
      "ban": 4973,
      "ras": 4974,
      "iful": 4975,
      "bon": 4976,
      "Ġsout": 4977,
      "ĠPost": 4978,
      "orses": 4979,
      "ĠClass": 4980,
      "ocked": 4981,
      "UB": 4982,
      "Ġgained": 4983,
      "Ġalone": 4984,
      "Ġseek": 4985,
      "ĠBat": 4986,
      "uate": 4987,
      "Ġcrow": 4988,
      "init": 4989,
      "orter": 4990,
      "ushed": 4991,
      "amic": 4992,
      "Ġmentioned": 4993,
      "Ġresist": 4994,
      "Ġcollect": 4995,
      "Ġthir": 4996,
      "Ġreplace": 4997,
      "Script": 4998,
      "ĠBattalion": 4999,
      "Ġchalleng": 5000,
      "ĠFinally": 5001,
      "Ġpassword": 5002,
      "Ġ*.": 5003,
      "ylvan": 5004,
      "Ġconfirmed": 5005,
      "Ġhero": 5006,
      "Ġminimum": 5007,
      "fficient": 5008,
      "SION": 5009,
      "Ġconcentr": 5010,
      "phy": 5011,
      "Ġfinds": 5012,
      "Ġsuccessfully": 5013,
      "Ġnominated": 5014,
      "mond": 5015,
      "Ġfloor": 5016,
      "ĠBrad": 5017,
      "Ġexpressed": 5018,
      "thlet": 5019,
      "itness": 5020,
      "Ġbeaut": 5021,
      "Ġtells": 5022,
      "ĠSever": 5023,
      "Ġpromoted": 5024,
      "ufact": 5025,
      "ĠArab": 5026,
      "ĠAmericans": 5027,
      "aved": 5028,
      "och": 5029,
      "Ġ1941": 5030,
      "Ġloved": 5031,
      "Ġ1920": 5032,
      "pool": 5033,
      "ĠEntertain": 5034,
      "ĠNorm": 5035,
      "ĠJo": 5036,
      "ĠVan": 5037,
      "./": 5038,
      "oured": 5039,
      "Ġproved": 5040,
      "Ġ1945": 5041,
      "Ġ!=": 5042,
      "ĠPop": 5043,
      "Ġmel": 5044,
      "Ġ65": 5045,
      "Ġartists": 5046,
      "Ġnaval": 5047,
      "Ġcapture": 5048,
      "gn": 5049,
      "Ġrein": 5050,
      "ĠBrigade": 5051,
      "Ġbirds": 5052,
      "Ġtun": 5053,
      "Ġspread": 5054,
      "Ġvisual": 5055,
      "Ġsixth": 5056,
      "awn": 5057,
      "Ġcharge": 5058,
      "Ġswe": 5059,
      "TV": 5060,
      "ĠAvenue": 5061,
      "Ġlinked": 5062,
      "ĠCare": 5063,
      "ĠItaly": 5064,
      "Ġrang": 5065,
      "Ġadvanced": 5066,
      "ĠSeries": 5067,
      "ugh": 5068,
      "quarters": 5069,
      "Ġemot": 5070,
      "Ġ43": 5071,
      "Ġdefined": 5072,
      "ĠSaint": 5073,
      "Ġsentence": 5074,
      "usion": 5075,
      "Ġoffer": 5076,
      "ĠHal": 5077,
      "ĠGre": 5078,
      "Ġidentified": 5079,
      "Ġrepeated": 5080,
      "Ġpilot": 5081,
      "Ġmissing": 5082,
      "CO": 5083,
      "Ġhospital": 5084,
      "Ġsimply": 5085,
      "Ġnorthwest": 5086,
      "ĠService": 5087,
      "MB": 5088,
      "Ġfuel": 5089,
      "ĠWay": 5090,
      "Ġemail": 5091,
      "Ġcounty": 5092,
      "Ġshortly": 5093,
      "heless": 5094,
      "adel": 5095,
      "iano": 5096,
      "ĠMuseum": 5097,
      "Ġ</": 5098,
      "Ġprice": 5099,
      "Ġexisting": 5100,
      "Ġsense": 5101,
      "Ġstd": 5102,
      "acement": 5103,
      "Ġwild": 5104,
      "Ġrisk": 5105,
      "cat": 5106,
      "For": 5107,
      "ĠMajor": 5108,
      "oration": 5109,
      "Ġsust": 5110,
      "ĠUs": 5111,
      "gz": 5112,
      "arning": 5113,
      "Ġinvasion": 5114,
      "Ġdelay": 5115,
      "rick": 5116,
      "Ġphysical": 5117,
      "Ġtheory": 5118,
      "ĠThree": 5119,
      "14": 5120,
      "Ġpieces": 5121,
      "ĠEntertainment": 5122,
      "Out": 5123,
      "Ġraise": 5124,
      "ĠHT": 5125,
      "][": 5126,
      "ĠRem": 5127,
      "Ġparalle": 5128,
      "Ġsun": 5129,
      "ancy": 5130,
      "Ġfa": 5131,
      "Ġequip": 5132,
      "ĠFleet": 5133,
      "Ġcomes": 5134,
      "Ġahead": 5135,
      "Ġconstant": 5136,
      "ĠIreland": 5137,
      "Ġweb": 5138,
      "ĊĠĠĠĠĠĠĠĠĠ": 5139,
      "Ġbed": 5140,
      "Ġchosen": 5141,
      "append": 5142,
      "Ġremov": 5143,
      "ev": 5144,
      "RL": 5145,
      "ding": 5146,
      "Ġpan": 5147,
      "Ġgas": 5148,
      "Ġsecurity": 5149,
      "obal": 5150,
      "HL": 5151,
      "Ġ600": 5152,
      "aga": 5153,
      "RA": 5154,
      "ĠRegiment": 5155,
      "stone": 5156,
      "Ġtechniques": 5157,
      "Ġresidents": 5158,
      "rong": 5159,
      "Ġsplit": 5160,
      "Ġcompos": 5161,
      "Ġsyn": 5162,
      "Ġsoundtrack": 5163,
      "txt": 5164,
      "ĠĊ": 5165,
      "Ġpaper": 5166,
      "US": 5167,
      "Ġstatic": 5168,
      "ĠCatholic": 5169,
      "ĠLee": 5170,
      "Ġfrequently": 5171,
      "Ġstone": 5172,
      "ĠIS": 5173,
      "Ġ1943": 5174,
      "ĠEll": 5175,
      "ighth": 5176,
      "Ġsexual": 5177,
      "Ġbrown": 5178,
      "Ġtypically": 5179,
      "Ġseasons": 5180,
      "ĠPre": 5181,
      "ĠYoung": 5182,
      "Ġheavily": 5183,
      "Ġ52": 5184,
      "Ġchem": 5185,
      "bur": 5186,
      "ĠLittle": 5187,
      "ES": 5188,
      "Ġmaster": 5189,
      "Ġsure": 5190,
      "Ġalbums": 5191,
      "Ġmatter": 5192,
      "AG": 5193,
      "Ġchecks": 5194,
      "Ġorganization": 5195,
      "ĠRh": 5196,
      "Ġiron": 5197,
      "Ġherself": 5198,
      "FL": 5199,
      "Ġera": 5200,
      "Ġartillery": 5201,
      "illy": 5202,
      "Ġleaves": 5203,
      "Ġeth": 5204,
      "ĠDev": 5205,
      "cend": 5206,
      "lements": 5207,
      "Ġweapons": 5208,
      "List": 5209,
      "Ġmodified": 5210,
      "Ġlooking": 5211,
      "Des": 5212,
      "comp": 5213,
      "ĠRepublic": 5214,
      "Ġdictionary": 5215,
      "Ġfair": 5216,
      "ĠSant": 5217,
      "iro": 5218,
      "Ġfully": 5219,
      "Ġapparent": 5220,
      "ansion": 5221,
      "Ġmoment": 5222,
      "Ġanalysis": 5223,
      "ims": 5224,
      "ĠCarl": 5225,
      "ĠValley": 5226,
      "racted": 5227,
      "bar": 5228,
      "ĠThen": 5229,
      "ĠArm": 5230,
      "Ġofficially": 5231,
      "iling": 5232,
      "amm": 5233,
      "ename": 5234,
      "Ġshift": 5235,
      "ronic": 5236,
      "33": 5237,
      "Ġ1989": 5238,
      "iÄĩ": 5239,
      "uous": 5240,
      "gu": 5241,
      "Ġresc": 5242,
      "ĠVictoria": 5243,
      "Ġhusband": 5244,
      "Ġintegr": 5245,
      "Ġfrequency": 5246,
      "vis": 5247,
      "ĠSpec": 5248,
      "Ġtwice": 5249,
      "Ġoptim": 5250,
      "Ġring": 5251,
      "ĠNin": 5252,
      "Ġinstit": 5253,
      "Ġprominent": 5254,
      "Ġaccident": 5255,
      "ĠCharl": 5256,
      "Ġdebuted": 5257,
      "ĠRay": 5258,
      "Ġnothing": 5259,
      "room": 5260,
      "oles": 5261,
      "ĊĠĠĠĠĠĠĠĠĠĠĠĠĠĠĠĠĠĠĠ": 5262,
      "ĠGood": 5263,
      "Ġconsisted": 5264,
      "Ġargued": 5265,
      "Ġends": 5266,
      "Ġspring": 5267,
      "Ġfired": 5268,
      "Ġdang": 5269,
      "Cl": 5270,
      "Ġtru": 5271,
      "exec": 5272,
      "Ġmanagement": 5273,
      "abeth": 5274,
      "ĠDutch": 5275,
      "ĠLiber": 5276,
      "Ġdefense": 5277,
      "Ġimprove": 5278,
      "ĠForm": 5279,
      "Ġgrowth": 5280,
      "Ġextend": 5281,
      "Ġexecutive": 5282,
      "Ġinstrument": 5283,
      "Ġaffected": 5284,
      "ylvania": 5285,
      "Ġappearances": 5286,
      "En": 5287,
      "Ġspeech": 5288,
      "Ġretrie": 5289,
      "Ġaired": 5290,
      "Ġmaintained": 5291,
      "uzz": 5292,
      "ancing": 5293,
      "Ġinjury": 5294,
      "Ġequipment": 5295,
      "ĠWeek": 5296,
      "ĠTrue": 5297,
      "ARG": 5298,
      "sl": 5299,
      "export": 5300,
      "Ġaccur": 5301,
      "eters": 5302,
      "Ġstudies": 5303,
      "Ġprefer": 5304,
      "Ġfigures": 5305,
      "Ġmedical": 5306,
      "Ġlaid": 5307,
      "Ġreports": 5308,
      "urban": 5309,
      "numbers": 5310,
      "amer": 5311,
      "Ġearth": 5312,
      "Ġschedul": 5313,
      "ki": 5314,
      "lers": 5315,
      "ledge": 5316,
      "avig": 5317,
      "clusion": 5318,
      "Ġcontemporary": 5319,
      "Ġplaces": 5320,
      "Ġdescending": 5321,
      "Ġcapacity": 5322,
      "IV": 5323,
      "Ġadvant": 5324,
      "ĠLight": 5325,
      "Ġperfect": 5326,
      "inner": 5327,
      "omatic": 5328,
      "Ġaspect": 5329,
      "ĠJul": 5330,
      "Ġboat": 5331,
      "Ġprepar": 5332,
      "Ġox": 5333,
      "Ġoccasion": 5334,
      "istrict": 5335,
      "Ġsubs": 5336,
      "Ġbul": 5337,
      "Ġcatch": 5338,
      "ĠRy": 5339,
      "Ġwhy": 5340,
      "Ġpurpose": 5341,
      "Ġcouple": 5342,
      "Ġactivities": 5343,
      "stream": 5344,
      "ba": 5345,
      "rical": 5346,
      "Ġleaders": 5347,
      "Ġactual": 5348,
      "Ġemph": 5349,
      "arts": 5350,
      "html": 5351,
      "Ġkg": 5352,
      "VERSION": 5353,
      "Ġbud": 5354,
      "etic": 5355,
      "Ġexped": 5356,
      "Ġcriticized": 5357,
      "Ġbranch": 5358,
      "ĠDun": 5359,
      "icks": 5360,
      "\");": 5361,
      "Ġ46": 5362,
      "node": 5363,
      "Ġhall": 5364,
      "ĠCommun": 5365,
      "Ġ=>": 5366,
      "Ġescape": 5367,
      "ĠMat": 5368,
      "Ġyellow": 5369,
      "Ġcitiz": 5370,
      "asket": 5371,
      "Ġsurre": 5372,
      "Note": 5373,
      "words": 5374,
      "ears": 5375,
      "Ġduplic": 5376,
      "Ġsenior": 5377,
      "een": 5378,
      "rig": 5379,
      "Ġwa": 5380,
      "Ġ./": 5381,
      "Ġcrowd": 5382,
      "Ġtoward": 5383,
      "ayer": 5384,
      "Ġhyd": 5385,
      "Ġsave": 5386,
      "Ġtournament": 5387,
      "amber": 5388,
      "utton": 5389,
      "ĠTay": 5390,
      "Ġworldwide": 5391,
      "ĠRom": 5392,
      "Ġtemperature": 5393,
      "ãĤ": 5394,
      "ĠLife": 5395,
      "Ġbinary": 5396,
      "Ġelim": 5397,
      "elve": 5398,
      "uls": 5399,
      "ĠRam": 5400,
      "Ġgrew": 5401,
      "Ġdrug": 5402,
      "len": 5403,
      "Ġdegree": 5404,
      "Ġunknown": 5405,
      "ental": 5406,
      "ĠJoe": 5407,
      "TC": 5408,
      "With": 5409,
      "ading": 5410,
      "Ġterritory": 5411,
      "ocks": 5412,
      "ĠEliz": 5413,
      "BA": 5414,
      "Ġnative": 5415,
      "Ġsingles": 5416,
      "Ġnarr": 5417,
      "ucky": 5418,
      "ockey": 5419,
      "Ġgrade": 5420,
      "ĠSeveral": 5421,
      "ĠDistrict": 5422,
      "Ġpasses": 5423,
      "Ġexperiment": 5424,
      "Ġnote": 5425,
      "Ġanimal": 5426,
      "ocated": 5427,
      "Ġuniversity": 5428,
      "Ġemployees": 5429,
      "inus": 5430,
      "ĠBond": 5431,
      "Ġmanufact": 5432,
      "ola": 5433,
      "stitution": 5434,
      "Ġtherefore": 5435,
      "Ġmeasure": 5436,
      "Ġfellow": 5437,
      "Ġ54": 5438,
      "Ġflying": 5439,
      "Ġedge": 5440,
      "Ġnegoti": 5441,
      "atures": 5442,
      "isters": 5443,
      "ption": 5444,
      "Ġguest": 5445,
      "Ġfailure": 5446,
      "Ġachieved": 5447,
      "gian": 5448,
      "udo": 5449,
      "Ġrainfall": 5450,
      "ĠHomer": 5451,
      "Ġclaims": 5452,
      "ĠCarolina": 5453,
      "book": 5454,
      "aby": 5455,
      "aven": 5456,
      "ĠDE": 5457,
      "Ġformation": 5458,
      "Ġwalls": 5459,
      "Ġstations": 5460,
      "Ġsimple": 5461,
      "place": 5462,
      "ĠTop": 5463,
      "Ġreign": 5464,
      "Ġinterpret": 5465,
      "Ġfish": 5466,
      "ĠSub": 5467,
      "Ġhistorian": 5468,
      "isf": 5469,
      "Ġmurder": 5470,
      "emic": 5471,
      "yles": 5472,
      "Ġfaced": 5473,
      "ĠNorthern": 5474,
      "ĠBey": 5475,
      "ners": 5476,
      "eller": 5477,
      "Ġdetails": 5478,
      "Ĥ¬": 5479,
      "ĠLand": 5480,
      "Ġsurrounding": 5481,
      "essions": 5482,
      "Ġbillion": 5483,
      "Ġprogramming": 5484,
      "Ġlif": 5485,
      "Ġpropos": 5486,
      "Ġtreatment": 5487,
      "ĠKar": 5488,
      "Ġpipe": 5489,
      "Ġdeck": 5490,
      "ĠIll": 5491,
      "Ġremark": 5492,
      "Ġ97": 5493,
      "Ġcommonly": 5494,
      "Ġcontained": 5495,
      "Ġburn": 5496,
      "Ġchose": 5497,
      "Ġbey": 5498,
      "TER": 5499,
      "Ġweak": 5500,
      "uster": 5501,
      "ĠHolly": 5502,
      "ĠWork": 5503,
      "Ġnewly": 5504,
      "Ġattrib": 5505,
      "Ġ$(": 5506,
      "ĠGal": 5507,
      "azz": 5508,
      "aud": 5509,
      "li": 5510,
      "ĠWhat": 5511,
      "encies": 5512,
      "Ġ41": 5513,
      "Ġdecre": 5514,
      "istics": 5515,
      "ĠScottish": 5516,
      "Ġbeyond": 5517,
      "Ġoperated": 5518,
      "Ġbelieve": 5519,
      "Ġrom": 5520,
      "Ġarms": 5521,
      "Ġworkers": 5522,
      "Ġgovernor": 5523,
      "Ġ\"\"": 5524,
      "fort": 5525,
      "ĠTem": 5526,
      "Ġur": 5527,
      "Ġhorses": 5528,
      "Ġbroken": 5529,
      "ĠGuard": 5530,
      "come": 5531,
      "rance": 5532,
      "Ġplanet": 5533,
      "?\"": 5534,
      "ĠDam": 5535,
      "Ġet": 5536,
      "ĠBus": 5537,
      "Ġopin": 5538,
      "Ġsand": 5539,
      "Ġpet": 5540,
      "Ġreceive": 5541,
      "Ġimag": 5542,
      "ickets": 5543,
      "Ġaccompan": 5544,
      "ĠPolish": 5545,
      "Ġfan": 5546,
      "Ġlaunch": 5547,
      "Ġlives": 5548,
      "ĠOcean": 5549,
      "ATE": 5550,
      "rael": 5551,
      "Find": 5552,
      "ĠDi": 5553,
      "uct": 5554,
      "ĠFootball": 5555,
      "rog": 5556,
      "Ġgrowing": 5557,
      "Ġwounded": 5558,
      "ĠMen": 5559,
      "ĠBecause": 5560,
      "under": 5561,
      "Ġsecure": 5562,
      "Ġserving": 5563,
      "Ġvote": 5564,
      "ĠFantasy": 5565,
      "ĠAlso": 5566,
      "ĠRog": 5567,
      "ĠStudios": 5568,
      "atal": 5569,
      "Ġvirt": 5570,
      "ĠJavaScript": 5571,
      "ĠDaniel": 5572,
      "Ġmob": 5573,
      "ĠAC": 5574,
      "ĠField": 5575,
      "Ġroles": 5576,
      "ĠSpring": 5577,
      "Ġguard": 5578,
      "ttp": 5579,
      "ĠHard": 5580,
      "Ġlearned": 5581,
      "Ġsail": 5582,
      "There": 5583,
      "hew": 5584,
      "ĠDet": 5585,
      "Ġ1987": 5586,
      "Ã¨": 5587,
      "Ġauthority": 5588,
      "UT": 5589,
      "ĠDuke": 5590,
      "Ġemphas": 5591,
      "stra": 5592,
      "Ġcomposition": 5593,
      "Ġrecon": 5594,
      "Ġsession": 5595,
      "Ġopposed": 5596,
      "ĠPenns": 5597,
      "Ġlosing": 5598,
      "ĠCivil": 5599,
      "Ġhistorical": 5600,
      "Ġ1988": 5601,
      "Ġ182": 5602,
      "Ġexception": 5603,
      "Ġdrive": 5604,
      "leton": 5605,
      "ĠNone": 5606,
      "lt": 5607,
      "inate": 5608,
      "Ġcaught": 5609,
      "Ġdiam": 5610,
      "ĠBC": 5611,
      "Ġgenerated": 5612,
      "Ġassault": 5613,
      "ĠChristmas": 5614,
      "Ġnewspaper": 5615,
      "aly": 5616,
      "Ġrot": 5617,
      "ĠLike": 5618,
      "ĠGovernor": 5619,
      "fail": 5620,
      "gend": 5621,
      "Ġparticipated": 5622,
      "ipl": 5623,
      "ĠSenate": 5624,
      "Ġindividuals": 5625,
      "Ġspirit": 5626,
      "Ġargument": 5627,
      "Ġshared": 5628,
      "Ġtransform": 5629,
      "ĠJon": 5630,
      "Ġrestrict": 5631,
      "Ġrailway": 5632,
      "Ġdetermined": 5633,
      "Ġarticle": 5634,
      "mat": 5635,
      "ĠEastern": 5636,
      "Ġphil": 5637,
      "culate": 5638,
      "ln": 5639,
      "Ġdepartment": 5640,
      "Ġproducers": 5641,
      "Ġcasual": 5642,
      "check": 5643,
      "Ġadopted": 5644,
      "ĠFer": 5645,
      "ographer": 5646,
      "ĠAllied": 5647,
      "ĠBeat": 5648,
      "ping": 5649,
      "ĠFalse": 5650,
      "Ġchair": 5651,
      "Ġlearning": 5652,
      "ampion": 5653,
      "ĠProv": 5654,
      "Ġoffensive": 5655,
      "Ġupgr": 5656,
      "Ġbudget": 5657,
      "gest": 5658,
      "Ġsevere": 5659,
      "ĠLew": 5660,
      "Ġbasis": 5661,
      "Ġthing": 5662,
      "Ġperforming": 5663,
      "next": 5664,
      "Ġcurrently": 5665,
      "Ġstarts": 5666,
      "Ġsynt": 5667,
      "ĠHome": 5668,
      "Ad": 5669,
      "Ġelev": 5670,
      "Ġopposition": 5671,
      "ilies": 5672,
      "Ġcouncil": 5673,
      "Ġactors": 5674,
      "He": 5675,
      "la": 5676,
      "ĠMarsh": 5677,
      "ĠGirl": 5678,
      "Ġrear": 5679,
      "erc": 5680,
      "Ġimproved": 5681,
      "ĠGovernment": 5682,
      "Output": 5683,
      "Ġmut": 5684,
      "13": 5685,
      "ĠCorn": 5686,
      "ĠGil": 5687,
      "Ġtower": 5688,
      "ĠLuc": 5689,
      "[]": 5690,
      "ĠPen": 5691,
      "kdir": 5692,
      "Ġeyes": 5693,
      "ĠSS": 5694,
      "igg": 5695,
      "Ġbenef": 5696,
      "Ã¤": 5697,
      "Ġadvent": 5698,
      "ĠHistor": 5699,
      "pton": 5700,
      "UP": 5701,
      "Ġitem": 5702,
      "Ġeye": 5703,
      "cs": 5704,
      "Ġspecified": 5705,
      "Ġ>>": 5706,
      "ĠFestival": 5707,
      "Ġabandoned": 5708,
      "the": 5709,
      "Ġsquadron": 5710,
      "Ġgives": 5711,
      "Ġfamous": 5712,
      "Ġconverted": 5713,
      "Ġfilming": 5714,
      "utt": 5715,
      "ĠColon": 5716,
      "Ġ85": 5717,
      "Ġcoal": 5718,
      "ĠPers": 5719,
      "Ġhomes": 5720,
      "ĠBart": 5721,
      "Ġproviding": 5722,
      "Ġchap": 5723,
      "Ġturns": 5724,
      "gal": 5725,
      "Ġcreation": 5726,
      "Ġfields": 5727,
      "Ġspect": 5728,
      "Ġhonor": 5729,
      "ulate": 5730,
      "Ġrh": 5731,
      "isers": 5732,
      "Ġ95": 5733,
      "olid": 5734,
      "kin": 5735,
      "hens": 5736,
      "Ġagreement": 5737,
      "Ġfiction": 5738,
      "anda": 5739,
      "zer": 5740,
      "Ġunsu": 5741,
      "ĠNight": 5742,
      "Ġrival": 5743,
      "\".": 5744,
      "Ġfilmed": 5745,
      "Ġregarded": 5746,
      "ishes": 5747,
      "aching": 5748,
      "Ġliber": 5749,
      "uses": 5750,
      "Ġhabit": 5751,
      "osa": 5752,
      "Ġpossibly": 5753,
      "ura": 5754,
      "++)": 5755,
      "Ġexpansion": 5756,
      "Val": 5757,
      "Ġdownload": 5758,
      "ĠRod": 5759,
      "ker": 5760,
      "Ġseat": 5761,
      "Ġmodels": 5762,
      "ĠIslands": 5763,
      "Ġexact": 5764,
      "Ġ177": 5765,
      "ĠExp": 5766,
      "Ġdismiss": 5767,
      "ĊĠĠĠĠĠĠĠĠĊĠĠĠĠĠĠĠ": 5768,
      "ĠWilson": 5769,
      "Ġpurchased": 5770,
      "ĠOs": 5771,
      "ĠAre": 5772,
      "apers": 5773,
      "ients": 5774,
      "Ġserver": 5775,
      "ĠIrish": 5776,
      "Although": 5777,
      "ĠElizabeth": 5778,
      "ĠÎ": 5779,
      "Ġvolume": 5780,
      "ĠCop": 5781,
      "ĠJac": 5782,
      "Ġdifficulty": 5783,
      "ĠCard": 5784,
      "ĠMD": 5785,
      "ĠMike": 5786,
      "Ġ1986": 5787,
      "Ġideas": 5788,
      "ĠAlexander": 5789,
      "Ġeffective": 5790,
      "Ġproducts": 5791,
      "Ġnarrow": 5792,
      "akers": 5793,
      "ĠTaylor": 5794,
      "ĠAlbert": 5795,
      "ĠBlue": 5796,
      "overy": 5797,
      "Ġfinding": 5798,
      "Ġinn": 5799,
      "Ġcombination": 5800,
      "friend": 5801,
      "Ġmile": 5802,
      "Ġast": 5803,
      "ĠBor": 5804,
      "Ġevac": 5805,
      "Ġsilver": 5806,
      "ARCH": 5807,
      "ĠSquare": 5808,
      "px": 5809,
      "ĠFe": 5810,
      "Ġstraight": 5811,
      "ĠArg": 5812,
      "ĠAndrew": 5813,
      "erved": 5814,
      "Ġconsole": 5815,
      "Ġrules": 5816,
      "ĠPennsylvania": 5817,
      "Ġbodies": 5818,
      "ĠString": 5819,
      "Ġbass": 5820,
      "Ġgranted": 5821,
      "Ġsubt": 5822,
      "Ġconduct": 5823,
      "ĠLo": 5824,
      "Ġdeliver": 5825,
      "iments": 5826,
      "Ġstrike": 5827,
      "ĠHy": 5828,
      "CON": 5829,
      "Ġsupply": 5830,
      "Ġsports": 5831,
      "ĠMu": 5832,
      "ski": 5833,
      "ienced": 5834,
      "Ġ120": 5835,
      "Ġkilling": 5836,
      "ĠSpain": 5837,
      "Ġorganized": 5838,
      "Ġfinish": 5839,
      "stein": 5840,
      "ĠCoast": 5841,
      "Ġmist": 5842,
      "Ġperman": 5843,
      "Ġincident": 5844,
      "Ġextensive": 5845,
      "32": 5846,
      "rich": 5847,
      "Ġcriticism": 5848,
      "Ġvo": 5849,
      "Ġconnection": 5850,
      "Ġintellig": 5851,
      "estic": 5852,
      "ĠCy": 5853,
      "Ġbelong": 5854,
      "Ġcomputer": 5855,
      "Ġsuggests": 5856,
      "ĠCastle": 5857,
      "Ġplants": 5858,
      "oken": 5859,
      "inity": 5860,
      "86": 5861,
      "Ġgetting": 5862,
      "Ġrejected": 5863,
      "Ġrecently": 5864,
      "OS": 5865,
      "ĠSand": 5866,
      "Ġretired": 5867,
      "Ġmaintain": 5868,
      "ĠTech": 5869,
      "omy": 5870,
      "eria": 5871,
      "acks": 5872,
      "Ġbriefly": 5873,
      "uman": 5874,
      "BU": 5875,
      "Ġunf": 5876,
      "ĠTy": 5877,
      "ima": 5878,
      "Ġcold": 5879,
      "Ġdisput": 5880,
      "ĠJud": 5881,
      "ĠBru": 5882,
      "Ġtorpedo": 5883,
      "kins": 5884,
      "else": 5885,
      "outs": 5886,
      "Ġselection": 5887,
      "Ġdetermine": 5888,
      "Ġinterchange": 5889,
      "ĠTro": 5890,
      "Ġexpanded": 5891,
      "done": 5892,
      "Ġarmed": 5893,
      "inf": 5894,
      "ĠJersey": 5895,
      "Ġdepth": 5896,
      "Ġdisease": 5897,
      "Ġvariables": 5898,
      "Ġwave": 5899,
      "ĠSund": 5900,
      "Ġmeets": 5901,
      "iana": 5902,
      "Ġgross": 5903,
      "17": 5904,
      "Ġdrop": 5905,
      "Ġtwelve": 5906,
      "ĠMiddle": 5907,
      "Ġsend": 5908,
      "Ġkilometres": 5909,
      "Ġmarg": 5910,
      "Ġ;;": 5911,
      "Ġdescribes": 5912,
      "Ġancient": 5913,
      "Us": 5914,
      "Id": 5915,
      "Ġoption": 5916,
      "Ġroads": 5917,
      "ĠFar": 5918,
      "Ġsurrender": 5919,
      "Ġsymbol": 5920,
      "ĠPrime": 5921,
      "Ġinh": 5922,
      "Ġclasses": 5923,
      "etime": 5924,
      "################################": 5925,
      "Ġlanding": 5926,
      "Ġstopped": 5927,
      "mosp": 5928,
      "ifications": 5929,
      "requ": 5930,
      "Ġanything": 5931,
      "abled": 5932,
      "itche": 5933,
      "Ġroof": 5934,
      "Ġpush": 5935,
      "Ġ1000": 5936,
      "ĠInstitute": 5937,
      "Ġwatched": 5938,
      "Ġfought": 5939,
      "ĠFurther": 5940,
      "Ġsinging": 5941,
      "ĠHurricane": 5942,
      "Ġ800": 5943,
      "ii": 5944,
      "edom": 5945,
      "Ġcard": 5946,
      "Ġinfantry": 5947,
      "90": 5948,
      "iner": 5949,
      "Ġvehicles": 5950,
      "Ġhair": 5951,
      "Ġiniti": 5952,
      "ĠRun": 5953,
      "Ġ1939": 5954,
      "ĠOperation": 5955,
      "ĠMul": 5956,
      "ector": 5957,
      "Ġcrossing": 5958,
      "Ġadministration": 5959,
      "Ġconsists": 5960,
      "Ġwithdraw": 5961,
      "ĠLind": 5962,
      "avalry": 5963,
      "Ġstreet": 5964,
      "Ġencoura": 5965,
      "ĠBul": 5966,
      "Ġdistributed": 5967,
      "ĠFind": 5968,
      "ĠLy": 5969,
      "Ġacquired": 5970,
      "Ġpsych": 5971,
      "DEST": 5972,
      "Following": 5973,
      "Ġalph": 5974,
      "Ġchor": 5975,
      "Ġgrep": 5976,
      "Ġsolo": 5977,
      "pping": 5978,
      "ĠHarry": 5979,
      "onym": 5980,
      "Ġintersection": 5981,
      "ĠAPI": 5982,
      "ĠIsrael": 5983,
      "ĠWW": 5984,
      "Ġimages": 5985,
      "Ġfranch": 5986,
      "Ġtitles": 5987,
      "state": 5988,
      "John": 5989,
      "Ġ76": 5990,
      "ĠBefore": 5991,
      "ella": 5992,
      "Ġcommissioned": 5993,
      "Ġaim": 5994,
      "ender": 5995,
      "Ġstanding": 5996,
      "ĠBoard": 5997,
      "kes": 5998,
      "Ġarrang": 5999,
      "Ġexplos": 6000,
      "cÃ©": 6001,
      "ĠInc": 6002,
      "Ġmechanism": 6003,
      "zil": 6004,
      "Ġdial": 6005,
      "Ġleadership": 6006,
      "war": 6007,
      "ĠThough": 6008,
      "ĠDoctor": 6009,
      "orted": 6010,
      "Ġkick": 6011,
      "Ġsafety": 6012,
      "ĠEnd": 6013,
      "attle": 6014,
      "Ġsorting": 6015,
      "KE": 6016,
      "Ġcommittee": 6017,
      "Ġseventh": 6018,
      "haps": 6019,
      "Ġ1968": 6020,
      "Ġentry": 6021,
      "ROM": 6022,
      "Ġ57": 6023,
      "wall": 6024,
      "ods": 6025,
      "ĠCub": 6026,
      "ĠBon": 6027,
      "Ġachieve": 6028,
      "Ġdrama": 6029,
      "ĠSound": 6030,
      "Ġmode": 6031,
      "Ġcomedy": 6032,
      "Ġfavour": 6033,
      "abel": 6034,
      "output": 6035,
      "ĠHind": 6036,
      "Ġtrav": 6037,
      "oln": 6038,
      "fs": 6039,
      "irect": 6040,
      "TP": 6041,
      "ĠInt": 6042,
      "Ġcontrolled": 6043,
      "pot": 6044,
      "ĠSecretary": 6045,
      "Ġfresh": 6046,
      "ĠAN": 6047,
      "Ġshape": 6048,
      "Ġquite": 6049,
      "adelph": 6050,
      "ĠAsh": 6051,
      "const": 6052,
      "ĠPoint": 6053,
      "oma": 6054,
      "ĠLive": 6055,
      "BS": 6056,
      "Ġmouth": 6057,
      "onder": 6058,
      "ĠCD": 6059,
      "anes": 6060,
      "Ġauthorities": 6061,
      "ĠSur": 6062,
      "ĠWel": 6063,
      "Ġtests": 6064,
      "Ġbasic": 6065,
      "Ġheadquarters": 6066,
      "Ġnuclear": 6067,
      "Ġ56": 6068,
      "inth": 6069,
      "inger": 6070,
      "Ġgenus": 6071,
      "OL": 6072,
      "Ġworth": 6073,
      "ĠLes": 6074,
      "Ġextrem": 6075,
      "LECT": 6076,
      "Ġillustr": 6077,
      "Ġlists": 6078,
      "ĠClark": 6079,
      "Ġadvantage": 6080,
      "ĠReturn": 6081,
      "ario": 6082,
      "ĠMir": 6083,
      "ĠYour": 6084,
      "Ġcart": 6085,
      "Ġislands": 6086,
      "Ġunus": 6087,
      "Ġ1985": 6088,
      "UL": 6089,
      "ĠGet": 6090,
      "ĠWild": 6091,
      "ĠPhiladelph": 6092,
      "Ġhousehold": 6093,
      "ĠGall": 6094,
      "Input": 6095,
      "ĠArthur": 6096,
      "Ġadvert": 6097,
      "Ġfamilies": 6098,
      "Ġentirely": 6099,
      "ĠRevolution": 6100,
      "Ġpowers": 6101,
      "Ġreput": 6102,
      "eds": 6103,
      "active": 6104,
      "Ġcool": 6105,
      "ĠCommand": 6106,
      "Ġcircul": 6107,
      "Ġdry": 6108,
      "Ġneighbor": 6109,
      "docker": 6110,
      "Ġsalary": 6111,
      "Ġ>=": 6112,
      "ĠOhio": 6113,
      "ĠJes": 6114,
      "Ġsac": 6115,
      "ĠPu": 6116,
      "Ġacad": 6117,
      "Ġturre": 6118,
      "water": 6119,
      "Ġlocations": 6120,
      "tendo": 6121,
      "rat": 6122,
      "Ġscheduled": 6123,
      "Ġegg": 6124,
      "Ġbattalion": 6125,
      "While": 6126,
      "Ġsad": 6127,
      "Ġyounger": 6128,
      "ĠPhiladelphia": 6129,
      "/.": 6130,
      "Ġdepict": 6131,
      "Ã¢": 6132,
      "DO": 6133,
      "sm": 6134,
      "Ġprotected": 6135,
      "Ġ53": 6136,
      "Ġcontributed": 6137,
      "Ġcars": 6138,
      "Ġ1984": 6139,
      "Ġexpression": 6140,
      "18": 6141,
      "Ġcore": 6142,
      "itled": 6143,
      "Ġsubm": 6144,
      "Ġdemand": 6145,
      "Ġorche": 6146,
      "ĠCommon": 6147,
      "Ġliked": 6148,
      "Ġdescript": 6149,
      "Ġdifference": 6150,
      "iverpool": 6151,
      "ĠKey": 6152,
      "Ġmounted": 6153,
      "ĠHead": 6154,
      "Ġcry": 6155,
      "Ġenjoyed": 6156,
      "ĠGeorgia": 6157,
      "ĠCambridge": 6158,
      "etch": 6159,
      "Ġcopy": 6160,
      "install": 6161,
      "Ġ74": 6162,
      "Ġtouchdown": 6163,
      "Ġflooding": 6164,
      "uan": 6165,
      "Ġdedicated": 6166,
      "100": 6167,
      "Ġha": 6168,
      "ĠSup": 6169,
      "ĠOf": 6170,
      "Ġreduce": 6171,
      "Ġholding": 6172,
      "Ġregister": 6173,
      "Ġintensity": 6174,
      "iration": 6175,
      "ĠMov": 6176,
      "ĠAlbum": 6177,
      "Ġclosely": 6178,
      "Ġrob": 6179,
      "arp": 6180,
      "agn": 6181,
      "ĠMain": 6182,
      "erted": 6183,
      "Ġ1967": 6184,
      "Ġaccompanied": 6185,
      "Ġtrou": 6186,
      "Ġdefence": 6187,
      "Ġarrival": 6188,
      "cles": 6189,
      "Ġorigin": 6190,
      "isa": 6191,
      "Ġatmosp": 6192,
      "isted": 6193,
      "ĠRussia": 6194,
      "Ġbra": 6195,
      "Ġcultural": 6196,
      "ĠNintendo": 6197,
      "ĠFrancisco": 6198,
      ",\"": 6199,
      "ali": 6200,
      "angle": 6201,
      "ĠHTML": 6202,
      "Ġoccupied": 6203,
      "Ġdefensive": 6204,
      "ĠColumbia": 6205,
      "Ġvow": 6206,
      "ologist": 6207,
      "Ġquant": 6208,
      "Ġfilled": 6209,
      "ĠRon": 6210,
      "ĠFin": 6211,
      "Ġnob": 6212,
      "Ġcells": 6213,
      "Station": 6214,
      "Ġceremony": 6215,
      "Ġexpect": 6216,
      "ĠOnce": 6217,
      "Ġsignificantly": 6218,
      "Ġmotor": 6219,
      "Ġgoes": 6220,
      "current": 6221,
      "Ġsupporting": 6222,
      "acci": 6223,
      "Ġpublication": 6224,
      "Ġauth": 6225,
      "Ġreading": 6226,
      "ĠMah": 6227,
      "ĠGro": 6228,
      "Ġtrains": 6229,
      "ĠJewish": 6230,
      "Ġ77": 6231,
      "ĠSher": 6232,
      "ĠOrig": 6233,
      "ĠEvery": 6234,
      "Ġstack": 6235,
      "ourney": 6236,
      "Ġ99": 6237,
      "Ġdoor": 6238,
      "hell": 6239,
      "incoln": 6240,
      "Ġphilos": 6241,
      "ĠSQL": 6242,
      "Ġfirm": 6243,
      "ĠWars": 6244,
      "Ġreceiving": 6245,
      "Ġprotection": 6246,
      "rons": 6247,
      "ĠAsia": 6248,
      "Ġreflect": 6249,
      "Ġharm": 6250,
      "asketball": 6251,
      "ashion": 6252,
      "ĠHit": 6253,
      "yer": 6254,
      "left": 6255,
      "Ġvoid": 6256,
      "apore": 6257,
      "greg": 6258,
      "Ġexpedition": 6259,
      "Ġcenturies": 6260,
      "Ġrows": 6261,
      "ĠEven": 6262,
      "ibon": 6263,
      "unting": 6264,
      "Ġboats": 6265,
      "Ġbor": 6266,
      "Ġrated": 6267,
      "Ġalternative": 6268,
      "Ġregions": 6269,
      "Ġdrawn": 6270,
      "Ġeasily": 6271,
      "Ġprojects": 6272,
      "elly": 6273,
      "Ġparallel": 6274,
      "ĠKorean": 6275,
      "Ġtall": 6276,
      "Ġseems": 6277,
      "rad": 6278,
      "ĠBurn": 6279,
      "Ġtrip": 6280,
      "Ġmountain": 6281,
      "Ġpip": 6282,
      "Ġrecognized": 6283,
      "ĠSR": 6284,
      "agan": 6285,
      "Ġcricket": 6286,
      "code": 6287,
      "...\"": 6288,
      "ĠShort": 6289,
      "orship": 6290,
      "Ġinstance": 6291,
      "Ġsmiled": 6292,
      "ĠBrazil": 6293,
      "ua": 6294,
      "Ġec": 6295,
      "ĠPlayStation": 6296,
      "va": 6297,
      "Ġindustrial": 6298,
      "hent": 6299,
      "ĠBase": 6300,
      "Ġrise": 6301,
      "Ġdeveloping": 6302,
      "Ġsleep": 6303,
      "Ġproperties": 6304,
      "ĠBroad": 6305,
      "GN": 6306,
      "ĠLiverpool": 6307,
      "Ġfocused": 6308,
      "PE": 6309,
      "Ġaid": 6310,
      "essed": 6311,
      "ĠLincoln": 6312,
      "lected": 6313,
      "Ġerrors": 6314,
      "ĠDisney": 6315,
      "Ġsport": 6316,
      "ibonacci": 6317,
      "Ġmotion": 6318,
      "ags": 6319,
      "Ġsquad": 6320,
      "Ġ1964": 6321,
      "Element": 6322,
      "zant": 6323,
      "ĠSingapore": 6324,
      "Ġ1983": 6325,
      "Ġdisapp": 6326,
      "Ġshark": 6327,
      "Ġneeds": 6328,
      "mann": 6329,
      "essor": 6330,
      "Ġshooting": 6331,
      "Ġconnected": 6332,
      "Ste": 6333,
      "Ġexperienced": 6334,
      "Ġ1969": 6335,
      "Ġopportunity": 6336,
      "Ġlat": 6337,
      "Ġgain": 6338,
      "Ġ1914": 6339,
      "Ġlabor": 6340,
      "Ġcomic": 6341,
      "ĠUN": 6342,
      "ĠOffice": 6343,
      "ĠHay": 6344,
      "Ġengaged": 6345,
      "Ġsomeone": 6346,
      "Ġthemes": 6347,
      "ĠInstead": 6348,
      "orage": 6349,
      "zy": 6350,
      "Ġ67": 6351,
      "Ġcitizens": 6352,
      "Ġ1918": 6353,
      "flow": 6354,
      "Ġobserv": 6355,
      "ĠRol": 6356,
      "ĠDark": 6357,
      "Ġoperating": 6358,
      "ĠNever": 6359,
      "ĠSus": 6360,
      "Ġhired": 6361,
      "rett": 6362,
      "âĤ¬": 6363,
      "].": 6364,
      "Count": 6365,
      "ĠHand": 6366,
      "ĠVen": 6367,
      "Ġviewed": 6368,
      "eral": 6369,
      "Ġovers": 6370,
      "ĠJean": 6371,
      "Ġbottom": 6372,
      "ĠBalt": 6373,
      "Ġsubmar": 6374,
      "ĠOnly": 6375,
      "Ġvac": 6376,
      "Ġlap": 6377,
      "ĠCarey": 6378,
      "ao": 6379,
      "ĠMiller": 6380,
      "appe": 6381,
      "ĠOrder": 6382,
      "Ġfilter": 6383,
      "Ġdaily": 6384,
      "ĠBad": 6385,
      "Ġchance": 6386,
      "ects": 6387,
      "ĠGermans": 6388,
      "Ġgenre": 6389,
      "Ġodd": 6390,
      "Ġoccurs": 6391,
      "ĠByzant": 6392,
      "ĠHan": 6393,
      "ĠChart": 6394,
      "Ġresident": 6395,
      "\\\"": 6396,
      "ĠThrough": 6397,
      "Ġapplied": 6398,
      "omew": 6399,
      "Ġagent": 6400,
      "Ġscientific": 6401,
      "anation": 6402,
      "Ġrapidly": 6403,
      "opher": 6404,
      "Ġsoutheast": 6405,
      "Ġnotable": 6406,
      "ĠStorm": 6407,
      "Ġ1972": 6408,
      "Ġconference": 6409,
      "Ġeditor": 6410,
      "ĠAtt": 6411,
      "ĠDie": 6412,
      "Ġoverl": 6413,
      "Ġjoint": 6414,
      "Ġprepared": 6415,
      "Ġscholars": 6416,
      "cp": 6417,
      "Ġsecondary": 6418,
      "ceived": 6419,
      "Ġmoder": 6420,
      "ĠSet": 6421,
      "ilton": 6422,
      "ulture": 6423,
      "Ġ1982": 6424,
      "ĠPeople": 6425,
      "ĠTurn": 6426,
      "ĠGi": 6427,
      "Ġelif": 6428,
      "ĠAnderson": 6429,
      "awa": 6430,
      "Ġfacilities": 6431,
      "Ã¸": 6432,
      "Ġdefault": 6433,
      "SON": 6434,
      "Ġ1971": 6435,
      "ĠBrook": 6436,
      "sudo": 6437,
      "ĠPress": 6438,
      "ĠVol": 6439,
      "Cont": 6440,
      "Ġpiano": 6441,
      "ĠConference": 6442,
      "ĠOlympic": 6443,
      "Ġ1966": 6444,
      "ĠEmperor": 6445,
      "ignment": 6446,
      "ĠNHL": 6447,
      "ĠProdu": 6448,
      "Ġeverything": 6449,
      "Ġotherwise": 6450,
      "ĠTimmy": 6451,
      "Ġheads": 6452,
      "Ġdigital": 6453,
      "enue": 6454,
      "ira": 6455,
      "ĠJr": 6456,
      "Ġ66": 6457,
      "Ġcharts": 6458,
      "ĠBas": 6459,
      "ĠPass": 6460,
      "ownt": 6461,
      "Ġfly": 6462,
      "Ġfeeling": 6463,
      "Ġhydro": 6464,
      "ora": 6465,
      "Ġcorresponding": 6466,
      "ĠRos": 6467,
      "ĠGen": 6468,
      "asty": 6469,
      "Ġsubstant": 6470,
      "ĠLewis": 6471,
      "zen": 6472,
      "ĠJane": 6473,
      "Ġmerch": 6474,
      "Ġcolumns": 6475,
      "ĠHollywood": 6476,
      "ĠGulf": 6477,
      "Ġknowledge": 6478,
      "Ġcasualties": 6479,
      "Ġtank": 6480,
      "Ġnavig": 6481,
      "etts": 6482,
      "burgh": 6483,
      "ĠBank": 6484,
      "Ġ1979": 6485,
      "Ġawards": 6486,
      "Ġremainder": 6487,
      "ĠRailway": 6488,
      "iform": 6489,
      "Ġproceed": 6490,
      "Ind": 6491,
      "ographic": 6492,
      "Ġsemi": 6493,
      "Ġapproved": 6494,
      "Ġemployed": 6495,
      "Ġreasons": 6496,
      "Ġspaces": 6497,
      "Ġpopularity": 6498,
      "Ġdates": 6499,
      "Ġpainting": 6500,
      "ĠMic": 6501,
      "Ġsites": 6502,
      "ĠDemocratic": 6503,
      "Ġ250": 6504,
      "ĠEarl": 6505,
      "Ġ1965": 6506,
      "ĠGrant": 6507,
      "Pro": 6508,
      "ooth": 6509,
      "comm": 6510,
      "Ġsteel": 6511,
      "Array": 6512,
      "bound": 6513,
      "fix": 6514,
      "omic": 6515,
      "Ġshall": 6516,
      "ĠElect": 6517,
      "Ġ[]": 6518,
      "itors": 6519,
      "ĠMot": 6520,
      "ĠLet": 6521,
      "Ġeconomy": 6522,
      "Ġ58": 6523,
      "Ġwitness": 6524,
      "Ġbehavior": 6525,
      "Ġcontest": 6526,
      "heim": 6527,
      "vention": 6528,
      "itle": 6529,
      "PA": 6530,
      "Ġdoesn": 6531,
      "ĠSerb": 6532,
      "Ġisol": 6533,
      "Ġpoly": 6534,
      "Ġlosses": 6535,
      "ĠTropical": 6536,
      "izations": 6537,
      "ĠKen": 6538,
      "Ġcategory": 6539,
      "Ġunsuccess": 6540,
      "Ġtechnology": 6541,
      "Ġ1975": 6542,
      "ĠSteve": 6543,
      "ragon": 6544,
      "HER": 6545,
      "Ġ_": 6546,
      "ĠChild": 6547,
      "break": 6548,
      "Enter": 6549,
      "Ġcab": 6550,
      "Ġviews": 6551,
      "ko": 6552,
      "Ġbrothers": 6553,
      "Ġ51": 6554,
      "Ġtell": 6555,
      "Ġmigr": 6556,
      "Ġdrew": 6557,
      "ĠPot": 6558,
      "Ġbands": 6559,
      "ĠLieutenant": 6560,
      "Ġshowing": 6561,
      "eper": 6562,
      "Ġwrest": 6563,
      "Ġtrust": 6564,
      "Ġton": 6565,
      "Ġvon": 6566,
      "Ġroughly": 6567,
      "idden": 6568,
      "Ġnor": 6569,
      "ĠMean": 6570,
      "agement": 6571,
      "Ġsouthwest": 6572,
      "Ġpitch": 6573,
      "roduct": 6574,
      "iler": 6575,
      "oncÃ©": 6576,
      "Ġexport": 6577,
      "unior": 6578,
      "Ġpros": 6579,
      "inking": 6580,
      "Ġrac": 6581,
      "unte": 6582,
      "Ġfranchise": 6583,
      "Ġmyth": 6584,
      "Ġ1974": 6585,
      "ĠEp": 6586,
      "ĠDaily": 6587,
      "ipping": 6588,
      "ĠRome": 6589,
      "Ġtemp": 6590,
      "otic": 6591,
      "}.": 6592,
      "Ġurban": 6593,
      "Ġactress": 6594,
      "ĠMuslim": 6595,
      "eler": 6596,
      "Ġsteam": 6597,
      "ĠDavis": 6598,
      "Ġhttps": 6599,
      "Ġexchange": 6600,
      "Ġgameplay": 6601,
      "ivalent": 6602,
      "Ġassistant": 6603,
      "Ġcollected": 6604,
      "Ġstoryline": 6605,
      "Ġresistance": 6606,
      "Ġappre": 6607,
      "ĠBrian": 6608,
      "ultural": 6609,
      "Ġspot": 6610,
      "Ġ1973": 6611,
      "Ġsche": 6612,
      "Ġregarding": 6613,
      "Ġcloud": 6614,
      "Ġextension": 6615,
      ":-": 6616,
      "db": 6617,
      "Ġsnow": 6618,
      "Ġinjured": 6619,
      "Ġsections": 6620,
      "eed": 6621,
      "worth": 6622,
      "Ġrenamed": 6623,
      "Ġrequires": 6624,
      "ĠSom": 6625,
      "Ġ~": 6626,
      "Ġdivis": 6627,
      "apes": 6628,
      "unch": 6629,
      "org": 6630,
      "ĠGib": 6631,
      "ithub": 6632,
      "ĠNaz": 6633,
      "Ġperhaps": 6634,
      "Ġmuseum": 6635,
      "ĠSyd": 6636,
      "Ġmyst": 6637,
      "ĠOb": 6638,
      "Ġ87": 6639,
      "Ġdistingu": 6640,
      "ĠSummer": 6641,
      "Ġexerc": 6642,
      "Sh": 6643,
      "achus": 6644,
      "Ġeat": 6645,
      "Ġconsum": 6646,
      "Ġmatrix": 6647,
      "Ġ1976": 6648,
      "Ġdistribution": 6649,
      "Ġwealth": 6650,
      "Ġpurchase": 6651,
      "Ġprograms": 6652,
      "ĠUpon": 6653,
      "Ġpoem": 6654,
      "Ġdeclined": 6655,
      "Ġsucceeded": 6656,
      "ĠWalter": 6657,
      "ĠSix": 6658,
      "Ġdram": 6659,
      "actions": 6660,
      "Ġfactors": 6661,
      "password": 6662,
      "Ġshaped": 6663,
      "Ġundert": 6664,
      "Ġmarks": 6665,
      "Ġ59": 6666,
      "Ġopinion": 6667,
      "uting": 6668,
      "ĠRadio": 6669,
      "Ġneut": 6670,
      "Ġheaded": 6671,
      "Ġcandidate": 6672,
      "ĠFall": 6673,
      "ĠLab": 6674,
      "Ġreputation": 6675,
      "sey": 6676,
      "Ġdress": 6677,
      "Ġstages": 6678,
      "pack": 6679,
      "Ġ{}": 6680,
      "ĠâĪ": 6681,
      "Ġwarm": 6682,
      "Ġbear": 6683,
      "aug": 6684,
      "0000": 6685,
      "Ġways": 6686,
      "Ġowner": 6687,
      "Ġapproached": 6688,
      "Ġalle": 6689,
      "Ġteacher": 6690,
      "Ġestate": 6691,
      "ĠSupreme": 6692,
      "Ġturning": 6693,
      "Ġready": 6694,
      "BN": 6695,
      "Ġwrong": 6696,
      "Ġagric": 6697,
      "Ġexistence": 6698,
      "Ġ160": 6699,
      "Ġtowns": 6700,
      "VI": 6701,
      "ati": 6702,
      "Ġstadium": 6703,
      "Ġ62": 6704,
      "Ġlibraries": 6705,
      "Ġrecommended": 6706,
      "teenth": 6707,
      "HOME": 6708,
      "ĠAD": 6709,
      "Ġones": 6710,
      "Ġincreasingly": 6711,
      "Be": 6712,
      "Ġreaction": 6713,
      "aka": 6714,
      "Ġrepresents": 6715,
      "Ġsolve": 6716,
      "Ġnone": 6717,
      "lee": 6718,
      "entially": 6719,
      "Ġonline": 6720,
      "40": 6721,
      "ĠIV": 6722,
      "enses": 6723,
      "Ġcarrying": 6724,
      "Ġresources": 6725,
      "Ã¡n": 6726,
      "Ġliterature": 6727,
      "lines": 6728,
      "Ġnick": 6729,
      "Ġexists": 6730,
      "Ġmanner": 6731,
      "Ġplanning": 6732,
      "ĠWater": 6733,
      "Ġfashion": 6734,
      "ĠGord": 6735,
      "lets": 6736,
      "ules": 6737,
      "Ġtele": 6738,
      "According": 6739,
      "Ġdisplayed": 6740,
      "Ġresponded": 6741,
      "onia": 6742,
      "cal": 6743,
      "amin": 6744,
      "Ġremember": 6745,
      "ĠBu": 6746,
      "Ġretire": 6747,
      "ĠKentucky": 6748,
      "ĠSpecial": 6749,
      "oir": 6750,
      "ĠLady": 6751,
      "Ġ1946": 6752,
      "Ġspecifically": 6753,
      "']": 6754,
      "Ġcited": 6755,
      "ader": 6756,
      "ĠTam": 6757,
      "Ġunderstand": 6758,
      "ĠNorway": 6759,
      "ĠBeyoncÃ©": 6760,
      "ĠCir": 6761,
      "Ġphone": 6762,
      "Ġintern": 6763,
      "Ġrepresenting": 6764,
      "Ġwindow": 6765,
      "ĠAge": 6766,
      "Ġ178": 6767,
      "Hello": 6768,
      "ulpt": 6769,
      "eric": 6770,
      "ĠSel": 6771,
      "Ġ1917": 6772,
      "iminal": 6773,
      "osl": 6774,
      "Ġbrand": 6775,
      "ca": 6776,
      "js": 6777,
      "ĠPict": 6778,
      "Ġintroduction": 6779,
      "struction": 6780,
      "ĠFair": 6781,
      "ĠKir": 6782,
      "Ġ72": 6783,
      "Ġsatisf": 6784,
      "achusetts": 6785,
      "from": 6786,
      "Ġoccas": 6787,
      "Ġzone": 6788,
      "Ġflu": 6789,
      "Ġpersonnel": 6790,
      "--------------------------------": 6791,
      "Ġalt": 6792,
      "Ġconstitution": 6793,
      "una": 6794,
      "ĠStation": 6795,
      "Ġsustained": 6796,
      "Ġconsequ": 6797,
      "Ġcorner": 6798,
      "ĠWat": 6799,
      "Ġconstruct": 6800,
      "ĠBell": 6801,
      "Ġsolid": 6802,
      "Ġwel": 6803,
      "atre": 6804,
      "Ġarranged": 6805,
      "Ġcamera": 6806,
      "ĠCrit": 6807,
      "indrome": 6808,
      "ibrary": 6809,
      "ĠMassachusetts": 6810,
      "ĠHMS": 6811,
      "ĠMos": 6812,
      "Ġburied": 6813,
      "ĠRand": 6814,
      "Ġbought": 6815,
      "tem": 6816,
      "Ġmatching": 6817,
      "Ġlanguages": 6818,
      "Ġfruit": 6819,
      "Ġ1981": 6820,
      "Ġobtained": 6821,
      "Ġextremely": 6822,
      "alid": 6823,
      "Ġearliest": 6824,
      "unicip": 6825,
      "ĠWrit": 6826,
      "Ġyouth": 6827,
      "ĠNow": 6828,
      "ashed": 6829,
      "ĠPo": 6830,
      "Ġgradually": 6831,
      "Ġflat": 6832,
      "ĠList": 6833,
      "ĠAbb": 6834,
      "SI": 6835,
      "Ġpackage": 6836,
      "ĠIndust": 6837,
      "Ġvan": 6838,
      "ĠBern": 6839,
      "ĠBal": 6840,
      "Ġexclus": 6841,
      "Ġstock": 6842,
      "Ġ700": 6843,
      "Ġproducing": 6844,
      "aws": 6845,
      "Ġcredited": 6846,
      "sql": 6847,
      "Ġinner": 6848,
      "ĠTen": 6849,
      "vest": 6850,
      "ĠKa": 6851,
      "Ġarguments": 6852,
      "ĠRhod": 6853,
      "Ġeasy": 6854,
      "ĠColonel": 6855,
      "athan": 6856,
      "Ġweakened": 6857,
      "Ġglobal": 6858,
      "png": 6859,
      "ano": 6860,
      "Ġclassification": 6861,
      "ĠFam": 6862,
      "Ġretained": 6863,
      "Ġinternal": 6864,
      "Ġconfront": 6865,
      "onds": 6866,
      "ĠOlympics": 6867,
      "ivered": 6868,
      "Ġtesting": 6869,
      "Ġdesigns": 6870,
      "Ġlb": 6871,
      "ARGET": 6872,
      "nce": 6873,
      "aset": 6874,
      "Ġeld": 6875,
      "Ġbaseball": 6876,
      "Ġpreced": 6877,
      "ĠSimpsons": 6878,
      "ja": 6879,
      "GB": 6880,
      "Ġlasted": 6881,
      "Ġhits": 6882,
      "ilation": 6883,
      "Ġrat": 6884,
      "ĠRoss": 6885,
      "Ġfreeway": 6886,
      "Ġlands": 6887,
      "ĠAmong": 6888,
      "eless": 6889,
      "Ġmap": 6890,
      "antly": 6891,
      "BI": 6892,
      "ĠAirport": 6893,
      "Ġ73": 6894,
      "Ġ1948": 6895,
      "tty": 6896,
      "Ġeval": 6897,
      "Ġexecuted": 6898,
      "Ġathlet": 6899,
      "ĠLeg": 6900,
      "Ġacres": 6901,
      "Ġindicated": 6902,
      "Ġlandfall": 6903,
      "45": 6904,
      "Ġimportance": 6905,
      "Ġ\"$(": 6906,
      "Ġaware": 6907,
      "Ġlaws": 6908,
      "Ġattract": 6909,
      "=\"/": 6910,
      "println": 6911,
      "color": 6912,
      "ĠIndepend": 6913,
      "oard": 6914,
      "ĠHart": 6915,
      "Ġreserve": 6916,
      "Ġentrance": 6917,
      "Ġbattery": 6918,
      "Ġble": 6919,
      "ĠSa": 6920,
      "ints": 6921,
      "ĠDream": 6922,
      "EO": 6923,
      "ĠBall": 6924,
      "quest": 6925,
      "incess": 6926,
      "Ġglass": 6927,
      "osit": 6928,
      "Ġtransition": 6929,
      "ĠCat": 6930,
      "ĠImperial": 6931,
      "ĠGolden": 6932,
      "pace": 6933,
      "Ġban": 6934,
      "eman": 6935,
      "okes": 6936,
      "Ġswim": 6937,
      "issions": 6938,
      "cm": 6939,
      "osis": 6940,
      "Ġdelivered": 6941,
      "Ġcoastal": 6942,
      "ĠSydney": 6943,
      "adow": 6944,
      "ĠLicense": 6945,
      "rip": 6946,
      "essage": 6947,
      "Ġ1915": 6948,
      "ĠCape": 6949,
      "ĠWalk": 6950,
      "pop": 6951,
      "after": 6952,
      "Ġsettlement": 6953,
      "Ġdomestic": 6954,
      "istan": 6955,
      "Ġuns": 6956,
      "insula": 6957,
      "Ġfear": 6958,
      "Ġsomew": 6959,
      "Ġcommit": 6960,
      "Ġpipefail": 6961,
      "ĠStand": 6962,
      "Ġviolence": 6963,
      "AP": 6964,
      "raction": 6965,
      "Ġevening": 6966,
      "Ġengines": 6967,
      "owntown": 6968,
      "ĠDue": 6969,
      "ĠOttoman": 6970,
      "Ġroutes": 6971,
      "ĠPoland": 6972,
      "Ġsafe": 6973,
      "Ġfine": 6974,
      "ĠDown": 6975,
      "Ġoffers": 6976,
      "new": 6977,
      "Ġindu": 6978,
      "Ġacts": 6979,
      "TARGET": 6980,
      "denly": 6981,
      "================": 6982,
      "Ġdefin": 6983,
      "ĠVietnam": 6984,
      "Ġslowly": 6985,
      "Ġsculpt": 6986,
      "Number": 6987,
      "ĠMTV": 6988,
      "Ġconsisting": 6989,
      "ĠPrem": 6990,
      "illing": 6991,
      "SELECT": 6992,
      "Ġwrites": 6993,
      "Ġuncle": 6994,
      "dy": 6995,
      "Ġmales": 6996,
      "Ġshop": 6997,
      "Ġ1978": 6998,
      "Ġconfirm": 6999,
      "Ġindependence": 7000,
      "ĠFire": 7001,
      "Ġprinted": 7002,
      "Ġcinem": 7003,
      "Ġhumans": 7004,
      "Ġsupplies": 7005,
      "oday": 7006,
      "Ġparties": 7007,
      "weight": 7008,
      "PRO": 7009,
      "Ġcauses": 7010,
      "Ġprincipal": 7011,
      ".,": 7012,
      "Ġstret": 7013,
      "emies": 7014,
      "aks": 7015,
      "De": 7016,
      "aked": 7017,
      "Ġnest": 7018,
      "CL": 7019,
      "bro": 7020,
      "issance": 7021,
      "Äģ": 7022,
      "ĠNaval": 7023,
      "Ġdeleted": 7024,
      "Ġappeal": 7025,
      "Ġsegment": 7026,
      "]='": 7027,
      "ĠUTC": 7028,
      "ername": 7029,
      "ROOT": 7030,
      "Ġflew": 7031,
      "apped": 7032,
      "Ġtal": 7033,
      "Ġhope": 7034,
      "Ġprisoners": 7035,
      "icate": 7036,
      "Ġjourney": 7037,
      "Ġtact": 7038,
      "Ġlib": 7039,
      "Ġru": 7040,
      "Ġsufficient": 7041,
      "Å¡": 7042,
      "Ġcrown": 7043,
      "Ġcapable": 7044,
      "ĠEarly": 7045,
      "Ġsell": 7046,
      "Ġentitled": 7047,
      "Ġequivalent": 7048,
      "poration": 7049,
      "Ġ1916": 7050,
      "Ġmicro": 7051,
      "inton": 7052,
      "rant": 7053,
      "Ġ1963": 7054,
      "include": 7055,
      "Ġ''": 7056,
      "anner": 7057,
      "ĠSongs": 7058,
      "ĠPublic": 7059,
      "Ġhill": 7060,
      "ĠJay": 7061,
      "ĠMcG": 7062,
      "Ġ63": 7063,
      "Ġstudied": 7064,
      "Ġwarning": 7065,
      "Ġpromotion": 7066,
      "Ġwinner": 7067,
      "Ġago": 7068,
      "Prime": 7069,
      "hi": 7070,
      "cell": 7071,
      "Ġdecade": 7072,
      "ogen": 7073,
      "ĠHa": 7074,
      "ĠMeanwhile": 7075,
      "Ġutil": 7076,
      "Ġvary": 7077,
      "Ġphase": 7078,
      "pective": 7079,
      "ĠStew": 7080,
      "Ġplayoff": 7081,
      "ĠWho": 7082,
      "Ġ1977": 7083,
      "Ġthreatened": 7084,
      "Ġeffectively": 7085,
      "ÅĤ": 7086,
      "ato": 7087,
      "Ġcampus": 7088,
      "osite": 7089,
      "ĠRoy": 7090,
      "ĠConfeder": 7091,
      "Ġcomponent": 7092,
      "ĠNick": 7093,
      "ĠOffic": 7094,
      "Ġregiment": 7095,
      "Ġhighlight": 7096,
      "ĠWeb": 7097,
      "Ġ78": 7098,
      "Ġcustomer": 7099,
      "Ġsurvived": 7100,
      "HERE": 7101,
      "ĠArts": 7102,
      "ubb": 7103,
      "Ġmeters": 7104,
      "Ġfavorite": 7105,
      "Ġrequested": 7106,
      "Ġcond": 7107,
      "OUR": 7108,
      "Ġ96": 7109,
      "Ġlowercase": 7110,
      "Ġdeaths": 7111,
      "Ġinterested": 7112,
      "Ġouter": 7113,
      "Ġruled": 7114,
      "Ġknots": 7115,
      "Ġapart": 7116,
      "Ġ1919": 7117,
      "Ġbright": 7118,
      "ĠĠĠĠĠ": 7119,
      "Ġpicture": 7120,
      "lik": 7121,
      "AND": 7122,
      "Ġrender": 7123,
      "king": 7124,
      "Ġeveryone": 7125,
      "Ġinvited": 7126,
      "alph": 7127,
      "ategy": 7128,
      "Ġvoted": 7129,
      "ĠMoore": 7130,
      "nic": 7131,
      "Ġrelief": 7132,
      "ropol": 7133,
      "Ġstored": 7134,
      "uber": 7135,
      "Ġreact": 7136,
      "iversary": 7137,
      "Ġascending": 7138,
      "oking": 7139,
      "Ġduty": 7140,
      "Ġ82": 7141,
      "ĠMulder": 7142,
      "source": 7143,
      "Ġchallenge": 7144,
      "Ġnull": 7145,
      "Ġgeneration": 7146,
      "Ġexecution": 7147,
      "Ġkingdom": 7148,
      "vant": 7149,
      "phone": 7150,
      "Ġ1962": 7151,
      "Ġarchitecture": 7152,
      "Ġdifferences": 7153,
      "Ġbeautiful": 7154,
      "wich": 7155,
      "oli": 7156,
      "ĠKim": 7157,
      "chers": 7158,
      "Ġproposal": 7159,
      "');": 7160,
      "ĠWomen": 7161,
      "Ġiterate": 7162,
      "Ġoldest": 7163,
      "bell": 7164,
      "Ġfict": 7165,
      "Ġconver": 7166,
      "inois": 7167,
      "ĠMaryland": 7168,
      "['": 7169,
      "Ġrecalled": 7170,
      "ador": 7171,
      "iege": 7172,
      "ĠPlan": 7173,
      "roid": 7174,
      "Ġtemporary": 7175,
      "Ġemployee": 7176,
      "Ġportrayed": 7177,
      "Ġinvestigation": 7178,
      "Ġemerg": 7179,
      "ĠâĪĴ": 7180,
      "Ġrevolution": 7181,
      "Ġconcerns": 7182,
      "itter": 7183,
      "hus": 7184,
      "Ġtow": 7185,
      "ĠRid": 7186,
      "Ġcolour": 7187,
      "pes": 7188,
      "Ġcrossed": 7189,
      "Ġfunds": 7190,
      "velopment": 7191,
      "Ġ130": 7192,
      "Ġemp": 7193,
      "Ġexpand": 7194,
      "Ġsusp": 7195,
      "ĠRhodes": 7196,
      ">&": 7197,
      "Ġspons": 7198,
      "Ġ1938": 7199,
      "Ġblow": 7200,
      "cious": 7201,
      "Ġwides": 7202,
      "Ġ69": 7203,
      "ĠAnna": 7204,
      "UN": 7205,
      "using": 7206,
      "Ġopera": 7207,
      "Ġconvin": 7208,
      "ervative": 7209,
      "Ġseparated": 7210,
      "Ġsoul": 7211,
      "Ġsurvey": 7212,
      "ĠHon": 7213,
      "ING": 7214,
      "Ġmultipl": 7215,
      "Ġstayed": 7216,
      "Ġrestaur": 7217,
      "Ġexcited": 7218,
      "Ġzero": 7219,
      "Ġfrag": 7220,
      "ĠMarg": 7221,
      "Ġtanks": 7222,
      "Ġpolitics": 7223,
      "yam": 7224,
      "Ġarrested": 7225,
      "Ġ89": 7226,
      "Ġincome": 7227,
      "Ġpromote": 7228,
      "Ġreligion": 7229,
      "struct": 7230,
      "Ġadmitted": 7231,
      "bourne": 7232,
      "Ġbreeding": 7233,
      "table": 7234,
      "ĠUnivers": 7235,
      "Ġreplacement": 7236,
      "Ġpenal": 7237,
      "IVE": 7238,
      "Ġcloser": 7239,
      "ela": 7240,
      "ĠEngine": 7241,
      "uilding": 7242,
      "Ġwars": 7243,
      "ĠTheatre": 7244,
      "iger": 7245,
      ":\"": 7246,
      "real": 7247,
      "Ġ68": 7248,
      "Step": 7249,
      "ĠISBN": 7250,
      "Ġequipped": 7251,
      "ĠStadium": 7252,
      "otted": 7253,
      "ĠFound": 7254,
      "Ġdream": 7255,
      "Ġentering": 7256,
      "ĠAri": 7257,
      "Ġcomposer": 7258,
      "ridges": 7259,
      "Ġdesired": 7260,
      "dat": 7261,
      "ĠBarb": 7262,
      "ician": 7263,
      "Ġpoll": 7264,
      "ĠBowl": 7265,
      "]}\"": 7266,
      "ĠStaff": 7267,
      "Ġfactor": 7268,
      "Ġfemales": 7269,
      "Ġhang": 7270,
      "Ġdescend": 7271,
      "Don": 7272,
      "ĠWell": 7273,
      "ĠForest": 7274,
      "Ġderived": 7275,
      "home": 7276,
      "ĠFA": 7277,
      "pread": 7278,
      "Ġham": 7279,
      "ads": 7280,
      "Ġacid": 7281,
      "Ġnomination": 7282,
      "Ġmort": 7283,
      "rete": 7284,
      "ĠRose": 7285,
      "Ġskin": 7286,
      "Ġpicked": 7287,
      "Ġdriving": 7288,
      "Ġrelative": 7289,
      "Ġcrime": 7290,
      "ĠGordon": 7291,
      "iable": 7292,
      "Ġsam": 7293,
      "Ġconvoy": 7294,
      "ĠConstant": 7295,
      "ami": 7296,
      "Ġcharged": 7297,
      "Ġtypical": 7298,
      "ASE": 7299,
      "Ġhotel": 7300,
      "hetic": 7301,
      "IP": 7302,
      "ĠVe": 7303,
      "Ġsubstring": 7304,
      "ĠAbout": 7305,
      "Ġdisappoint": 7306,
      "ieval": 7307,
      "Ġwearing": 7308,
      "eline": 7309,
      "Ġfit": 7310,
      "olve": 7311,
      "ĠBand": 7312,
      "ĠKong": 7313,
      "ĠVill": 7314,
      "ĠPhilip": 7315,
      "ĠPhilipp": 7316,
      "Un": 7317,
      "senal": 7318,
      "Ġconsiderable": 7319,
      "Ġaspects": 7320,
      "Ġcro": 7321,
      "Ġgall": 7322,
      "Ġcircum": 7323,
      "hered": 7324,
      "Ġmedal": 7325,
      "prise": 7326,
      "Ġ1936": 7327,
      "ĠBir": 7328,
      "ĠRA": 7329,
      "icit": 7330,
      "ranean": 7331,
      "Ġcoord": 7332,
      "Ġ1956": 7333,
      "ework": 7334,
      "chang": 7335,
      "ĠBeach": 7336,
      "Ġvolcan": 7337,
      "Ġtar": 7338,
      "ĠSort": 7339,
      "ĠAdam": 7340,
      "Ġinvolving": 7341,
      "Ġmilit": 7342,
      "vements": 7343,
      "github": 7344,
      "Ġsole": 7345,
      "Ġdecor": 7346,
      "ompl": 7347,
      "avas": 7348,
      "Ġthread": 7349,
      "ĠJSON": 7350,
      "Ġgrounds": 7351,
      "ĠSunday": 7352,
      "ais": 7353,
      "Ġnoting": 7354,
      "osaurus": 7355,
      "rim": 7356,
      "Ġauthent": 7357,
      "Ġeighth": 7358,
      "ĠLog": 7359,
      "Ġstrateg": 7360,
      "Ġidentity": 7361,
      "Ġ__": 7362,
      "Ġenh": 7363,
      "Ġrural": 7364,
      "Ġdetect": 7365,
      "ĠCra": 7366,
      "sect": 7367,
      "Ġpermanent": 7368,
      "Ġdecades": 7369,
      "Ġmaint": 7370,
      "ensus": 7371,
      "Ġsessions": 7372,
      "Ġattached": 7373,
      "ĠTony": 7374,
      "aki": 7375,
      "ordan": 7376,
      "ĠJustice": 7377,
      "../": 7378,
      "Ġworst": 7379,
      "hedral": 7380,
      "acent": 7381,
      "Ġpolic": 7382,
      "Ġduties": 7383,
      "organ": 7384,
      "Ġposted": 7385,
      "mkdir": 7386,
      "wick": 7387,
      "ĠSpace": 7388,
      "Ġaer": 7389,
      "ĠPower": 7390,
      "Ġ110": 7391,
      "Ġcustomers": 7392,
      "ĠAnth": 7393,
      "********": 7394,
      "ĠBos": 7395,
      "base": 7396,
      "Ġlane": 7397,
      "Ġdenied": 7398,
      "OK": 7399,
      "fe": 7400,
      "ĠMoon": 7401,
      "Ġ79": 7402,
      "ĠVII": 7403,
      "lock": 7404,
      "Ġassumed": 7405,
      "Ġdescribing": 7406,
      "Ġtries": 7407,
      "Ġvent": 7408,
      "ĠMaria": 7409,
      "Ġdated": 7410,
      "cknow": 7411,
      "vious": 7412,
      "ĠOk": 7413,
      "true": 7414,
      "ansas": 7415,
      "Ġbrigade": 7416,
      "PO": 7417,
      "Ġenemies": 7418,
      "Ġformal": 7419,
      "Ġaccompl": 7420,
      "ĠDougl": 7421,
      "ĠNether": 7422,
      "Ġgrass": 7423,
      "Ġ1961": 7424,
      "Ġsettled": 7425,
      "total": 7426,
      "ĠAssembly": 7427,
      "ĠIndones": 7428,
      "Ġvir": 7429,
      "From": 7430,
      "main": 7431,
      "Ġsupporters": 7432,
      "Ġoptions": 7433,
      "Col": 7434,
      "Ġdeleg": 7435,
      "Ġ94": 7436,
      "Ġsupposed": 7437,
      "ĠCart": 7438,
      "Ġmagn": 7439,
      "Ġgarden": 7440,
      "ĠColl": 7441,
      "ommod": 7442,
      "arris": 7443,
      "crib": 7444,
      "Ġsailed": 7445,
      "Ġmathem": 7446,
      "Ġcrash": 7447,
      "Ġvessels": 7448,
      "ĠMcK": 7449,
      "Ġencountered": 7450,
      "Ġprints": 7451,
      "Ġ98": 7452,
      "ĠNorwe": 7453,
      "ĠInitial": 7454,
      "ĠAdams": 7455,
      "Ġabsol": 7456,
      "wan": 7457,
      "ĠIGN": 7458,
      "ĠCa": 7459,
      "lam": 7460,
      "ĠBack": 7461,
      "Ġextract": 7462,
      "TI": 7463,
      "cert": 7464,
      "Ġdeparture": 7465,
      "ĠAlf": 7466,
      "Ġthousands": 7467,
      "iller": 7468,
      "Ġaccounts": 7469,
      "ĠScience": 7470,
      "}'": 7471,
      "Ġconcerned": 7472,
      "Ġ88": 7473,
      "Ġrequests": 7474,
      "Ġpredict": 7475,
      "Ġ1953": 7476,
      "Ġindicating": 7477,
      "Ġseemed": 7478,
      "Ġdisturb": 7479,
      "ĠHamilton": 7480,
      "Ġmissed": 7481,
      "Ġbreaking": 7482,
      "ĠMemorial": 7483,
      "Ġwidespread": 7484,
      "elson": 7485,
      "aret": 7486,
      "ĠAlan": 7487,
      "Ġcommitted": 7488,
      "Ġpossibility": 7489,
      "Ġquestions": 7490,
      "iley": 7491,
      "ED": 7492,
      "ye": 7493,
      "ĠUt": 7494,
      "Ġadapted": 7495,
      "phoon": 7496,
      "aware": 7497,
      "Ġsounds": 7498,
      "ĠSimon": 7499,
      "Ġaffect": 7500,
      "SH": 7501,
      "Ġjump": 7502,
      "Ġvalley": 7503,
      "Ġfaith": 7504,
      "Ġsan": 7505,
      "Ġfold": 7506,
      "Ġrich": 7507,
      "Ġsmallest": 7508,
      "Ġacknow": 7509,
      "Ġ1947": 7510,
      "ĠKennedy": 7511,
      "Ġcertified": 7512,
      "TERN": 7513,
      "emble": 7514,
      "ĠScully": 7515,
      "Ġhosted": 7516,
      "Ġinher": 7517,
      "aft": 7518,
      "Ġnested": 7519,
      "Ġaccused": 7520,
      "Ġparliament": 7521,
      "Ġbalance": 7522,
      "claimed": 7523,
      "ĠMagazine": 7524,
      "Ġcontroversy": 7525,
      "Ġdebate": 7526,
      "ORT": 7527,
      "ĠDirector": 7528,
      "Ġfrequent": 7529,
      "Ġwed": 7530,
      "ĠPortug": 7531,
      "Ġenters": 7532,
      "WOR": 7533,
      "ione": 7534,
      "Ġhear": 7535,
      "link": 7536,
      "apping": 7537,
      "Ġdie": 7538,
      "Ġunusual": 7539,
      "Ġpopulations": 7540,
      "Ġcompletion": 7541,
      "ĠTurk": 7542,
      "Ġrecognition": 7543,
      "ĠMexican": 7544,
      "heastern": 7545,
      "Ġ1937": 7546,
      "Ġhoped": 7547,
      "Ġratings": 7548,
      "agonist": 7549,
      "Ġfolk": 7550,
      "esse": 7551,
      "ĠâĢľ": 7552,
      "Ġintention": 7553,
      "Ġevolution": 7554,
      "Ġtorn": 7555,
      "othing": 7556,
      "Ġreferences": 7557,
      "Ġtrained": 7558,
      "PATTERN": 7559,
      "achel": 7560,
      "Ġcann": 7561,
      "ĠAk": 7562,
      "ĠHou": 7563,
      "lower": 7564,
      "ĠIndiana": 7565,
      "Ġpairs": 7566,
      "Ġsentiment": 7567,
      "($": 7568,
      "Ġarc": 7569,
      "Ġbuy": 7570,
      "Ġmoves": 7571,
      "Ġ1958": 7572,
      "Ġexamples": 7573,
      "ĠHitler": 7574,
      "ĠRep": 7575,
      "Ġtied": 7576,
      "Ġremix": 7577,
      "western": 7578,
      "veland": 7579,
      "don": 7580,
      "Ġupdated": 7581,
      "Ġtemple": 7582,
      "Ġparameters": 7583,
      "Ġsud": 7584,
      "ĠBush": 7585,
      "Ġmodify": 7586,
      "ĠProject": 7587,
      "ĠOpen": 7588,
      "ĠReview": 7589,
      "Ġ1910": 7590,
      "24": 7591,
      "ĠâĢĿ": 7592,
      "ĠWhit": 7593,
      "Ġsequel": 7594,
      "Ġduplicate": 7595,
      "Ġregional": 7596,
      "Ġserves": 7597,
      "Ġanimated": 7598,
      "Ġstrongly": 7599,
      "Ġfoss": 7600,
      "Ġhappened": 7601,
      "regon": 7602,
      "Ġintelligence": 7603,
      "ĠChap": 7604,
      "ultane": 7605,
      "Ġ1957": 7606,
      "Ġterminus": 7607,
      "Ġassistance": 7608,
      "Ġopposite": 7609,
      "ĠRel": 7610,
      ":\",": 7611,
      "ivals": 7612,
      "ĠNBA": 7613,
      "ĠColor": 7614,
      "ĠHoward": 7615,
      "Ġcosts": 7616,
      "ĠNap": 7617,
      "Ġcomments": 7618,
      "Ġdecline": 7619,
      "Ġcou": 7620,
      "Ġsoftware": 7621,
      "Ġwickets": 7622,
      "uts": 7623,
      "Ġdisappe": 7624,
      "Ġcharges": 7625,
      "obe": 7626,
      "mouth": 7627,
      "FS": 7628,
      "oz": 7629,
      "Ġshots": 7630,
      "Ġclassified": 7631,
      "ĠConstitution": 7632,
      "Ġax": 7633,
      "Ġgone": 7634,
      "Ġsuit": 7635,
      "Ġvalidation": 7636,
      "ĠArgent": 7637,
      "Ġshore": 7638,
      "Ġanyone": 7639,
      "Ġvehicle": 7640,
      "Ġliterary": 7641,
      "Invalid": 7642,
      "emed": 7643,
      "Ġthirty": 7644,
      "ĠIllinois": 7645,
      "aste": 7646,
      "Ġmulti": 7647,
      "Ġow": 7648,
      "Ġarmor": 7649,
      "lan": 7650,
      "Ġmeasures": 7651,
      "Ġpassengers": 7652,
      "ĠBry": 7653,
      "Ġsees": 7654,
      "Ġlowest": 7655,
      "ĠMountain": 7656,
      "Ġcirculation": 7657,
      "TH": 7658,
      "ifier": 7659,
      "Ġchampion": 7660,
      "iterranean": 7661,
      "Ġstood": 7662,
      "Ġspin": 7663,
      "Ġmemorial": 7664,
      "ĠGram": 7665,
      "Ġexclud": 7666,
      "Ġbringing": 7667,
      "ĠAz": 7668,
      "argo": 7669,
      "Ġfictional": 7670,
      "ĠBrist": 7671,
      "agues": 7672,
      "Let": 7673,
      "rt": 7674,
      "Ġdowntown": 7675,
      "Ġdetailed": 7676,
      "ĠSav": 7677,
      "omot": 7678,
      "aph": 7679,
      "Ġfreedom": 7680,
      "ĠWeekly": 7681,
      "reck": 7682,
      "Ġvalidate": 7683,
      "ĠIra": 7684,
      "Ġstyles": 7685,
      "ĠMediterranean": 7686,
      "Ġcorrectly": 7687,
      "rees": 7688,
      "ila": 7689,
      "ĠLeon": 7690,
      "ĠVar": 7691,
      "Ġregularly": 7692,
      "Ġsizes": 7693,
      "Ġhip": 7694,
      "ĠBeatles": 7695,
      "Ġlake": 7696,
      "ĠGill": 7697,
      "Ġancest": 7698,
      "ĠAndy": 7699,
      "Ġbegun": 7700,
      "ĠRolling": 7701,
      "ĠNorwegian": 7702,
      "ĠRyan": 7703,
      "Ġfunctionality": 7704,
      "ĠGun": 7705,
      "Ġdevice": 7706,
      "eld": 7707,
      "Ġdiscover": 7708,
      "Ġ\"*.": 7709,
      "ĠNic": 7710,
      "Ġresemb": 7711,
      "Ġimplemented": 7712,
      "Ġdivers": 7713,
      "Ġrose": 7714,
      "ophy": 7715,
      "Ġcommanded": 7716,
      "Ġdim": 7717,
      "atinum": 7718,
      "olly": 7719,
      "Ġminister": 7720,
      "Ġstrategy": 7721,
      "ĠHug": 7722,
      "Ġneither": 7723,
      "iot": 7724,
      "Ġmargin": 7725,
      "Ġ175": 7726,
      "Ġphr": 7727,
      "Ġ`-": 7728,
      "with": 7729,
      "Ġspeaking": 7730,
      "ĠDouglas": 7731,
      "ĠChannel": 7732,
      "Ġconsidering": 7733,
      "Ġcriminal": 7734,
      "Ġstrengthen": 7735,
      "Ġrecovered": 7736,
      "ĠOregon": 7737,
      "Ġdestruction": 7738,
      "Ġwidth": 7739,
      "arry": 7740,
      "Tr": 7741,
      "Ġdriven": 7742,
      "Ġemerged": 7743,
      "ĠBah": 7744,
      "Ġdelete": 7745,
      "Ġ===": 7746,
      "apse": 7747,
      "Ġincorporated": 7748,
      "ĠPear": 7749,
      "Ġ1959": 7750,
      "Ġ1954": 7751,
      "asure": 7752,
      "Ġattributed": 7753,
      "Ġoperator": 7754,
      "Ġaccommod": 7755,
      "borne": 7756,
      "Ġkid": 7757,
      "ĠKat": 7758,
      "Ġ1955": 7759,
      "Ġmaterials": 7760,
      "Ġcredit": 7761,
      "Ġsurrounded": 7762,
      "sky": 7763,
      "Ġalleged": 7764,
      "Expl": 7765,
      "Ġoccasionally": 7766,
      "Value": 7767,
      "lig": 7768,
      "Ġvolunte": 7769,
      "ocation": 7770,
      "ĠWWE": 7771,
      "ĠĊĠĠĠ": 7772,
      "ĠPier": 7773,
      "ĠJordan": 7774,
      "Ġdemol": 7775,
      "ji": 7776,
      "ĠLenn": 7777,
      "Ġtruck": 7778,
      "Ġri": 7779,
      "Ġclassic": 7780,
      "ĠStanley": 7781,
      "Ġsons": 7782,
      "Ġheat": 7783,
      "ĠWhe": 7784,
      "Ġimpl": 7785,
      "Ġmissions": 7786,
      "coming": 7787,
      "Ġtechnical": 7788,
      "rane": 7789,
      "OURCE": 7790,
      "Ġplane": 7791,
      "oked": 7792,
      "Ġatmosphere": 7793,
      "CC": 7794,
      "ĠDal": 7795,
      "AB": 7796,
      "ĠAS": 7797,
      "ĠAst": 7798,
      "riers": 7799,
      "IS": 7800,
      "ĠLisa": 7801,
      "ĠSingles": 7802,
      "TEST": 7803,
      "Ġchorus": 7804,
      "Ġmo": 7805,
      "ĠVideo": 7806,
      "ĠCleveland": 7807,
      "Ġpure": 7808,
      "Ġfinishing": 7809,
      "Ġclimb": 7810,
      "ĠPur": 7811,
      "Ġprotest": 7812,
      "onto": 7813,
      "Ġash": 7814,
      "ĠDog": 7815,
      "vens": 7816,
      "Ġneck": 7817,
      "Ġbrain": 7818,
      "Ġprey": 7819,
      "ĠId": 7820,
      "Ġrooms": 7821,
      "src": 7822,
      "Ġrecommend": 7823,
      "Ġtheatre": 7824,
      "Ġreinforce": 7825,
      "Ġcavalry": 7826,
      "Ġdipl": 7827,
      "Ġresponsibility": 7828,
      "Ġdens": 7829,
      "Ġvisible": 7830,
      "Ġdigit": 7831,
      "equ": 7832,
      "Ġpredec": 7833,
      "Ġparameter": 7834,
      "illed": 7835,
      "Index": 7836,
      "Ġexceed": 7837,
      "():": 7838,
      "ĠAlb": 7839,
      "Ġestablishment": 7840,
      "Ġidentify": 7841,
      "ĠKr": 7842,
      "Ġattracted": 7843,
      "Ġ]]": 7844,
      "Ġpersu": 7845,
      "[@": 7846,
      "Ġweekend": 7847,
      "ĠUr": 7848,
      "rences": 7849,
      "target": 7850,
      "ĠKorea": 7851,
      "ĠFederal": 7852,
      "Ġdissip": 7853,
      "Ġaver": 7854,
      "Ġprovince": 7855,
      "Ġsurviving": 7856,
      "ĠBristol": 7857,
      "Ġmodule": 7858,
      "ĠHo": 7859,
      "Ġcourts": 7860,
      "Ġ84": 7861,
      "night": 7862,
      "ĠGreg": 7863,
      "Ġsuitable": 7864,
      "Ġfixed": 7865,
      "ĠRu": 7866,
      "ĠFeder": 7867,
      "ĠJenn": 7868,
      "Ġvotes": 7869,
      "agle": 7870,
      "aza": 7871,
      "Ġassociation": 7872,
      "ĠCam": 7873,
      "ige": 7874,
      "Example": 7875,
      "Ġtemperatures": 7876,
      "Ġdesire": 7877,
      "Ġpassage": 7878,
      "Ġreception": 7879,
      "ĠLow": 7880,
      "Ġaboard": 7881,
      "burn": 7882,
      "ĠToday": 7883,
      "Ġentertain": 7884,
      "ĠSarah": 7885,
      "Ġscheme": 7886,
      "oyd": 7887,
      "Ġcomparison": 7888,
      "Ġment": 7889,
      "public": 7890,
      "All": 7891,
      "Ġgreatly": 7892,
      "Ġmole": 7893,
      "Ġwait": 7894,
      "ĠRain": 7895,
      "atters": 7896,
      "Ġinvalid": 7897,
      "filename": 7898,
      "ĠBruce": 7899,
      "ĠBY": 7900,
      "pson": 7901,
      "ĠHistory": 7902,
      "ĠHawai": 7903,
      "rows": 7904,
      "ĠTenn": 7905,
      "ester": 7906,
      "ĠNode": 7907,
      "Ġeleven": 7908,
      "Ġ1952": 7909,
      "Of": 7910,
      "Ġdivisions": 7911,
      "ĠBudd": 7912,
      "Ġadjust": 7913,
      "ĠBetween": 7914,
      "Ġrestored": 7915,
      "Ġclubs": 7916,
      "java": 7917,
      "https": 7918,
      "Ġspoke": 7919,
      "Ġlic": 7920,
      "ĠSab": 7921,
      "Ġreality": 7922,
      "Ġ1933": 7923,
      "je": 7924,
      "ĠNetwork": 7925,
      "Ġcouldn": 7926,
      "Ġexplain": 7927,
      "euo": 7928,
      "ĠMorgan": 7929,
      "oslav": 7930,
      "Ġille": 7931,
      "ĠTreat": 7932,
      "Ġgets": 7933,
      "ĠBa": 7934,
      "ĠPhill": 7935,
      "Ġattempting": 7936,
      "Ġpenalty": 7937,
      "process": 7938,
      "rell": 7939,
      "ilers": 7940,
      "Ġauthors": 7941,
      "Ġmovements": 7942,
      "Ġsky": 7943,
      "ĠExt": 7944,
      "Ġteen": 7945,
      "imb": 7946,
      "Ġwings": 7947,
      "Ġconve": 7948,
      "ĠKevin": 7949,
      "Ġbattleships": 7950,
      "Ġdelayed": 7951,
      "pm": 7952,
      "Ġgal": 7953,
      "Ġmessages": 7954,
      "wen": 7955,
      "Ġbon": 7956,
      "Ġdescription": 7957,
      "DA": 7958,
      "ĠPerform": 7959,
      "ĠRow": 7960,
      "Ġholds": 7961,
      "Ġefficiently": 7962,
      "Ġpin": 7963,
      "ĠFinn": 7964,
      "Ġtechnique": 7965,
      "ĠRoger": 7966,
      "Ġride": 7967,
      "ARCHIVE": 7968,
      "Ġeru": 7969,
      "Ġoutbreak": 7970,
      "Ġ1935": 7971,
      "Ġcommunities": 7972,
      "Ġseeing": 7973,
      "DB": 7974,
      "Data": 7975,
      "ĠMaster": 7976,
      "oneous": 7977,
      "Ġchemical": 7978,
      "ĠWrest": 7979,
      "Ġhistorians": 7980,
      "ĠSweden": 7981,
      "otype": 7982,
      "Ġconsult": 7983,
      "Ġspl": 7984,
      "Ġpreferred": 7985,
      "Ġdiscovery": 7986,
      "ĠNorman": 7987,
      "Ġdramatic": 7988,
      "yard": 7989,
      "Ġlit": 7990,
      "Ġsongwrit": 7991,
      "99": 7992,
      "iency": 7993,
      "ĠResearch": 7994,
      "Ġanimation": 7995,
      "ersion": 7996,
      "abil": 7997,
      "Ġbasketball": 7998,
      "Ã³n": 7999,
      "22": 8000,
      "Ġstands": 8001,
      "Ġprogramme": 8002,
      "Ġbutton": 8003,
      "ĠNations": 8004,
      "ĠUSA": 8005,
      "Ġmillim": 8006,
      "Ġweapon": 8007,
      "pir": 8008,
      "Ġvert": 8009,
      "Ġsimultane": 8010,
      "Ġimmediate": 8011,
      "Ġpremiere": 8012,
      "ĠWelsh": 8013,
      "Ġ1949": 8014,
      "Ġfalling": 8015,
      "Ġpatterns": 8016,
      "Ġ1900": 8017,
      "Ġobtain": 8018,
      "Ġsight": 8019,
      "Ġ86": 8020,
      "Ġpercentage": 8021,
      "ĠCab": 8022,
      "Ġvide": 8023,
      "aired": 8024,
      "Ġori": 8025,
      "ĠFame": 8026,
      "Ġmusicians": 8027,
      "ĠMorris": 8028,
      "Ġmassive": 8029,
      "rec": 8030,
      "ingly": 8031,
      "ĠRaj": 8032,
      "Ġpartner": 8033,
      "ĠByzantine": 8034,
      "ĠLanc": 8035,
      "Ġinjuries": 8036,
      "Ġraid": 8037,
      "ĠBou": 8038,
      "Ġlegend": 8039,
      "Ġautomatic": 8040,
      "SOURCE": 8041,
      "ĠThird": 8042,
      "Ġdriver": 8043,
      "Ġbatting": 8044,
      "Ġflank": 8045,
      "Ġcrosses": 8046,
      "Ġ1951": 8047,
      "Ġswitch": 8048,
      "Ġpraise": 8049,
      "ĠArsenal": 8050,
      "ĠNetherlands": 8051,
      "Ġic": 8052,
      "Ġchoose": 8053,
      "Ġconvent": 8054,
      "ewhere": 8055,
      "ĠJews": 8056,
      "Ġ(`": 8057,
      "Ġrm": 8058,
      "Ġ61": 8059,
      "Ġclaiming": 8060,
      "Ġforming": 8061,
      "Ġindicate": 8062,
      "Ġtom": 8063,
      "ĠRobinson": 8064,
      "Ġsale": 8065,
      "ĠFord": 8066,
      "Ġcompr": 8067,
      "Ġfunding": 8068,
      "mid": 8069,
      "ĠEdu": 8070,
      "abet": 8071,
      "ĠStr": 8072,
      "ureau": 8073,
      "grade": 8074,
      "Ġanniversary": 8075,
      "Ġclimate": 8076,
      "EX": 8077,
      "Ġcontext": 8078,
      "Ġmedian": 8079,
      "Ġeggs": 8080,
      "Ġdisplays": 8081,
      "Ġcarbon": 8082,
      "Ġpretty": 8083,
      "Ġgirls": 8084,
      "Ġphotograph": 8085,
      "=`": 8086,
      "Ġrecru": 8087,
      "Ġlanded": 8088,
      "Ġcoin": 8089,
      "going": 8090,
      "Ġrum": 8091,
      "power": 8092,
      "cription": 8093,
      "ĠToronto": 8094,
      "Ġpushed": 8095,
      "ĠNich": 8096,
      "Ġleads": 8097,
      "title": 8098,
      "Ġlies": 8099,
      "Ġfled": 8100,
      "erto": 8101,
      "ILD": 8102,
      "Ġbeach": 8103,
      "Ġsmooth": 8104,
      "ĠSax": 8105,
      "ĠJoh": 8106,
      "ĠMom": 8107,
      "SR": 8108,
      "ĠÃĹ": 8109,
      "Ġastron": 8110,
      "Ġvul": 8111,
      "Ġdismissed": 8112,
      "cur": 8113,
      "ĠFree": 8114,
      "Ġ93": 8115,
      "Ġcruiser": 8116,
      "Ġbiggest": 8117,
      "Ġinspiration": 8118,
      "www": 8119,
      "arant": 8120,
      "Ġdocumentary": 8121,
      "Ġchairman": 8122,
      "Ġhat": 8123,
      "Ġconclusion": 8124,
      "ĠNelson": 8125,
      "Ġreserv": 8126,
      "ĠScient": 8127,
      "Ġkeys": 8128,
      "Ġca": 8129,
      "Ġsomewhat": 8130,
      "fire": 8131,
      "Ġconvinced": 8132,
      "pan": 8133,
      "ĠEs": 8134,
      "Ġremn": 8135,
      "ĠBelg": 8136,
      "Ġbombard": 8137,
      "ĠPatrick": 8138,
      "ĠTransport": 8139,
      "Ġmine": 8140,
      "Ġshut": 8141,
      "CK": 8142,
      "Ġcoins": 8143,
      "Ġabsence": 8144,
      "coh": 8145,
      "Ġpython": 8146,
      "ĠEver": 8147,
      "orph": 8148,
      "ĠFive": 8149,
      "Ġkeeping": 8150,
      "ĠIraq": 8151,
      "Ġinsert": 8152,
      "ĠJournal": 8153,
      "Ġclassical": 8154,
      "ĠCall": 8155,
      "Ġexcess": 8156,
      "SP": 8157,
      "lection": 8158,
      "email": 8159,
      "Ġretrieve": 8160,
      "Ġstreets": 8161,
      "Ġpainted": 8162,
      "resent": 8163,
      "ĠChron": 8164,
      "Ġappearing": 8165,
      "Ġgar": 8166,
      "exit": 8167,
      "Ġstable": 8168,
      "Ġencouraged": 8169,
      "api": 8170,
      "ĠPremier": 8171,
      "ãģ": 8172,
      "ĠCas": 8173,
      "ĠBang": 8174,
      "Ġassert": 8175,
      "Ġfriendly": 8176,
      "Ġabsor": 8177,
      "Ġpointed": 8178,
      "Ġairport": 8179,
      "ythm": 8180,
      "pat": 8181,
      "iva": 8182,
      "Ġreviewer": 8183,
      "ĠCroatian": 8184,
      "Ġninth": 8185,
      "ĠBenn": 8186,
      "ĠLin": 8187,
      "Ġbelt": 8188,
      "Ġstarred": 8189,
      "EL": 8190,
      "acter": 8191,
      "Ġadults": 8192,
      "ito": 8193,
      "ĠMars": 8194,
      "ACK": 8195,
      "nie": 8196,
      "ĠEric": 8197,
      "Ġpassenger": 8198,
      "ĠAllen": 8199,
      "gi": 8200,
      "Ġinterests": 8201,
      "Ġtreated": 8202,
      "cus": 8203,
      "Ġgate": 8204,
      "ĠPow": 8205,
      "Ġunion": 8206,
      "Ġloyal": 8207,
      "oded": 8208,
      "uda": 8209,
      "ĠDig": 8210,
      "Ġacademic": 8211,
      "helm": 8212,
      "Ġsurprise": 8213,
      "ĠThor": 8214,
      "Ġrelationships": 8215,
      "sorted": 8216,
      "Ġstorage": 8217,
      "Ġchain": 8218,
      "Ġrenew": 8219,
      "top": 8220,
      "ĠJacob": 8221,
      "Ġdub": 8222,
      "ĠArmen": 8223,
      "Ġoperate": 8224,
      "Ġmedieval": 8225,
      "XX": 8226,
      "rior": 8227,
      "emor": 8228,
      "ĠLast": 8229,
      "ĠDean": 8230,
      "Ġproced": 8231,
      "},": 8232,
      "Ġstores": 8233,
      "ĠLibrary": 8234,
      "Ġray": 8235,
      "Ġinvolvement": 8236,
      "har": 8237,
      "Ġadjacent": 8238,
      "ĠFreder": 8239,
      "sewhere": 8240,
      "Ġstandards": 8241,
      "avascript": 8242,
      "OPT": 8243,
      "Ġfighter": 8244,
      "ĠIron": 8245,
      "Ġafterwards": 8246,
      "=\"$(": 8247,
      "han": 8248,
      "Ġthrone": 8249,
      "Ġsuperior": 8250,
      "ĠMarine": 8251,
      "Ġsurviv": 8252,
      "Ġfitted": 8253,
      "teger": 8254,
      "Ġcolonial": 8255,
      "anth": 8256,
      "etr": 8257,
      "Ġdoct": 8258,
      "Ġveget": 8259,
      "ĠProf": 8260,
      "ĠCentre": 8261,
      "Ġpremiered": 8262,
      "hesis": 8263,
      "Ġinsect": 8264,
      "ĠJam": 8265,
      "ante": 8266,
      "Ġinterior": 8267,
      "Ġarrays": 8268,
      "ĠMilitary": 8269,
      "LOG": 8270,
      "ĠDomin": 8271,
      "iat": 8272,
      "Ġalien": 8273,
      "Ġskills": 8274,
      "ĠTechn": 8275,
      "ĠTemple": 8276,
      "itzer": 8277,
      "ĠPitt": 8278,
      "Ġwet": 8279,
      "Ġattacking": 8280,
      "uther": 8281,
      "ĠHoly": 8282,
      "ĠPuerto": 8283,
      "Ġdeemed": 8284,
      "ubble": 8285,
      "aire": 8286,
      "bal": 8287,
      "upp": 8288,
      "icide": 8289,
      "Ġfacing": 8290,
      "Ġdeployed": 8291,
      "Ġcul": 8292,
      "Ġwatching": 8293,
      "ĠShortly": 8294,
      "Ġraces": 8295,
      "ĠSupp": 8296,
      "Node": 8297,
      "ĠFront": 8298,
      "Ġrescue": 8299,
      "Em": 8300,
      "Ġ},": 8301,
      "ĠAgain": 8302,
      "Sum": 8303,
      "Ġwins": 8304,
      "aren": 8305,
      "ossible": 8306,
      "Ġdescribe": 8307,
      "Ġadaptation": 8308,
      "\"]": 8309,
      "Ġdating": 8310,
      "ĠStra": 8311,
      "opes": 8312,
      "Ġgraphics": 8313,
      "Ġromantic": 8314,
      "Ġcontinuing": 8315,
      "Ġpartn": 8316,
      "ĊĠĠĊĠ": 8317,
      "Ġocean": 8318,
      "ĠHungarian": 8319,
      "No": 8320,
      "tenance": 8321,
      "Ġfacility": 8322,
      "oster": 8323,
      "ĠAnne": 8324,
      "Ġsuffering": 8325,
      "Ġconvection": 8326,
      "aria": 8327,
      "ĠBishop": 8328,
      "Ġcancer": 8329,
      "wealth": 8330,
      "Ġdangerous": 8331,
      "Ġpermission": 8332,
      "aya": 8333,
      "ĠNiel": 8334,
      "ĠBed": 8335,
      "Ġcolony": 8336,
      "AA": 8337,
      "Ã±": 8338,
      "ogether": 8339,
      "Ġcraft": 8340,
      "osure": 8341,
      "ĠCarter": 8342,
      "á»": 8343,
      "Ġmunicip": 8344,
      "ĠMatthew": 8345,
      "agre": 8346,
      "Ġdocuments": 8347,
      "Ġsubmarine": 8348,
      "arked": 8349,
      "Ġdetail": 8350,
      "ĠBarn": 8351,
      "Ġcontroversial": 8352,
      "Despite": 8353,
      "Ġhug": 8354,
      "Ġchannel": 8355,
      "Ġbelieves": 8356,
      "ĠExpress": 8357,
      "Ġunsuccessful": 8358,
      "ĠFI": 8359,
      "ĠDor": 8360,
      "inder": 8361,
      "Ġsor": 8362,
      "Ġans": 8363,
      "Ġsecured": 8364,
      "clean": 8365,
      "Ġconstra": 8366,
      "Ġjudge": 8367,
      "Ġfer": 8368,
      "Ġnet": 8369,
      "Ġ92": 8370,
      "ĠTok": 8371,
      "ĠNFL": 8372,
      "Ġdominated": 8373,
      "image": 8374,
      "ĠBrother": 8375,
      "Ġlegislation": 8376,
      "Ġgiant": 8377,
      "Ġexternal": 8378,
      "lie": 8379,
      "Ġdepicted": 8380,
      "Ġlegs": 8381,
      "Ġmoral": 8382,
      "ubect": 8383,
      "master": 8384,
      "ĠDick": 8385,
      "pon": 8386,
      "ĠRang": 8387,
      "Ġmanip": 8388,
      "?<|": 8389,
      "ixon": 8390,
      "ĠRussell": 8391,
      "ĠTrib": 8392,
      "yo": 8393,
      "ĠMedia": 8394,
      "PORT": 8395,
      "ĠHend": 8396,
      "usic": 8397,
      "ĠDNA": 8398,
      "ronze": 8399,
      "Ġinformed": 8400,
      "Ġpresidential": 8401,
      "ĠSud": 8402,
      "exual": 8403,
      "Ġlisten": 8404,
      "Ġelections": 8405,
      "Ġgather": 8406,
      "ubectl": 8407,
      "Ġere": 8408,
      "asters": 8409,
      "ses": 8410,
      "Ġacknowled": 8411,
      "Ġbes": 8412,
      "ĠHeart": 8413,
      "Ġ1926": 8414,
      "orney": 8415,
      "ivan": 8416,
      "Ġ1927": 8417,
      "ĠPak": 8418,
      "Ġsuccessor": 8419,
      "ĠCorporation": 8420,
      "Ġconvention": 8421,
      "Char": 8422,
      "din": 8423,
      "Ġbackup": 8424,
      "ĠGard": 8425,
      "Ġassemb": 8426,
      "Ġchanging": 8427,
      "Ġarchae": 8428,
      "Ġretirement": 8429,
      "Ġhuge": 8430,
      "javascript": 8431,
      "Ġpound": 8432,
      "Ġgit": 8433,
      "ĠSee": 8434,
      "Ġmonarch": 8435,
      "Ġblocks": 8436,
      "model": 8437,
      "Ġlift": 8438,
      "Ġveter": 8439,
      "ĠKelly": 8440,
      "Ġencrypt": 8441,
      "Ġimmigr": 8442,
      "Ġ1913": 8443,
      "Ġ1921": 8444,
      "post": 8445,
      "Ġfaster": 8446,
      "noon": 8447,
      "emet": 8448,
      "ĠThus": 8449,
      "Ġpages": 8450,
      "urches": 8451,
      "())": 8452,
      "Ġcarrier": 8453,
      "scape": 8454,
      "ĠThompson": 8455,
      "Ġbats": 8456,
      "Ġfloat": 8457,
      "cation": 8458,
      "olph": 8459,
      "ĠLabor": 8460,
      "ĠSimilar": 8461,
      "Ġcolors": 8462,
      "Ġrecursive": 8463,
      "iary": 8464,
      "ĠIP": 8465,
      "Lily": 8466,
      "Ġclosing": 8467,
      "Ġcycle": 8468,
      "Ġmir": 8469,
      "Ġrailroad": 8470,
      "ĠAuthor": 8471,
      "mun": 8472,
      "Ġ1934": 8473,
      "Ġprocessing": 8474,
      "common": 8475,
      "iliar": 8476,
      "achment": 8477,
      "Ġapply": 8478,
      "->": 8479,
      "ĠBerlin": 8480,
      "Ġprintf": 8481,
      "eor": 8482,
      "Ġunderstanding": 8483,
      "Ġcalculated": 8484,
      "ĠCommonwealth": 8485,
      "Ġemergency": 8486,
      "ĠWinter": 8487,
      "Ġdoctor": 8488,
      "Ġshel": 8489,
      "Ġ83": 8490,
      "Ġwalking": 8491,
      "core": 8492,
      "Ġ@@": 8493,
      "Ġ../": 8494,
      "ĠNob": 8495,
      "server": 8496,
      "ĠPalace": 8497,
      "Ġnarrative": 8498,
      "Ġfestival": 8499,
      "lyn": 8500,
      "utor": 8501,
      "Ġwindows": 8502,
      "Ġmoderate": 8503,
      "Ġdataset": 8504,
      "ĠGree": 8505,
      "Ġ900": 8506,
      "Ġplate": 8507,
      "Ġrelie": 8508,
      "Ġ1912": 8509,
      "Ġformerly": 8510,
      "Ġemotional": 8511,
      "Ġowners": 8512,
      "Ġgarrison": 8513,
      "ĠHarris": 8514,
      "ĠSanta": 8515,
      "/\"": 8516,
      "alo": 8517,
      "ĠMas": 8518,
      "Ġuniform": 8519,
      ".*": 8520,
      "rf": 8521,
      "roit": 8522,
      "ĠHop": 8523,
      "rine": 8524,
      "igen": 8525,
      "ĠCooper": 8526,
      "Ġasks": 8527,
      "ĠYan": 8528,
      "yaml": 8529,
      "Ġdispl": 8530,
      "Ġinfluential": 8531,
      "ĠHospital": 8532,
      "ĉĉ": 8533,
      "ĠYug": 8534,
      "ĠArn": 8535,
      "Ġescort": 8536,
      "button": 8537,
      "Ġarrangement": 8538,
      "Ġspend": 8539,
      "Ġexperiences": 8540,
      "ĠIndians": 8541,
      "ĠID": 8542,
      "Ġdiscussed": 8543,
      "ĠHouston": 8544,
      "emetery": 8545,
      "Ġstem": 8546,
      "Ġ1932": 8547,
      "Ġtasks": 8548,
      "inals": 8549,
      "Ġstead": 8550,
      "aska": 8551,
      "ĠSin": 8552,
      "part": 8553,
      "asm": 8554,
      "ĠSym": 8555,
      "oto": 8556,
      "ĠWy": 8557,
      "Ġretreat": 8558,
      "ĠCommander": 8559,
      "HT": 8560,
      "Ġhistoric": 8561,
      "ĠLim": 8562,
      "Ġtransm": 8563,
      "Ġperiods": 8564,
      "';": 8565,
      "ĠWright": 8566,
      "Ġtempor": 8567,
      "udes": 8568,
      "ĠURL": 8569,
      "Ġpool": 8570,
      "Ġintent": 8571,
      "Ġcris": 8572,
      "ĠNBC": 8573,
      "ĠSwedish": 8574,
      "We": 8575,
      "oen": 8576,
      "Ġapparently": 8577,
      "Ġ140": 8578,
      "igs": 8579,
      "Ġrefers": 8580,
      "uby": 8581,
      "dis": 8582,
      "Ġenvironmental": 8583,
      "ĠInitialize": 8584,
      "ĠBatman": 8585,
      "ench": 8586,
      "Ġju": 8587,
      "bb": 8588,
      "ensions": 8589,
      "Ġdefended": 8590,
      "ĠHun": 8591,
      "Ġtaught": 8592,
      "eries": 8593,
      "owa": 8594,
      "ĠNa": 8595,
      "ĠParker": 8596,
      "Ġtie": 8597,
      "isen": 8598,
      "ĠTelevision": 8599,
      "ĠCategory": 8600,
      "Ġawk": 8601,
      "Time": 8602,
      "Ġsiege": 8603,
      "Ġalcoh": 8604,
      "agu": 8605,
      "long": 8606,
      "Ġtrials": 8607,
      "ĠAdvent": 8608,
      "stances": 8609,
      "Ġpregn": 8610,
      "Ġwooden": 8611,
      "bridge": 8612,
      "Ġhanded": 8613,
      "where": 8614,
      "Ġjournalist": 8615,
      "Ġdimens": 8616,
      "status": 8617,
      "Please": 8618,
      "pers": 8619,
      "Ġpurposes": 8620,
      "amount": 8621,
      "ĠPolice": 8622,
      "aints": 8623,
      "ĠFoundation": 8624,
      "Ġinstruments": 8625,
      "Ġhundreds": 8626,
      "ĠÅ": 8627,
      "Ġhelping": 8628,
      "Ġdocker": 8629,
      "employ": 8630,
      "Ġproport": 8631,
      "rency": 8632,
      "Ġimpressed": 8633,
      "Ġreleases": 8634,
      "Ġassass": 8635,
      "Ġnovels": 8636,
      "Ġdepending": 8637,
      "Ġsubjects": 8638,
      "hy": 8639,
      "Ġprevented": 8640,
      "Le": 8641,
      "Ġoffices": 8642,
      "ĠYugoslav": 8643,
      "Ġvictims": 8644,
      "Ġresigned": 8645,
      "Ġreveals": 8646,
      "Ġprompted": 8647,
      "console": 8648,
      "Ġfur": 8649,
      "Ġhunting": 8650,
      "=/": 8651,
      "Ġchapter": 8652,
      "fare": 8653,
      "Ġchildhood": 8654,
      "Ġanaly": 8655,
      "theless": 8656,
      "ĠBeck": 8657,
      "ĠMurray": 8658,
      "ĠSimpson": 8659,
      "ifies": 8660,
      "anny": 8661,
      "ĠRAAF": 8662,
      "ĠSports": 8663,
      "Ġmathemat": 8664,
      "ĠWithin": 8665,
      "Ġ1929": 8666,
      "Ġfootage": 8667,
      "'m": 8668,
      "expected": 8669,
      "car": 8670,
      "uv": 8671,
      "group": 8672,
      "Ġfalls": 8673,
      "Ġprofile": 8674,
      "Ġgay": 8675,
      "Ġridge": 8676,
      "orous": 8677,
      "...": 8678,
      "ĠBrand": 8679,
      "Ġafternoon": 8680,
      "argets": 8681,
      "ushing": 8682,
      "Ġthousand": 8683,
      "ĠRAF": 8684,
      "rot": 8685,
      "ĠWarner": 8686,
      "Ġ1911": 8687,
      "Ġvisitors": 8688,
      "Ġteeth": 8689,
      "Ġexposed": 8690,
      "iens": 8691,
      "ups": 8692,
      "ocket": 8693,
      "Ġreplied": 8694,
      "imore": 8695,
      "icians": 8696,
      "ĠXbox": 8697,
      "bra": 8698,
      "Ġpublisher": 8699,
      "Ġlooks": 8700,
      "Ġappreci": 8701,
      "Ġ'{": 8702,
      "Ġexisted": 8703,
      "custom": 8704,
      "Ġforg": 8705,
      "Ġ1922": 8706,
      "Ġsubstantial": 8707,
      "ALL": 8708,
      "Ġaccompany": 8709,
      "Ġ1931": 8710,
      "ĠCook": 8711,
      "Ġvision": 8712,
      "Ġthereafter": 8713,
      "Ġadventure": 8714,
      "Ġformally": 8715,
      "ĠCroatia": 8716,
      "};": 8717,
      "ĠJen": 8718,
      "Ġrates": 8719,
      "Ġproud": 8720,
      "ĠAsian": 8721,
      "Ġreportedly": 8722,
      "Ġped": 8723,
      "ĠBab": 8724,
      "ructions": 8725,
      "ĠCur": 8726,
      "Ġdialogue": 8727,
      "KEY": 8728,
      "iy": 8729,
      "ĠDer": 8730,
      "21": 8731,
      "ez": 8732,
      "ĠIN": 8733,
      "ĠDetroit": 8734,
      "Ġintense": 8735,
      "ĠSky": 8736,
      "ĠTal": 8737,
      "Ġnotably": 8738,
      "Ġenthus": 8739,
      "Ġlayer": 8740,
      "Ġcomponents": 8741,
      "ĠVis": 8742,
      "Ġenlist": 8743,
      "Ġmedium": 8744,
      "oves": 8745,
      "ĠNielsen": 8746,
      "Ġske": 8747,
      "Ġdiameter": 8748,
      "gus": 8749,
      "ĠĠĠĠĠĠ": 8750,
      "rum": 8751,
      "Ġfiring": 8752,
      "example": 8753,
      "ĠGaga": 8754,
      "ĠMelbourne": 8755,
      ".\")": 8756,
      "Ġflex": 8757,
      "Ġuniverse": 8758,
      "Ġresign": 8759,
      "ologists": 8760,
      "xy": 8761,
      "ĠMort": 8762,
      "element": 8763,
      "acle": 8764,
      "Ġsaved": 8765,
      "Ġtools": 8766,
      "oming": 8767,
      "FROM": 8768,
      "Ġimpr": 8769,
      "Ġextent": 8770,
      "Ġparticipate": 8771,
      "Ġsuspend": 8772,
      "));": 8773,
      "Ġlocomot": 8774,
      "ĠExample": 8775,
      "Ġbattleship": 8776,
      "ĠPope": 8777,
      "anta": 8778,
      "Ġdeparted": 8779,
      "Ġconvers": 8780,
      "Ġ170": 8781,
      "Ġopponents": 8782,
      "label": 8783,
      "ĠLyn": 8784,
      "ĠJesus": 8785,
      "Ġannounce": 8786,
      "Ġranking": 8787,
      "Ġprog": 8788,
      "Ġinhabit": 8789,
      "Ġadvice": 8790,
      "Ġcollaps": 8791,
      "Ġtoll": 8792,
      "Ġlose": 8793,
      "Ġdiagn": 8794,
      "Ġbehavi": 8795,
      "ĠIter": 8796,
      "Ġhearing": 8797,
      "Ġconversion": 8798,
      "ĠSpears": 8799,
      "boy": 8800,
      "Ġdrawing": 8801,
      "((": 8802,
      "Ġcollapse": 8803,
      "Ġstick": 8804,
      "Ġrese": 8805,
      "Ġcommemor": 8806,
      "uilt": 8807,
      "Ġpiv": 8808,
      "Ġ06": 8809,
      "Ġnormally": 8810,
      "ĠCru": 8811,
      "ĠLi": 8812,
      "ĠOak": 8813,
      "onies": 8814,
      "ĠVice": 8815,
      "Ġresidential": 8816,
      "Ġwhereas": 8817,
      "Ġpoetry": 8818,
      "Ġisolated": 8819,
      "ĠReal": 8820,
      "Ġaudio": 8821,
      "ĠAnthony": 8822,
      "opter": 8823,
      "Ġhash": 8824,
      "ĠTurkish": 8825,
      "Ġwheel": 8826,
      "Ġuseful": 8827,
      "Ġcruisers": 8828,
      "BUILD": 8829,
      "ĠJason": 8830,
      "ĠSilver": 8831,
      "mont": 8832,
      "Ġmaintenance": 8833,
      "Ġbat": 8834,
      "ĠRa": 8835,
      "UBE": 8836,
      "Ġspeak": 8837,
      "Ġnice": 8838,
      "unes": 8839,
      "ĠChamber": 8840,
      "ĠSomers": 8841,
      "ked": 8842,
      "Ġhull": 8843,
      "ĠEvans": 8844,
      "Ġupgraded": 8845,
      "ĠTower": 8846,
      "Ġcharacteristics": 8847,
      "ĠDra": 8848,
      "Ġexplore": 8849,
      "ĠKnight": 8850,
      "ĠCR": 8851,
      "Ġbypass": 8852,
      "Max": 8853,
      "roke": 8854,
      "Ġassembly": 8855,
      "ĠSn": 8856,
      "Ġspending": 8857,
      "args": 8858,
      "oust": 8859,
      "ĠMath": 8860,
      "Ġtruth": 8861,
      "puty": 8862,
      "ĠCalculate": 8863,
      "Ġvice": 8864,
      "Ġtraveled": 8865,
      "Ġbelief": 8866,
      "Ġreviewers": 8867,
      "ĠUlt": 8868,
      "Ġaged": 8869,
      "ĠClinton": 8870,
      "DAT": 8871,
      "ĠRaw": 8872,
      "tra": 8873,
      "Ġagents": 8874,
      "ĠCarib": 8875,
      "ropolitan": 8876,
      "Ġsurf": 8877,
      "ĠPrincess": 8878,
      "Ġjoining": 8879,
      "Ġpartially": 8880,
      "Ġdegrees": 8881,
      "elle": 8882,
      "Ġdiff": 8883,
      "hatt": 8884,
      "iami": 8885,
      "Ġoccupation": 8886,
      "Ġrepresentation": 8887,
      "Ġrebell": 8888,
      "ĠSamuel": 8889,
      "mes": 8890,
      "ĠQueens": 8891,
      "ĠBulgar": 8892,
      "Ġoverse": 8893,
      "Ġschedule": 8894,
      "Ġterritories": 8895,
      "ĠHell": 8896,
      "obi": 8897,
      "Ġintercept": 8898,
      "bean": 8899,
      "Ġvessel": 8900,
      "Ġagree": 8901,
      "ullivan": 8902,
      "ucks": 8903,
      "Ġinfluences": 8904,
      "Ġengineer": 8905,
      "ĠStewart": 8906,
      "eq": 8907,
      "delete": 8908,
      "Ġarticles": 8909,
      "ĠAround": 8910,
      "plate": 8911,
      "Ġserial": 8912,
      "ĠMerc": 8913,
      "Ġtone": 8914,
      "ĠAlbums": 8915,
      "endment": 8916,
      "ture": 8917,
      "Ġthin": 8918,
      "umph": 8919,
      "ĠGuy": 8920,
      "Ġgoods": 8921,
      "Ġpolicies": 8922,
      "Ġbridges": 8923,
      "ĠBaltimore": 8924,
      "iac": 8925,
      "icine": 8926,
      "yright": 8927,
      "Ġwasn": 8928,
      "Ġimprison": 8929,
      "Ġsample": 8930,
      "Ġteamm": 8931,
      "Ġsurg": 8932,
      "Ġwithdrew": 8933,
      "ĠMong": 8934,
      "FC": 8935,
      "ĠAustria": 8936,
      "amps": 8937,
      "Ġfeud": 8938,
      "Ġjunior": 8939,
      "Ġvideos": 8940,
      "Ġhidden": 8941,
      "Ġimpress": 8942,
      "Ġnegotiations": 8943,
      "Ġmart": 8944,
      "Ġpounds": 8945,
      "Ġfounder": 8946,
      "Ġapt": 8947,
      "ĠCre": 8948,
      "Ġminimal": 8949,
      "Ġseats": 8950,
      "soft": 8951,
      "SQL": 8952,
      "orders": 8953,
      "Ġreun": 8954,
      "Ġclosest": 8955,
      "ĠFamily": 8956,
      "Ġreaches": 8957,
      "ĠColorado": 8958,
      "Ġcreative": 8959,
      "Ġresear": 8960,
      "iece": 8961,
      "ĠObs": 8962,
      "Ġpartly": 8963,
      "ĠAnton": 8964,
      "Ġsatell": 8965,
      "Ġdiet": 8966,
      "attered": 8967,
      "Ġpulled": 8968,
      "/${": 8969,
      "Ġprohib": 8970,
      "Ġexcell": 8971,
      "Ġunderw": 8972,
      "Ġstream": 8973,
      "Ġ1928": 8974,
      "If": 8975,
      "Ġalter": 8976,
      "ĠLane": 8977,
      "Ġcanal": 8978,
      "Ġ1925": 8979,
      "Ġrarely": 8980,
      "ĠGreece": 8981,
      "math": 8982,
      "ĠUnlike": 8983,
      "Ġpunct": 8984,
      "cular": 8985,
      "ĠRen": 8986,
      "ĠArk": 8987,
      "Ġrepair": 8988,
      "Ġframe": 8989,
      "ĠMach": 8990,
      "Ġvic": 8991,
      "Ġcoverage": 8992,
      "project": 8993,
      "Ġregistered": 8994,
      "```<|": 8995,
      "rupted": 8996,
      "Ġethnic": 8997,
      "]:": 8998,
      "brid": 8999,
      "Ġspecimens": 9000,
      "Ġdefine": 9001,
      "Ġcovers": 9002,
      "olis": 9003,
      "away": 9004,
      "Ġalleg": 9005,
      "Ġboys": 9006,
      "ĠLennon": 9007,
      "ĠNar": 9008,
      "Ġscared": 9009,
      ">/": 9010,
      "Ġanticip": 9011,
      "Ġturrets": 9012,
      "split": 9013,
      "Ġgrown": 9014,
      "Ġdeter": 9015,
      "ĠEst": 9016,
      "olas": 9017,
      "Num": 9018,
      "lh": 9019,
      "hr": 9020,
      "Ġrepresentative": 9021,
      "Ġcriticised": 9022,
      "Ġinteresting": 9023,
      "ĠStock": 9024,
      "ĠBan": 9025,
      "Ġfinale": 9026,
      "USER": 9027,
      "Ġorb": 9028,
      "amese": 9029,
      "Ġdifficulties": 9030,
      "ois": 9031,
      "ygen": 9032,
      "Ġprosec": 9033,
      "Ġverse": 9034,
      "Ġplatinum": 9035,
      "Ġsympt": 9036,
      "Ġdivisible": 9037,
      "CU": 9038,
      "ĠMiami": 9039,
      "ubes": 9040,
      "Ġrounds": 9041,
      "ĠPC": 9042,
      "Ġcompilation": 9043,
      "Ġextreme": 9044,
      "ref": 9045,
      "Ġdesigner": 9046,
      "Ġorganizations": 9047,
      "ilst": 9048,
      "brew": 9049,
      "Ġphen": 9050,
      "Ġuppercase": 9051,
      "Ġ\"\\": 9052,
      "otes": 9053,
      "Ġ07": 9054,
      "ĠAnglo": 9055,
      "borough": 9056,
      "Ġsymp": 9057,
      "inces": 9058,
      "Ġmamm": 9059,
      "Ġmainstream": 9060,
      "Ġneighborhood": 9061,
      "ĠEle": 9062,
      "abilities": 9063,
      "ĠMalays": 9064,
      "hand": 9065,
      "Ġliqu": 9066,
      "ĠBird": 9067,
      "Ġdigits": 9068,
      "Ġsubmitted": 9069,
      "OUNT": 9070,
      "ĠNevertheless": 9071,
      "Ġneutral": 9072,
      "67": 9073,
      "ĠGiants": 9074,
      "Ġaggress": 9075,
      "Ġflash": 9076,
      "Ġengineering": 9077,
      "Ġopens": 9078,
      "Ġ1890": 9079,
      "Ġ08": 9080,
      "Ġlinks": 9081,
      "ĠCode": 9082,
      "Ġforcing": 9083,
      "Ġlengths": 9084,
      "ĠHorse": 9085,
      "yes": 9086,
      "ĠBol": 9087,
      "ĠIterate": 9088,
      "Ġtenth": 9089,
      "Ġ1924": 9090,
      "Ġasking": 9091,
      "ĠSomerset": 9092,
      "Gr": 9093,
      "Ġmand": 9094,
      "NO": 9095,
      "ounced": 9096,
      "Ġrefuge": 9097,
      "Ġcompete": 9098,
      "ĠWindows": 9099,
      "ĠLev": 9100,
      "ĠValue": 9101,
      "iveness": 9102,
      "Ġfat": 9103,
      "esis": 9104,
      "Ġassign": 9105,
      "Ġarchive": 9106,
      "andy": 9107,
      "Ġoccurrences": 9108,
      "Ġpars": 9109,
      "urance": 9110,
      "util": 9111,
      "Ġlogic": 9112,
      "larg": 9113,
      "Ġtelling": 9114,
      "umps": 9115,
      "ĠWin": 9116,
      "Ġpitched": 9117,
      "ĠFrederick": 9118,
      "ensed": 9119,
      "Ġ71": 9120,
      "Ġmonument": 9121,
      "rang": 9122,
      "Ġpersonality": 9123,
      "ĠBuff": 9124,
      "alling": 9125,
      "Ġwants": 9126,
      "ĠTs": 9127,
      "ĠCry": 9128,
      "Ġoverw": 9129,
      "Ġfighters": 9130,
      "Ġsequences": 9131,
      "Ġcrisis": 9132,
      "abama": 9133,
      "Ġjur": 9134,
      "Ġexpensive": 9135,
      "Ġconcerts": 9136,
      "Ġtight": 9137,
      "Ġbases": 9138,
      "Ġmanage": 9139,
      "mad": 9140,
      "mers": 9141,
      "ainer": 9142,
      "Ġresolution": 9143,
      "Ġdivor": 9144,
      "ennis": 9145,
      "Ġexactly": 9146,
      "ĠTreaty": 9147,
      "Ġhousing": 9148,
      "wd": 9149,
      "uscript": 9150,
      "Ġshear": 9151,
      "ĠHorn": 9152,
      "weet": 9153,
      "grad": 9154,
      "grep": 9155,
      "Ġdestroyers": 9156,
      "Ġneighbour": 9157,
      "Ġseed": 9158,
      "Ġattendance": 9159,
      "Ġhockey": 9160,
      "Ġsacr": 9161,
      "Ġexplo": 9162,
      "Ġhttp": 9163,
      "azing": 9164,
      "ĠProgram": 9165,
      "Ġtwin": 9166,
      "Ġwaiting": 9167,
      "Ġpreserved": 9168,
      "ĠPlayer": 9169,
      "Ne": 9170,
      "Ġrecover": 9171,
      "Ġcreator": 9172,
      "Ġtravelled": 9173,
      "ĠRick": 9174,
      "Ġfinals": 9175,
      "ĠTrek": 9176,
      "urday": 9177,
      "Ġpractices": 9178,
      "ĠMarshall": 9179,
      "ĠLate": 9180,
      "ĠMario": 9181,
      "Ġmoments": 9182,
      "ele": 9183,
      "Key": 9184,
      "leep": 9185,
      "Ġtrend": 9186,
      "ĠSocial": 9187,
      "Ġ09": 9188,
      "hist": 9189,
      "ĠDave": 9190,
      "Ġprotagonist": 9191,
      "agen": 9192,
      "Ġspan": 9193,
      "Ġlocate": 9194,
      "inction": 9195,
      "Ġsimultaneously": 9196,
      "Ġflowers": 9197,
      "Ġsq": 9198,
      "Ġunderst": 9199,
      "ĠSon": 9200,
      "Ġreplacing": 9201,
      "Ġloan": 9202,
      "ĠPerson": 9203,
      "Ġchurches": 9204,
      "Ġmerged": 9205,
      "Ġrepeatedly": 9206,
      "ĠSeattle": 9207,
      "ĠCanal": 9208,
      "Ġmarch": 9209,
      "nee": 9210,
      "deb": 9211,
      "Ġapproval": 9212,
      "Ġrealized": 9213,
      "ĠCountry": 9214,
      "Ġ91": 9215,
      "default": 9216,
      "ĠTownship": 9217,
      "ĠGilbert": 9218,
      "Ġacted": 9219,
      "Ġinaug": 9220,
      "ĠPatt": 9221,
      "ĠIns": 9222,
      "thel": 9223,
      "ĠDeath": 9224,
      "enerate": 9225,
      "Ġ1923": 9226,
      "Ġbombers": 9227,
      "reverse": 9228,
      "ĠWing": 9229,
      "Ġcanc": 9230,
      "ĠYanke": 9231,
      "isd": 9232,
      "ographical": 9233,
      "umin": 9234,
      "oding": 9235,
      "ĠKnow": 9236,
      "Ġlem": 9237,
      "Ġoccurrence": 9238,
      "ĠCaribbean": 9239,
      "Ġelsewhere": 9240,
      "Ġuncertain": 9241,
      "Ġtunnel": 9242,
      "ĠML": 9243,
      "Ġscientists": 9244,
      "otten": 9245,
      "Ġoutl": 9246,
      "ĠAustralians": 9247,
      "Ġpowered": 9248,
      "nik": 9249,
      "Ġdict": 9250,
      "Ġtribute": 9251,
      "MM": 9252,
      "Ġprecip": 9253,
      "ĠBilly": 9254,
      "ĠHans": 9255,
      "Ġdollars": 9256,
      "product": 9257,
      "Ġrestaurant": 9258,
      "Ġtargets": 9259,
      "ĠForces": 9260,
      "Ġadvis": 9261,
      "Ġcovering": 9262,
      "ĠRecording": 9263,
      "ĠCharlie": 9264,
      "ĠFunction": 9265,
      "ĠHeavy": 9266,
      "Ġalignment": 9267,
      "ĠBros": 9268,
      "Ġcircle": 9269,
      "DS": 9270,
      "Ġ81": 9271,
      "obile": 9272,
      "Ġmarry": 9273,
      "ĠMinistry": 9274,
      "Ġpartnership": 9275,
      "Ġturb": 9276,
      "style": 9277,
      "Ġnotice": 9278,
      "ĠMississ": 9279,
      "info": 9280,
      "Ġvulner": 9281,
      "nest": 9282,
      "Ġappointment": 9283,
      "Ġanch": 9284,
      "Ġcomplic": 9285,
      "Ġquiet": 9286,
      "Ġcommunication": 9287,
      "ĠAlabama": 9288,
      "Ġsurvive": 9289,
      "alions": 9290,
      "Ġpossession": 9291,
      "Ġpaintings": 9292,
      "Ġloud": 9293,
      "oty": 9294,
      "pler": 9295,
      "items": 9296,
      "Ġsoil": 9297,
      "formation": 9298,
[...]
